0x20, 0x00, 0x00, 0x00, 0x54, 0x46, 0x4c, 0x33, 0x00, 0x00, 0x00, 0x00,
  0x14, 0x00, 0x20, 0x00, 0x1c, 0x00, 0x18, 0x00, 0x14, 0x00, 0x10, 0x00,
  0x0c, 0x00, 0x00, 0x00, 0x08, 0x00, 0x04, 0x00, 0x14, 0x00, 0x00, 0x00,
  0x1c, 0x00, 0x00, 0x00, 0x8c, 0x00, 0x00, 0x00, 0x0c, 0x01, 0x00, 0x00,
  0xac, 0x0e, 0x00, 0x00, 0xbc, 0x0e, 0x00, 0x00, 0x18, 0x2f, 0x00, 0x00,
  0x03, 0x00, 0x00, 0x00, 0x01, 0x00, 0x00, 0x00, 0x04, 0x00, 0x00, 0x00,
  0x46, 0xed, 0xff, 0xff, 0x0c, 0x00, 0x00, 0x00, 0x1c, 0x00, 0x00, 0x00,
  0x3c, 0x00, 0x00, 0x00, 0x0f, 0x00, 0x00, 0x00, 0x73, 0x65, 0x72, 0x76,
  0x69, 0x6e, 0x67, 0x5f, 0x64, 0x65, 0x66, 0x61, 0x75, 0x6c, 0x74, 0x00,
  0x01, 0x00, 0x00, 0x00, 0x04, 0x00, 0x00, 0x00, 0x68, 0xff, 0xff, 0xff,
  0x25, 0x00, 0x00, 0x00, 0x04, 0x00, 0x00, 0x00, 0x08, 0x00, 0x00, 0x00,
  0x6f, 0x75, 0x74, 0x70, 0x75, 0x74, 0x5f, 0x30, 0x00, 0x00, 0x00, 0x00,
  0x01, 0x00, 0x00, 0x00, 0x04, 0x00, 0x00, 0x00, 0xfa, 0xf0, 0xff, 0xff,
  0x04, 0x00, 0x00, 0x00, 0x0c, 0x00, 0x00, 0x00, 0x6b, 0x65, 0x72, 0x61,
  0x73, 0x5f, 0x74, 0x65, 0x6e, 0x73, 0x6f, 0x72, 0x00, 0x00, 0x00, 0x00,
  0x03, 0x00, 0x00, 0x00, 0x5c, 0x00, 0x00, 0x00, 0x2c, 0x00, 0x00, 0x00,
  0x04, 0x00, 0x00, 0x00, 0xb8, 0xff, 0xff, 0xff, 0x29, 0x00, 0x00, 0x00,
  0x04, 0x00, 0x00, 0x00, 0x13, 0x00, 0x00, 0x00, 0x43, 0x4f, 0x4e, 0x56,
  0x45, 0x52, 0x53, 0x49, 0x4f, 0x4e, 0x5f, 0x4d, 0x45, 0x54, 0x41, 0x44,
  0x41, 0x54, 0x41, 0x00, 0xdc, 0xff, 0xff, 0xff, 0x28, 0x00, 0x00, 0x00,
  0x04, 0x00, 0x00, 0x00, 0x13, 0x00, 0x00, 0x00, 0x6d, 0x69, 0x6e, 0x5f,
  0x72, 0x75, 0x6e, 0x74, 0x69, 0x6d, 0x65, 0x5f, 0x76, 0x65, 0x72, 0x73,
  0x69, 0x6f, 0x6e, 0x00, 0x08, 0x00, 0x0c, 0x00, 0x08, 0x00, 0x04, 0x00,
  0x08, 0x00, 0x00, 0x00, 0x27, 0x00, 0x00, 0x00, 0x04, 0x00, 0x00, 0x00,
  0x13, 0x00, 0x00, 0x00, 0x6d, 0x69, 0x6e, 0x5f, 0x72, 0x75, 0x6e, 0x74,
  0x69, 0x6d, 0x65, 0x5f, 0x76, 0x65, 0x72, 0x73, 0x69, 0x6f, 0x6e, 0x00,
  0x2a, 0x00, 0x00, 0x00, 0x9c, 0x0d, 0x00, 0x00, 0x94, 0x0d, 0x00, 0x00,
  0x80, 0x0d, 0x00, 0x00, 0x64, 0x0d, 0x00, 0x00, 0x50, 0x0d, 0x00, 0x00,
  0x34, 0x0d, 0x00, 0x00, 0x18, 0x0d, 0x00, 0x00, 0xfc, 0x0c, 0x00, 0x00,
  0xe0, 0x0c, 0x00, 0x00, 0xc4, 0x0c, 0x00, 0x00, 0xac, 0x0c, 0x00, 0x00,
  0x5c, 0x0c, 0x00, 0x00, 0xcc, 0x0b, 0x00, 0x00, 0xbc, 0x05, 0x00, 0x00,
  0x6c, 0x05, 0x00, 0x00, 0xdc, 0x02, 0x00, 0x00, 0xac, 0x02, 0x00, 0x00,
  0x5c, 0x01, 0x00, 0x00, 0x54, 0x01, 0x00, 0x00, 0x4c, 0x01, 0x00, 0x00,
  0x44, 0x01, 0x00, 0x00, 0x3c, 0x01, 0x00, 0x00, 0x34, 0x01, 0x00, 0x00,
  0x2c, 0x01, 0x00, 0x00, 0x24, 0x01, 0x00, 0x00, 0x1c, 0x01, 0x00, 0x00,
  0x14, 0x01, 0x00, 0x00, 0x0c, 0x01, 0x00, 0x00, 0x04, 0x01, 0x00, 0x00,
  0xfc, 0x00, 0x00, 0x00, 0xf4, 0x00, 0x00, 0x00, 0xec, 0x00, 0x00, 0x00,
  0xe4, 0x00, 0x00, 0x00, 0xdc, 0x00, 0x00, 0x00, 0xd4, 0x00, 0x00, 0x00,
  0xcc, 0x00, 0x00, 0x00, 0xc4, 0x00, 0x00, 0x00, 0xbc, 0x00, 0x00, 0x00,
  0xb4, 0x00, 0x00, 0x00, 0x94, 0x00, 0x00, 0x00, 0x74, 0x00, 0x00, 0x00,
  0x04, 0x00, 0x00, 0x00, 0x46, 0xf2, 0xff, 0xff, 0x04, 0x00, 0x00, 0x00,
  0x60, 0x00, 0x00, 0x00, 0x0c, 0x00, 0x00, 0x00, 0x08, 0x00, 0x0e, 0x00,
  0x08, 0x00, 0x04, 0x00, 0x08, 0x00, 0x00, 0x00, 0x10, 0x00, 0x00, 0x00,
  0x28, 0x00, 0x00, 0x00, 0x00, 0x00, 0x06, 0x00, 0x08, 0x00, 0x04, 0x00,
  0x06, 0x00, 0x00, 0x00, 0x04, 0x00, 0x00, 0x00, 0x01, 0x00, 0x00, 0x00,
  0xeb, 0x03, 0x00, 0x00, 0x0c, 0x00, 0x18, 0x00, 0x14, 0x00, 0x10, 0x00,
  0x0c, 0x00, 0x04, 0x00, 0x0c, 0x00, 0x00, 0x00, 0xb2, 0x88, 0x28, 0xdc,
  0x47, 0xec, 0x25, 0x50, 0x02, 0x00, 0x00, 0x00, 0x02, 0x00, 0x00, 0x00,
  0x04, 0x00, 0x00, 0x00, 0x06, 0x00, 0x00, 0x00, 0x32, 0x2e, 0x31, 0x39,
  0x2e, 0x30, 0x00, 0x00, 0xb2, 0xf2, 0xff, 0xff, 0x04, 0x00, 0x00, 0x00,
  0x10, 0x00, 0x00, 0x00, 0x00, 0x00, 0x00, 0x00, 0x00, 0x00, 0x00, 0x00,
  0x00, 0x00, 0x00, 0x00, 0x00, 0x00, 0x00, 0x00, 0xce, 0xf2, 0xff, 0xff,
  0x04, 0x00, 0x00, 0x00, 0x10, 0x00, 0x00, 0x00, 0x31, 0x2e, 0x31, 0x34,
  0x2e, 0x30, 0x00, 0x00, 0x00, 0x00, 0x00, 0x00, 0x00, 0x00, 0x00, 0x00,
  0x04, 0xd4, 0xff, 0xff, 0x08, 0xd4, 0xff, 0xff, 0x0c, 0xd4, 0xff, 0xff,
  0x10, 0xd4, 0xff, 0xff, 0x14, 0xd4, 0xff, 0xff, 0x18, 0xd4, 0xff, 0xff,
  0x1c, 0xd4, 0xff, 0xff, 0x20, 0xd4, 0xff, 0xff, 0x24, 0xd4, 0xff, 0xff,
  0x28, 0xd4, 0xff, 0xff, 0x2c, 0xd4, 0xff, 0xff, 0x30, 0xd4, 0xff, 0xff,
  0x34, 0xd4, 0xff, 0xff, 0x38, 0xd4, 0xff, 0xff, 0x3c, 0xd4, 0xff, 0xff,
  0x40, 0xd4, 0xff, 0xff, 0x44, 0xd4, 0xff, 0xff, 0x48, 0xd4, 0xff, 0xff,
  0x4c, 0xd4, 0xff, 0xff, 0x50, 0xd4, 0xff, 0xff, 0x54, 0xd4, 0xff, 0xff,
  0x3e, 0xf3, 0xff, 0xff, 0x04, 0x00, 0x00, 0x00, 0x40, 0x01, 0x00, 0x00,
  0xe0, 0xdb, 0xc5, 0x9e, 0xa3, 0xf8, 0xe2, 0x00, 0xd9, 0x52, 0x46, 0x3c,
  0x28, 0x10, 0x81, 0x11, 0xe2, 0xb6, 0xb3, 0x29, 0x87, 0xe6, 0xbb, 0xe0,
  0xc1, 0x39, 0x27, 0x99, 0xfa, 0x25, 0xa9, 0x15, 0xbd, 0x53, 0xd3, 0xcb,
  0xef, 0xbd, 0x51, 0x95, 0x3e, 0x02, 0xbe, 0xc1, 0xc6, 0xb7, 0x07, 0x1c,
  0x37, 0x0c, 0x20, 0x15, 0x1a, 0x2b, 0xc3, 0xba, 0x0e, 0x5b, 0x08, 0xf0,
  0x57, 0x11, 0x03, 0x39, 0xe5, 0xdd, 0x0c, 0x1e, 0x39, 0x4f, 0x38, 0xb9,
  0x40, 0x78, 0x10, 0x44, 0xec, 0x7f, 0x22, 0x0d, 0x7f, 0x33, 0x93, 0x15,
  0x1b, 0xfb, 0x3f, 0x20, 0x23, 0x16, 0xb0, 0xda, 0xe6, 0xb1, 0xd6, 0xf0,
  0x55, 0x67, 0x31, 0xd4, 0x63, 0xb6, 0x29, 0x6e, 0xce, 0xc9, 0x0a, 0xd5,
  0xd7, 0xd3, 0x04, 0xac, 0x60, 0xe6, 0x5b, 0x38, 0x44, 0x4e, 0x23, 0x07,
  0x9a, 0xf1, 0x2e, 0x30, 0x9e, 0xdd, 0x14, 0x70, 0x18, 0xd0, 0x03, 0x33,
  0x04, 0x6f, 0xcd, 0xf2, 0x81, 0x4c, 0xba, 0x4e, 0xc5, 0x00, 0x25, 0x5c,
  0xe9, 0x37, 0x24, 0x30, 0x8a, 0x3a, 0x20, 0x0d, 0x96, 0x59, 0xaf, 0xc7,
  0x38, 0xe5, 0x23, 0xf6, 0x3a, 0xdd, 0x8f, 0x5d, 0x60, 0x2f, 0x27, 0x23,
  0xaf, 0x1f, 0x0f, 0xd0, 0xc7, 0x2e, 0x39, 0xd7, 0xe2, 0x31, 0xc6, 0x0d,
  0x81, 0xcd, 0x44, 0x2f, 0x96, 0x57, 0x00, 0x39, 0x07, 0xf7, 0xb2, 0xf7,
  0xda, 0xbc, 0x01, 0x13, 0x8c, 0x45, 0xc9, 0xec, 0x4b, 0xe7, 0x25, 0xd1,
  0x79, 0xfe, 0x29, 0x2d, 0x2c, 0x19, 0xc0, 0x03, 0x2f, 0xef, 0xb6, 0xe5,
  0x7f, 0xcb, 0x3b, 0x1d, 0x4d, 0x33, 0x01, 0x19, 0xd4, 0xcc, 0x61, 0x12,
  0x0d, 0xde, 0xc7, 0x01, 0xf6, 0x54, 0xfe, 0xa1, 0xc9, 0xe7, 0xe0, 0x30,
  0x60, 0x27, 0xee, 0xe5, 0x6f, 0x2f, 0x7f, 0x5d, 0x11, 0xe7, 0xf8, 0xdf,
  0x29, 0xcd, 0xa0, 0xef, 0x5d, 0x40, 0x14, 0xc9, 0xfd, 0xd7, 0xb9, 0x34,
  0x29, 0x00, 0x4a, 0x1c, 0x0e, 0x01, 0x09, 0xd1, 0x21, 0x05, 0x1e, 0x2d,
  0x6e, 0x21, 0x31, 0x13, 0xe2, 0xc2, 0xfe, 0x33, 0xad, 0x22, 0x16, 0xd1,
  0x85, 0xf0, 0x25, 0x08, 0xe0, 0xd7, 0xf4, 0xd8, 0xb9, 0x34, 0x32, 0x29,
  0x88, 0xe9, 0xd6, 0xea, 0xb4, 0xfb, 0xf7, 0x30, 0xea, 0xe8, 0x22, 0x26,
  0x81, 0x0f, 0xe8, 0xfe, 0xd6, 0xed, 0x05, 0xf2, 0x8a, 0xf4, 0xff, 0xff,
  0x04, 0x00, 0x00, 0x00, 0x20, 0x00, 0x00, 0x00, 0xc2, 0x01, 0x00, 0x00,
  0x13, 0x02, 0x00, 0x00, 0x37, 0x01, 0x00, 0x00, 0x52, 0x00, 0x00, 0x00,
  0x31, 0x00, 0x00, 0x00, 0x3b, 0x01, 0x00, 0x00, 0x8f, 0xff, 0xff, 0xff,
  0xc3, 0xff, 0xff, 0xff, 0xb6, 0xf4, 0xff, 0xff, 0x04, 0x00, 0x00, 0x00,
  0x80, 0x02, 0x00, 0x00, 0xe2, 0x3f, 0xdf, 0x1b, 0xae, 0x08, 0xe6, 0x21,
  0x05, 0xda, 0x4e, 0xe3, 0x11, 0xef, 0x0e, 0xdd, 0x81, 0x27, 0x0f, 0xb0,
  0xba, 0xb8, 0x0f, 0xda, 0x9a, 0x34, 0x48, 0xc9, 0xf9, 0x57, 0x07, 0x07,
  0x20, 0x09, 0xcf, 0x2b, 0x06, 0xdb, 0x43, 0xcd, 0x0f, 0x36, 0x2b, 0xee,
  0x28, 0x46, 0x37, 0x7f, 0x27, 0x77, 0xdc, 0x51, 0xe7, 0xe8, 0x26, 0xdb,
  0x0e, 0xc7, 0x58, 0xe3, 0xa4, 0x1f, 0xa7, 0xc8, 0x86, 0xb8, 0xeb, 0x64,
  0xc4, 0x2b, 0x99, 0xf6, 0x21, 0xaf, 0xb3, 0x02, 0x0c, 0x87, 0x95, 0x74,
  0xd3, 0x48, 0xe3, 0xec, 0x9f, 0x08, 0x01, 0x22, 0xf0, 0xe3, 0xa9, 0x22,
  0xf4, 0x0e, 0x20, 0x31, 0xe9, 0x14, 0x21, 0x0c, 0x49, 0xff, 0xa8, 0x9d,
  0x04, 0x1a, 0x30, 0x15, 0x31, 0xaf, 0x0c, 0xff, 0x4a, 0xb0, 0xc7, 0xeb,
  0xca, 0x81, 0xa5, 0x7d, 0xe5, 0x07, 0x15, 0x1d, 0x99, 0xea, 0x88, 0x81,
  0x45, 0xf0, 0x2d, 0xad, 0x1e, 0xa6, 0x01, 0x17, 0xfe, 0xa5, 0xe4, 0x44,
  0x56, 0xa1, 0xf7, 0xcf, 0xf0, 0x48, 0xf3, 0x1b, 0x26, 0xe9, 0xf8, 0x26,
  0xbd, 0x15, 0x59, 0x12, 0xb4, 0x59, 0x26, 0xfb, 0xf9, 0xc0, 0x5e, 0xcd,
  0x81, 0xc7, 0x2a, 0xdd, 0xab, 0xb4, 0x1e, 0xe8, 0xc1, 0xf2, 0xc3, 0x5b,
  0x40, 0x45, 0x95, 0x17, 0x29, 0x31, 0x42, 0xd7, 0x93, 0x58, 0x26, 0x49,
  0xe4, 0xd0, 0xb3, 0x94, 0x38, 0x44, 0x44, 0x03, 0xd3, 0x2c, 0xa8, 0xb6,
  0xb6, 0x3e, 0x1a, 0xd6, 0x25, 0x7a, 0x5d, 0x81, 0x18, 0xc4, 0x23, 0x24,
  0x3a, 0xb6, 0x0a, 0x89, 0xc4, 0xfd, 0x04, 0xe5, 0x04, 0x08, 0xf6, 0xe8,
  0x2b, 0xc1, 0xc0, 0x4e, 0xca, 0x0a, 0xb5, 0x10, 0xab, 0x36, 0xe3, 0xd6,
  0x3e, 0x09, 0x6a, 0xc2, 0x0a, 0xc8, 0xb4, 0x48, 0xfe, 0xcf, 0x32, 0x05,
  0x51, 0xe3, 0xb1, 0xe0, 0x28, 0x95, 0x43, 0x26, 0xdc, 0xf2, 0x40, 0x46,
  0x4e, 0xfb, 0x5a, 0xea, 0x25, 0x17, 0xd7, 0x81, 0x1a, 0xbc, 0x1f, 0xfc,
  0xbb, 0x0c, 0xf7, 0x0c, 0x2b, 0x69, 0x67, 0x39, 0x89, 0x23, 0x15, 0x0b,
  0xbb, 0x61, 0xc5, 0x0b, 0xca, 0x37, 0x01, 0x2e, 0xcd, 0x5e, 0x1c, 0x7f,
  0x25, 0xd3, 0x45, 0xc8, 0x0d, 0x00, 0xc7, 0x76, 0xaa, 0x2a, 0xa0, 0xe0,
  0x23, 0xb8, 0xdf, 0x68, 0xb1, 0xb7, 0x32, 0xab, 0xd9, 0xf0, 0x0c, 0xd8,
  0x08, 0x50, 0x4f, 0xf8, 0x21, 0xd4, 0xd9, 0xf6, 0xe1, 0x07, 0xfd, 0xa6,
  0x9f, 0x05, 0x52, 0x12, 0x15, 0x64, 0xc8, 0xb6, 0xd9, 0xf0, 0x5c, 0x26,
  0x88, 0x13, 0xf5, 0x6a, 0x10, 0x4a, 0x5a, 0x81, 0xcc, 0xf6, 0x53, 0xb1,
  0x27, 0x68, 0x01, 0xc2, 0xaa, 0xe9, 0x61, 0x36, 0x06, 0xd9, 0x33, 0x64,
  0x32, 0xf6, 0x23, 0x4a, 0x07, 0xfa, 0xeb, 0xbd, 0x11, 0xe0, 0xcb, 0x2e,
  0xe2, 0xf2, 0x21, 0x1d, 0xd1, 0xc4, 0x15, 0xb9, 0x2e, 0xbc, 0x2f, 0xe7,
  0x56, 0xdd, 0x81, 0x04, 0x47, 0xdd, 0xe4, 0xfa, 0x20, 0x30, 0x82, 0x38,
  0x2a, 0xee, 0x81, 0xf5, 0x07, 0xf1, 0xde, 0x0b, 0xca, 0xae, 0xe2, 0x5f,
  0xbf, 0x22, 0xb5, 0xf8, 0x6d, 0xe9, 0x20, 0x5a, 0x31, 0x05, 0xc4, 0x8a,
  0x6a, 0x1e, 0x2e, 0xf3, 0xda, 0x2a, 0x22, 0x16, 0x22, 0x33, 0x32, 0x48,
  0x0b, 0xdc, 0xa8, 0xf4, 0xe4, 0x05, 0xc8, 0x9a, 0x30, 0x53, 0x8d, 0x3f,
  0x08, 0xd0, 0x85, 0x56, 0x3f, 0xc2, 0x7f, 0x40, 0x41, 0x24, 0x4e, 0x65,
  0x00, 0x30, 0x40, 0xef, 0x38, 0xa2, 0xfd, 0x6c, 0xe1, 0xf2, 0xdc, 0x3e,
  0xe0, 0x1c, 0x00, 0xce, 0x0a, 0x15, 0x53, 0x20, 0x9b, 0x10, 0xa4, 0x0a,
  0xdf, 0xf2, 0x3c, 0xf1, 0xed, 0x01, 0xf5, 0x2b, 0x01, 0x1b, 0x09, 0x30,
  0x2d, 0x3e, 0x98, 0x08, 0xb1, 0x13, 0xce, 0x27, 0x1e, 0xd0, 0x95, 0xe2,
  0xf8, 0x2c, 0x81, 0x60, 0x2a, 0xc6, 0xca, 0xc2, 0x4b, 0xfc, 0x36, 0x60,
  0x3b, 0x33, 0x0a, 0x5a, 0x23, 0xf3, 0xe0, 0x68, 0xdd, 0xcc, 0xa7, 0xf6,
  0x3f, 0xd3, 0xf5, 0x56, 0x9f, 0x81, 0xc0, 0xf1, 0xce, 0xab, 0x73, 0xce,
  0xd4, 0xf7, 0xe3, 0xfb, 0x4f, 0xe5, 0xeb, 0x25, 0xd0, 0xf2, 0xe1, 0x08,
  0x57, 0xe4, 0x9d, 0xfe, 0xd7, 0x81, 0x96, 0x23, 0xe6, 0x1d, 0xeb, 0xf1,
  0x28, 0x28, 0x2a, 0x13, 0xb9, 0x18, 0xdc, 0x2f, 0xae, 0x4a, 0x16, 0xab,
  0xf8, 0xdb, 0x2b, 0xe1, 0xbe, 0x31, 0x2a, 0xb3, 0xb3, 0x45, 0x03, 0xfa,
  0x0f, 0x2a, 0x27, 0x05, 0xa6, 0x23, 0x81, 0x02, 0x2d, 0xe0, 0xf0, 0x94,
  0x52, 0xe2, 0x56, 0xed, 0xcf, 0xf9, 0x75, 0xc3, 0x97, 0x16, 0xa6, 0xc7,
  0x64, 0xd6, 0x60, 0xf9, 0x16, 0x5c, 0x02, 0x4f, 0xcc, 0x3e, 0x56, 0x55,
  0xe9, 0x2e, 0xa1, 0xc6, 0x7d, 0xa0, 0x9a, 0x5e, 0x42, 0xf7, 0xff, 0xff,
  0x04, 0x00, 0x00, 0x00, 0x40, 0x00, 0x00, 0x00, 0x7b, 0x0f, 0x00, 0x00,
  0x9b, 0xfe, 0xff, 0xff, 0xff, 0x17, 0x00, 0x00, 0x9e, 0x07, 0x00, 0x00,
  0xc6, 0x0b, 0x00, 0x00, 0xf4, 0x0d, 0x00, 0x00, 0x35, 0xf3, 0xff, 0xff,
  0xd8, 0x01, 0x00, 0x00, 0xd8, 0xf7, 0xff, 0xff, 0x23, 0xff, 0xff, 0xff,
  0x50, 0xf6, 0xff, 0xff, 0xf1, 0xee, 0xff, 0xff, 0x9e, 0x0b, 0x00, 0x00,
  0x4e, 0xff, 0xff, 0xff, 0x19, 0x11, 0x00, 0x00, 0x0b, 0x04, 0x00, 0x00,
  0x8e, 0xf7, 0xff, 0xff, 0x04, 0x00, 0x00, 0x00, 0x00, 0x06, 0x00, 0x00,
  0xb9, 0xab, 0xfe, 0x9c, 0x5d, 0x36, 0xc3, 0x03, 0xe6, 0xd1, 0xfb, 0x07,
  0xfb, 0xee, 0xb2, 0xe9, 0xa9, 0xc9, 0x92, 0xbe, 0xff, 0x18, 0x5b, 0x67,
  0xdc, 0x2f, 0x72, 0xc0, 0xec, 0xe6, 0xd8, 0x3e, 0xcc, 0xab, 0x14, 0xd6,
  0xc4, 0xcc, 0xe4, 0x5c, 0x37, 0xbc, 0x66, 0xf1, 0xdd, 0x91, 0x81, 0x60,
  0x06, 0x57, 0x48, 0x5a, 0xe7, 0x06, 0xa8, 0xb2, 0x11, 0xaf, 0x3b, 0x57,
  0x23, 0x23, 0x60, 0xa6, 0x0c, 0x5c, 0xe3, 0x6c, 0x61, 0xee, 0xaf, 0xa9,
  0xf6, 0x4a, 0x02, 0x0e, 0x37, 0x23, 0xf6, 0xef, 0xe1, 0x7f, 0x72, 0x0a,
  0x56, 0xd3, 0xc4, 0xc6, 0xcd, 0x0b, 0xff, 0xe1, 0xdc, 0x0d, 0x28, 0x9c,
  0xcb, 0xe8, 0xc3, 0xea, 0xce, 0xa7, 0xf8, 0x44, 0xcf, 0xaf, 0x4a, 0xfd,
  0xf3, 0x19, 0x31, 0x0a, 0xfe, 0xc0, 0x12, 0xc6, 0xe5, 0x07, 0x29, 0x7f,
  0x1b, 0xde, 0x22, 0x21, 0xd7, 0xcb, 0x01, 0x1f, 0x08, 0xbe, 0x8f, 0xaa,
  0x00, 0xef, 0x24, 0x0c, 0xba, 0xba, 0xed, 0x25, 0xda, 0x2c, 0x20, 0x34,
  0x00, 0xdd, 0xf2, 0xe7, 0xe3, 0xb7, 0x2d, 0x10, 0xe8, 0xc5, 0xcd, 0x3a,
  0xcf, 0xb4, 0x81, 0x1b, 0xc5, 0xf9, 0xf4, 0xee, 0xba, 0x05, 0xc8, 0x0b,
  0x35, 0xb2, 0x38, 0x06, 0xb9, 0x1e, 0xc6, 0x45, 0xc7, 0x88, 0xf0, 0xb4,
  0xdd, 0xe7, 0xd9, 0x5e, 0x35, 0x0a, 0x55, 0x2c, 0xd9, 0xf2, 0xff, 0x45,
  0x73, 0x28, 0x23, 0xfe, 0x49, 0x29, 0xc2, 0xe1, 0xff, 0xe6, 0xd2, 0xc1,
  0x5a, 0x13, 0x14, 0xe4, 0x27, 0x53, 0xeb, 0x38, 0x3d, 0xf3, 0x07, 0xc3,
  0xc0, 0x39, 0x00, 0xe7, 0x26, 0x36, 0x01, 0xd1, 0xe5, 0xd2, 0xef, 0x62,
  0x7f, 0x06, 0xf5, 0xfa, 0x4b, 0x3f, 0xc8, 0xce, 0xcc, 0x30, 0xdd, 0xd5,
  0xf9, 0x4f, 0x4b, 0x2b, 0x04, 0xc2, 0x05, 0xe5, 0x21, 0x4a, 0xd2, 0xda,
  0x0d, 0x20, 0xe6, 0xb1, 0x08, 0x14, 0x03, 0x14, 0x10, 0xc2, 0xed, 0x08,
  0xf8, 0xf7, 0xb2, 0xf4, 0xf8, 0x2b, 0xf0, 0xc0, 0x53, 0x57, 0xd7, 0x0c,
  0x52, 0xd1, 0xc7, 0xd3, 0x0c, 0xd7, 0x1b, 0x27, 0x7f, 0x44, 0xc0, 0x10,
  0xe2, 0x9e, 0x1f, 0xcf, 0x12, 0xc5, 0x3b, 0x73, 0xdd, 0x1a, 0x0e, 0x04,
  0xd8, 0x03, 0x6f, 0x21, 0xdf, 0x96, 0xc7, 0xa5, 0xfe, 0x03, 0x1f, 0x51,
  0x9d, 0x10, 0xd9, 0x29, 0xeb, 0x9f, 0xf2, 0x54, 0x69, 0xaa, 0x8e, 0x81,
  0x2b, 0xce, 0xbd, 0xe0, 0xc3, 0x1e, 0x4c, 0xfb, 0xef, 0x1e, 0x41, 0x19,
  0x07, 0x1f, 0x18, 0x5c, 0x18, 0x15, 0x8d, 0x20, 0x19, 0x5e, 0x9a, 0xfd,
  0x37, 0x4c, 0xbe, 0x10, 0xda, 0x1c, 0xeb, 0x55, 0x65, 0x01, 0xd1, 0xb8,
  0xd2, 0x39, 0x81, 0x5c, 0x2e, 0xf8, 0x13, 0x18, 0x61, 0x42, 0x1e, 0x1c,
  0x57, 0xf0, 0xc5, 0xed, 0x1a, 0x61, 0xc2, 0xe2, 0xf8, 0xe6, 0x2c, 0xc4,
  0x13, 0x23, 0xe6, 0x13, 0x41, 0x5a, 0xb0, 0xc9, 0x55, 0xd7, 0x1d, 0xa2,
  0x7c, 0x3d, 0x18, 0xfd, 0x3e, 0x60, 0x68, 0x1d, 0xf6, 0xe8, 0xad, 0x93,
  0xeb, 0xe0, 0xf4, 0xe8, 0x04, 0x76, 0x4a, 0xa6, 0x7f, 0x00, 0xcd, 0x65,
  0x6f, 0xc5, 0xd1, 0x21, 0xe4, 0x10, 0xf2, 0x3b, 0x3c, 0x06, 0x08, 0xa0,
  0x0f, 0xc4, 0x41, 0xce, 0xc8, 0xba, 0x5d, 0x5f, 0x23, 0xb9, 0x1e, 0xcc,
  0xdb, 0x02, 0x07, 0x1d, 0xbe, 0xdc, 0xbf, 0x81, 0x11, 0x0f, 0xfd, 0x0a,
  0xd9, 0xad, 0xfa, 0x46, 0x0a, 0xd4, 0x14, 0x2b, 0xc3, 0x91, 0xad, 0x88,
  0x41, 0x14, 0x39, 0xd1, 0xee, 0x17, 0xec, 0x30, 0xd5, 0xdd, 0x18, 0xfe,
  0xfb, 0x41, 0x1b, 0x1c, 0x01, 0x2f, 0xa4, 0xdd, 0xf4, 0x3c, 0xcb, 0xd9,
  0x11, 0x29, 0x33, 0xea, 0x45, 0x2a, 0x14, 0xe3, 0x38, 0x1e, 0x09, 0xcc,
  0x05, 0xec, 0xa7, 0x15, 0x55, 0x42, 0xbd, 0xe6, 0x09, 0x0d, 0xd7, 0x7f,
  0x2c, 0x16, 0xf8, 0x1e, 0x10, 0x04, 0xaf, 0x38, 0xcf, 0x08, 0x12, 0xfb,
  0xd6, 0xa1, 0x29, 0xce, 0xbe, 0x96, 0x4d, 0x49, 0x09, 0xee, 0xf9, 0xcc,
  0xe3, 0x3d, 0x07, 0x42, 0x0c, 0xd8, 0x39, 0xd3, 0xb8, 0x06, 0xfe, 0x7f,
  0x1a, 0xef, 0x35, 0xcb, 0xe5, 0xcf, 0x0d, 0x2c, 0xe6, 0xab, 0x9f, 0xe8,
  0x05, 0x24, 0x14, 0xea, 0x10, 0xe9, 0x37, 0xf8, 0xaa, 0xd8, 0xe6, 0xfc,
  0x20, 0xaa, 0xcb, 0x99, 0x03, 0xb7, 0x2d, 0x77, 0xe8, 0xed, 0x27, 0x17,
  0x01, 0x14, 0x2f, 0x43, 0xef, 0x9e, 0xe5, 0x81, 0xde, 0xe8, 0xb4, 0x2d,
  0xf8, 0xe1, 0xfa, 0x2b, 0x14, 0xf6, 0x41, 0x08, 0xe9, 0xa5, 0x9a, 0x9c,
  0x44, 0x06, 0x2f, 0xdf, 0xec, 0x2c, 0xcf, 0x40, 0xcd, 0x01, 0x0c, 0xf3,
  0xf6, 0x5a, 0x1a, 0x0a, 0x4b, 0x0c, 0xa3, 0xd8, 0x40, 0x21, 0xff, 0xf1,
  0x66, 0xec, 0x2d, 0xb1, 0x27, 0x73, 0x0c, 0x26, 0x20, 0xf6, 0x8b, 0xa9,
  0xf3, 0xf5, 0xc1, 0x26, 0x19, 0x7a, 0x08, 0xc3, 0x43, 0x19, 0xba, 0x0f,
  0x7f, 0xef, 0xbb, 0xfa, 0x1e, 0xe5, 0xf2, 0x45, 0x2f, 0x37, 0x14, 0xe2,
  0xdf, 0x0d, 0xcb, 0xc0, 0xd6, 0x10, 0xfd, 0x16, 0x10, 0xc1, 0x4a, 0xf9,
  0x0e, 0x81, 0xac, 0x4e, 0xd0, 0xf6, 0x9c, 0xe6, 0x2c, 0xee, 0xc8, 0xec,
  0x10, 0xe1, 0x53, 0xe1, 0xe1, 0xc8, 0x8e, 0x18, 0xb7, 0x08, 0x01, 0xd3,
  0xe4, 0xc0, 0xc4, 0x53, 0xdf, 0x35, 0x3b, 0x1c, 0xde, 0x82, 0x07, 0x39,
  0x17, 0xbe, 0x2f, 0xef, 0xe7, 0x8b, 0x08, 0x71, 0xf1, 0xf2, 0xd4, 0x35,
  0xc4, 0xf0, 0x05, 0x44, 0xc3, 0xb3, 0x13, 0x99, 0xf8, 0xef, 0x2d, 0x7f,
  0xe1, 0xde, 0x41, 0xeb, 0xff, 0xb9, 0x47, 0x2a, 0xdb, 0xa9, 0xda, 0xe9,
  0x12, 0x23, 0xe4, 0x51, 0xba, 0xe7, 0x1f, 0x28, 0xa6, 0xd8, 0xff, 0xee,
  0x38, 0x0d, 0x19, 0x10, 0x3f, 0x28, 0xe3, 0xeb, 0x08, 0x07, 0xa3, 0x08,
  0x32, 0x10, 0xec, 0xe4, 0xe8, 0x15, 0x22, 0x0c, 0x3e, 0x38, 0x26, 0xce,
  0x26, 0x0a, 0xe1, 0xc9, 0x11, 0x4d, 0xc4, 0xbe, 0xf9, 0xd9, 0x27, 0x54,
  0x7f, 0x31, 0xda, 0x12, 0xf3, 0xd6, 0x00, 0x31, 0xe7, 0x21, 0x3d, 0xcd,
  0x07, 0xd7, 0x9a, 0x81, 0x35, 0x2d, 0xfa, 0x13, 0x04, 0xdb, 0x39, 0x3e,
  0x19, 0xc1, 0xda, 0x5e, 0xea, 0xab, 0xdf, 0xd9, 0x43, 0xae, 0x21, 0x03,
  0xb3, 0x20, 0xbc, 0xcf, 0xb0, 0xe4, 0x01, 0x21, 0xae, 0xed, 0x17, 0xe8,
  0xda, 0xe1, 0x26, 0x57, 0x0b, 0x03, 0x54, 0xa6, 0x0a, 0xcd, 0xd1, 0x22,
  0x18, 0xd8, 0x31, 0xcf, 0xf6, 0xb8, 0x7e, 0xfe, 0xf1, 0xce, 0xe4, 0x05,
  0xe1, 0x06, 0x07, 0xf0, 0xad, 0xa9, 0xec, 0xcf, 0xf9, 0x20, 0x2e, 0x7f,
  0x90, 0xe3, 0xd9, 0x33, 0xd3, 0xb7, 0x1c, 0x5a, 0x40, 0x96, 0xaf, 0xa6,
  0xff, 0xd8, 0xd8, 0x3e, 0x1c, 0xb4, 0x54, 0x13, 0xd9, 0x39, 0xc5, 0x00,
  0x2f, 0x10, 0xe5, 0x56, 0x0c, 0x07, 0xa1, 0x09, 0x66, 0x0e, 0xc8, 0x21,
  0x68, 0xfc, 0xb8, 0xf5, 0xe0, 0x33, 0x00, 0x62, 0x54, 0x59, 0x0c, 0xc3,
  0xce, 0xdb, 0x00, 0xd2, 0xdd, 0x4b, 0xbd, 0xce, 0x19, 0x08, 0x1a, 0x14,
  0x7f, 0xb5, 0xbb, 0xe5, 0x56, 0xe9, 0x16, 0x1f, 0x11, 0xfc, 0x52, 0xc9,
  0x24, 0x1f, 0x4d, 0x43, 0xfb, 0xad, 0x07, 0xea, 0xca, 0xe6, 0x0f, 0xea,
  0xff, 0x56, 0x22, 0xc3, 0x20, 0x0c, 0x0f, 0x2a, 0x29, 0xc0, 0xf8, 0xeb,
  0xf7, 0xb9, 0xb9, 0x38, 0x2e, 0x26, 0x4e, 0xe1, 0xe3, 0x7f, 0x46, 0x43,
  0xdf, 0xe3, 0xe0, 0xc7, 0xdd, 0x4e, 0xf2, 0xad, 0x5b, 0x6a, 0xe7, 0xfc,
  0xd5, 0xd3, 0xa3, 0x81, 0x3c, 0x39, 0x34, 0x10, 0xab, 0xf3, 0x3d, 0x4d,
  0x1d, 0x94, 0xb4, 0x3c, 0xbe, 0xd3, 0xb2, 0xcc, 0x4b, 0x1d, 0x36, 0x1d,
  0xe7, 0xf1, 0xcf, 0xc9, 0xc6, 0xe0, 0xbc, 0x40, 0x1d, 0xc4, 0x08, 0xb0,
  0xf6, 0xdf, 0x12, 0x61, 0xfd, 0xcd, 0x0f, 0x37, 0x10, 0xf4, 0xc4, 0xfb,
  0x27, 0x16, 0x15, 0x3c, 0xd5, 0x1b, 0xe6, 0xc8, 0x1c, 0x38, 0xd1, 0x29,
  0x1b, 0x53, 0x23, 0xde, 0x5a, 0x54, 0x7f, 0x1f, 0x7c, 0xa7, 0xaf, 0xc0,
  0xee, 0x1d, 0x16, 0xcf, 0x27, 0x19, 0xcc, 0xb1, 0x1b, 0x6b, 0x05, 0x61,
  0x3e, 0x11, 0x91, 0xdf, 0xeb, 0xea, 0xd1, 0x3d, 0x04, 0x54, 0xe8, 0xc7,
  0xf9, 0x27, 0x10, 0x0e, 0x69, 0x54, 0xfb, 0xe6, 0x07, 0xce, 0xf0, 0x18,
  0x4e, 0xea, 0x23, 0xca, 0x4d, 0x3d, 0x00, 0x3b, 0x33, 0xde, 0xea, 0xc6,
  0xf1, 0xf3, 0x96, 0x35, 0x63, 0x3b, 0xee, 0xf0, 0x5b, 0x23, 0x06, 0x7f,
  0x4d, 0xdb, 0x87, 0x06, 0xd7, 0x0e, 0xe3, 0x68, 0xc3, 0x0b, 0x51, 0xb3,
  0x00, 0x29, 0x32, 0xff, 0x64, 0x28, 0x04, 0xbd, 0x4f, 0x65, 0xd6, 0xc6,
  0x61, 0x1a, 0x0b, 0xae, 0xd6, 0x34, 0x36, 0x3e, 0x17, 0xd8, 0xef, 0xe5,
  0x2b, 0x61, 0x81, 0x39, 0x1e, 0x0c, 0x34, 0xb8, 0x23, 0x3a, 0xf9, 0x54,
  0x67, 0xab, 0x91, 0xef, 0x10, 0xae, 0xfd, 0x3b, 0x38, 0xfd, 0xe9, 0xb4,
  0xd8, 0xd8, 0x3c, 0xf2, 0xb8, 0x99, 0x3b, 0x3a, 0x08, 0x15, 0xe7, 0xfc,
  0xf5, 0xe2, 0x25, 0x12, 0x2a, 0xc9, 0x3c, 0x81, 0x16, 0x08, 0x52, 0x73,
  0x9d, 0xb0, 0xf8, 0xca, 0x01, 0xb8, 0x22, 0x58, 0x4e, 0xbd, 0xc2, 0xbc,
  0x38, 0xda, 0xe9, 0x38, 0xb1, 0xbc, 0x5e, 0xf5, 0xb0, 0xfc, 0x04, 0xe8,
  0xbd, 0xc2, 0x33, 0xce, 0xea, 0x0a, 0x04, 0x54, 0xcc, 0xbd, 0x16, 0x3f,
  0xe0, 0x1c, 0x4a, 0x21, 0xee, 0xe4, 0xcf, 0x8a, 0x01, 0x0c, 0x09, 0x2b,
  0xe0, 0xb1, 0x13, 0x19, 0xf1, 0xb9, 0xb5, 0x50, 0x3b, 0xd7, 0x81, 0xbc,
  0x27, 0x28, 0x1f, 0xe0, 0xd9, 0x11, 0x1d, 0xf8, 0xee, 0xf7, 0xda, 0xf9,
  0xab, 0xee, 0xf0, 0xe4, 0xea, 0xfe, 0x1c, 0xd4, 0x1d, 0x04, 0x42, 0xf9,
  0x16, 0xa7, 0x81, 0xd0, 0x3e, 0xd3, 0x4e, 0xb6, 0x04, 0xa7, 0x63, 0x4c,
  0x4c, 0xe7, 0x03, 0xf4, 0xdc, 0xb8, 0xa5, 0x5e, 0xba, 0x9d, 0xfd, 0xdf,
  0xf7, 0x08, 0xf5, 0x2e, 0x22, 0xec, 0xf7, 0x4d, 0xb9, 0xc4, 0xe8, 0x32,
  0xee, 0x2b, 0x25, 0x34, 0x00, 0x81, 0xe4, 0xe6, 0x0f, 0xee, 0x0f, 0x02,
  0xeb, 0x43, 0xf5, 0xf7, 0x19, 0x27, 0x10, 0x1f, 0x3d, 0xee, 0x08, 0xf7,
  0xe3, 0xeb, 0x30, 0xde, 0x44, 0xf5, 0xf8, 0xea, 0x1e, 0x69, 0x49, 0x25,
  0xfa, 0x0f, 0xb4, 0xc7, 0xe1, 0x35, 0x04, 0xdc, 0x14, 0x1c, 0xde, 0xf1,
  0xaa, 0xad, 0x57, 0xb0, 0xf9, 0xa6, 0xf0, 0x54, 0x4f, 0x9f, 0xed, 0x78,
  0xf1, 0x4e, 0x25, 0x35, 0x09, 0x8e, 0x04, 0x8f, 0xa0, 0xe7, 0xe3, 0x4d,
  0x2e, 0xf7, 0xd4, 0x7f, 0xf5, 0xa8, 0x1c, 0x34, 0x3c, 0x86, 0xbc, 0xe8,
  0x40, 0x2c, 0x23, 0x13, 0xa7, 0xc1, 0x60, 0x4e, 0xa6, 0xba, 0xb8, 0xd3,
  0xc0, 0xcc, 0x09, 0x81, 0x24, 0x5a, 0x42, 0xd4, 0xa8, 0xf7, 0xf1, 0xdc,
  0xfc, 0x92, 0xaa, 0x37, 0xf3, 0x0e, 0x85, 0xa6, 0xf9, 0x2c, 0x6c, 0xdc,
  0x2d, 0xb4, 0xf0, 0xca, 0xf9, 0x17, 0xab, 0x20, 0xe4, 0x93, 0x54, 0xc7,
  0xe9, 0x04, 0x3b, 0x60, 0xa5, 0xb5, 0x03, 0x35, 0xa4, 0xc6, 0xd7, 0x5f,
  0xb2, 0xbf, 0x18, 0x81, 0x2c, 0x46, 0xfc, 0x23, 0xf8, 0xf3, 0xf6, 0xf0,
  0x00, 0xb1, 0xe6, 0x39, 0x18, 0x00, 0x8f, 0xfc, 0x07, 0xd4, 0x44, 0x32,
  0x9e, 0x4e, 0xd5, 0xdd, 0xca, 0xef, 0xfd, 0x0e, 0xd5, 0xae, 0x4a, 0xef,
  0xc7, 0x46, 0x1e, 0x6d, 0xc1, 0xb4, 0x38, 0x28, 0xfe, 0xb3, 0x9f, 0xed,
  0x9a, 0xfd, 0xff, 0xff, 0x04, 0x00, 0x00, 0x00, 0x80, 0x00, 0x00, 0x00,
  0xf4, 0x31, 0x00, 0x00, 0xbf, 0xe7, 0xff, 0xff, 0x2e, 0x1a, 0x00, 0x00,
  0x90, 0x2a, 0x00, 0x00, 0x91, 0xec, 0xff, 0xff, 0x2e, 0xfb, 0xff, 0xff,
  0xc2, 0x15, 0x00, 0x00, 0xda, 0xe8, 0xff, 0xff, 0xd7, 0xe0, 0xff, 0xff,
  0x8d, 0x22, 0x00, 0x00, 0xe8, 0xec, 0xff, 0xff, 0xa1, 0x10, 0x00, 0x00,
  0xfa, 0x1a, 0x00, 0x00, 0x76, 0xea, 0xff, 0xff, 0xe7, 0x38, 0x00, 0x00,
  0xb7, 0x14, 0x00, 0x00, 0x63, 0xe5, 0xff, 0xff, 0x9a, 0x21, 0x00, 0x00,
  0x1a, 0x1b, 0x00, 0x00, 0x97, 0xef, 0xff, 0xff, 0x19, 0xe7, 0xff, 0xff,
  0xf8, 0x25, 0x00, 0x00, 0x40, 0xe5, 0xff, 0xff, 0xad, 0xe2, 0xff, 0xff,
  0x71, 0xed, 0xff, 0xff, 0xde, 0x0c, 0x00, 0x00, 0x9f, 0x1a, 0x00, 0x00,
  0x81, 0x1c, 0x00, 0x00, 0xf5, 0xf1, 0xff, 0xff, 0xd2, 0x13, 0x00, 0x00,
  0xd6, 0x2b, 0x00, 0x00, 0xa3, 0x1e, 0x00, 0x00, 0x26, 0xfe, 0xff, 0xff,
  0x04, 0x00, 0x00, 0x00, 0x40, 0x00, 0x00, 0x00, 0x05, 0xa6, 0x44, 0x40,
  0xae, 0xdd, 0xf2, 0xb0, 0xbf, 0x30, 0xa1, 0x4f, 0x66, 0xc4, 0x1e, 0x44,
  0xbb, 0x71, 0x56, 0xca, 0xe9, 0x15, 0x81, 0xa2, 0xdd, 0x3b, 0x7d, 0xe6,
  0xc8, 0x1c, 0xe1, 0x3f, 0x9f, 0x08, 0xf8, 0xd7, 0xf4, 0x77, 0x90, 0x38,
  0x42, 0xcb, 0x06, 0xe9, 0xaf, 0x5b, 0xc7, 0xd0, 0x41, 0x09, 0xee, 0x47,
  0x3a, 0xa9, 0xcc, 0x12, 0x53, 0x83, 0x28, 0x8f, 0x1f, 0x8e, 0x81, 0x97,
  0x72, 0xfe, 0xff, 0xff, 0x04, 0x00, 0x00, 0x00, 0x08, 0x00, 0x00, 0x00,
  0xcd, 0x05, 0x00, 0x00, 0xf8, 0xf8, 0xff, 0xff, 0x86, 0xfe, 0xff, 0xff,
  0x04, 0x00, 0x00, 0x00, 0x0c, 0x00, 0x00, 0x00, 0xff, 0xff, 0xff, 0xff,
  0x1f, 0x00, 0x00, 0x00, 0x20, 0x00, 0x00, 0x00, 0x9e, 0xfe, 0xff, 0xff,
  0x04, 0x00, 0x00, 0x00, 0x0c, 0x00, 0x00, 0x00, 0xff, 0xff, 0xff, 0xff,
  0x3e, 0x00, 0x00, 0x00, 0x20, 0x00, 0x00, 0x00, 0xb6, 0xfe, 0xff, 0xff,
  0x04, 0x00, 0x00, 0x00, 0x0c, 0x00, 0x00, 0x00, 0xff, 0xff, 0xff, 0xff,
  0x3e, 0x00, 0x00, 0x00, 0x10, 0x00, 0x00, 0x00, 0xce, 0xfe, 0xff, 0xff,
  0x04, 0x00, 0x00, 0x00, 0x0c, 0x00, 0x00, 0x00, 0xff, 0xff, 0xff, 0xff,
  0xfa, 0x00, 0x00, 0x00, 0x10, 0x00, 0x00, 0x00, 0xe6, 0xfe, 0xff, 0xff,
  0x04, 0x00, 0x00, 0x00, 0x0c, 0x00, 0x00, 0x00, 0xff, 0xff, 0xff, 0xff,
  0xfa, 0x00, 0x00, 0x00, 0x08, 0x00, 0x00, 0x00, 0xfe, 0xfe, 0xff, 0xff,
  0x04, 0x00, 0x00, 0x00, 0x04, 0x00, 0x00, 0x00, 0x01, 0x00, 0x00, 0x00,
  0x0e, 0xff, 0xff, 0xff, 0x04, 0x00, 0x00, 0x00, 0x0c, 0x00, 0x00, 0x00,
  0xff, 0xff, 0xff, 0xff, 0xe8, 0x03, 0x00, 0x00, 0x08, 0x00, 0x00, 0x00,
  0x26, 0xff, 0xff, 0xff, 0x04, 0x00, 0x00, 0x00, 0x04, 0x00, 0x00, 0x00,
  0xfd, 0xff, 0xff, 0xff, 0x50, 0xe0, 0xff, 0xff, 0x54, 0xe0, 0xff, 0xff,
  0x0f, 0x00, 0x00, 0x00, 0x4d, 0x4c, 0x49, 0x52, 0x20, 0x43, 0x6f, 0x6e,
  0x76, 0x65, 0x72, 0x74, 0x65, 0x64, 0x2e, 0x00, 0x01, 0x00, 0x00, 0x00,
  0x14, 0x00, 0x00, 0x00, 0x00, 0x00, 0x0e, 0x00, 0x18, 0x00, 0x14, 0x00,
  0x10, 0x00, 0x0c, 0x00, 0x08, 0x00, 0x04, 0x00, 0x0e, 0x00, 0x00, 0x00,
  0x14, 0x00, 0x00, 0x00, 0x1c, 0x00, 0x00, 0x00, 0xb4, 0x04, 0x00, 0x00,
  0xb8, 0x04, 0x00, 0x00, 0xbc, 0x04, 0x00, 0x00, 0x04, 0x00, 0x00, 0x00,
  0x6d, 0x61, 0x69, 0x6e, 0x00, 0x00, 0x00, 0x00, 0x15, 0x00, 0x00, 0x00,
  0x6c, 0x04, 0x00, 0x00, 0x0c, 0x04, 0x00, 0x00, 0xd4, 0x03, 0x00, 0x00,
  0x98, 0x03, 0x00, 0x00, 0x44, 0x03, 0x00, 0x00, 0x1c, 0x03, 0x00, 0x00,
  0xec, 0x02, 0x00, 0x00, 0xa8, 0x02, 0x00, 0x00, 0x80, 0x02, 0x00, 0x00,
  0x50, 0x02, 0x00, 0x00, 0x0c, 0x02, 0x00, 0x00, 0xe4, 0x01, 0x00, 0x00,
  0xb4, 0x01, 0x00, 0x00, 0x70, 0x01, 0x00, 0x00, 0x48, 0x01, 0x00, 0x00,
  0x18, 0x01, 0x00, 0x00, 0xd4, 0x00, 0x00, 0x00, 0xac, 0x00, 0x00, 0x00,
  0x78, 0x00, 0x00, 0x00, 0x40, 0x00, 0x00, 0x00, 0x04, 0x00, 0x00, 0x00,
  0x52, 0xfc, 0xff, 0xff, 0x1c, 0x00, 0x00, 0x00, 0x00, 0x00, 0x00, 0x09,
  0x1c, 0x00, 0x00, 0x00, 0x20, 0x00, 0x00, 0x00, 0x06, 0x00, 0x00, 0x00,
  0x00, 0x00, 0x06, 0x00, 0x08, 0x00, 0x04, 0x00, 0x06, 0x00, 0x00, 0x00,
  0x00, 0x00, 0x80, 0x3f, 0x01, 0x00, 0x00, 0x00, 0x25, 0x00, 0x00, 0x00,
  0x01, 0x00, 0x00, 0x00, 0x24, 0x00, 0x00, 0x00, 0x8a, 0xfc, 0xff, 0xff,
  0x14, 0x00, 0x00, 0x00, 0x00, 0x00, 0x00, 0x08, 0x10, 0x00, 0x00, 0x00,
  0x14, 0x00, 0x00, 0x00, 0x05, 0x00, 0x00, 0x00, 0x50, 0xe1, 0xff, 0xff,
  0x01, 0x00, 0x00, 0x00, 0x24, 0x00, 0x00, 0x00, 0x03, 0x00, 0x00, 0x00,
  0x23, 0x00, 0x00, 0x00, 0x0a, 0x00, 0x00, 0x00, 0x09, 0x00, 0x00, 0x00,
  0xbe, 0xfc, 0xff, 0xff, 0x14, 0x00, 0x00, 0x00, 0x00, 0x00, 0x00, 0x1b,
  0x10, 0x00, 0x00, 0x00, 0x14, 0x00, 0x00, 0x00, 0x04, 0x00, 0x00, 0x00,
  0x84, 0xe1, 0xff, 0xff, 0x01, 0x00, 0x00, 0x00, 0x23, 0x00, 0x00, 0x00,
  0x02, 0x00, 0x00, 0x00, 0x22, 0x00, 0x00, 0x00, 0x03, 0x00, 0x00, 0x00,
  0x1e, 0xfd, 0xff, 0xff, 0x0c, 0x00, 0x00, 0x00, 0x10, 0x00, 0x00, 0x00,
  0x02, 0x00, 0x00, 0x00, 0x01, 0x00, 0x00, 0x00, 0x22, 0x00, 0x00, 0x00,
  0x02, 0x00, 0x00, 0x00, 0x21, 0x00, 0x00, 0x00, 0x08, 0x00, 0x00, 0x00,
  0x12, 0xfd, 0xff, 0xff, 0x14, 0x00, 0x00, 0x00, 0x00, 0x00, 0x00, 0x05,
  0x24, 0x00, 0x00, 0x00, 0x28, 0x00, 0x00, 0x00, 0x03, 0x00, 0x00, 0x00,
  0xbe, 0xfd, 0xff, 0xff, 0x01, 0x00, 0x00, 0x00, 0x02, 0x00, 0x00, 0x00,
  0x01, 0x00, 0x00, 0x00, 0x02, 0x00, 0x00, 0x00, 0x00, 0x00, 0x00, 0x01,
  0x01, 0x00, 0x00, 0x00, 0x21, 0x00, 0x00, 0x00, 0x01, 0x00, 0x00, 0x00,
  0x20, 0x00, 0x00, 0x00, 0xf6, 0xfc, 0xff, 0xff, 0x10, 0x00, 0x00, 0x00,
  0x00, 0x00, 0x00, 0x34, 0x0c, 0x00, 0x00, 0x00, 0x10, 0x00, 0x00, 0x00,
  0x14, 0xe2, 0xff, 0xff, 0x01, 0x00, 0x00, 0x00, 0x20, 0x00, 0x00, 0x00,
  0x02, 0x00, 0x00, 0x00, 0x1f, 0x00, 0x00, 0x00, 0x03, 0x00, 0x00, 0x00,
  0xae, 0xfd, 0xff, 0xff, 0x0c, 0x00, 0x00, 0x00, 0x10, 0x00, 0x00, 0x00,
  0x02, 0x00, 0x00, 0x00, 0x01, 0x00, 0x00, 0x00, 0x1f, 0x00, 0x00, 0x00,
  0x02, 0x00, 0x00, 0x00, 0x1e, 0x00, 0x00, 0x00, 0x07, 0x00, 0x00, 0x00,
  0xa2, 0xfd, 0xff, 0xff, 0x14, 0x00, 0x00, 0x00, 0x00, 0x00, 0x00, 0x01,
  0x1c, 0x00, 0x00, 0x00, 0x20, 0x00, 0x00, 0x00, 0x01, 0x00, 0x00, 0x00,
  0x94, 0xfd, 0xff, 0xff, 0x00, 0x00, 0x00, 0x01, 0x01, 0x00, 0x00, 0x00,
  0x01, 0x00, 0x00, 0x00, 0x01, 0x00, 0x00, 0x00, 0x1e, 0x00, 0x00, 0x00,
  0x03, 0x00, 0x00, 0x00, 0x1d, 0x00, 0x00, 0x00, 0x0c, 0x00, 0x00, 0x00,
  0x0b, 0x00, 0x00, 0x00, 0x86, 0xfd, 0xff, 0xff, 0x10, 0x00, 0x00, 0x00,
  0x00, 0x00, 0x00, 0x34, 0x0c, 0x00, 0x00, 0x00, 0x10, 0x00, 0x00, 0x00,
  0xa4, 0xe2, 0xff, 0xff, 0x01, 0x00, 0x00, 0x00, 0x1d, 0x00, 0x00, 0x00,
  0x02, 0x00, 0x00, 0x00, 0x1c, 0x00, 0x00, 0x00, 0x01, 0x00, 0x00, 0x00,
  0x3e, 0xfe, 0xff, 0xff, 0x0c, 0x00, 0x00, 0x00, 0x10, 0x00, 0x00, 0x00,
  0x02, 0x00, 0x00, 0x00, 0x01, 0x00, 0x00, 0x00, 0x1c, 0x00, 0x00, 0x00,
  0x02, 0x00, 0x00, 0x00, 0x1b, 0x00, 0x00, 0x00, 0x06, 0x00, 0x00, 0x00,
  0x32, 0xfe, 0xff, 0xff, 0x14, 0x00, 0x00, 0x00, 0x00, 0x00, 0x00, 0x05,
  0x24, 0x00, 0x00, 0x00, 0x28, 0x00, 0x00, 0x00, 0x03, 0x00, 0x00, 0x00,
  0xde, 0xfe, 0xff, 0xff, 0x01, 0x00, 0x00, 0x00, 0x04, 0x00, 0x00, 0x00,
  0x01, 0x00, 0x00, 0x00, 0x04, 0x00, 0x00, 0x00, 0x00, 0x00, 0x00, 0x01,
  0x01, 0x00, 0x00, 0x00, 0x1b, 0x00, 0x00, 0x00, 0x01, 0x00, 0x00, 0x00,
  0x1a, 0x00, 0x00, 0x00, 0x16, 0xfe, 0xff, 0xff, 0x10, 0x00, 0x00, 0x00,
  0x00, 0x00, 0x00, 0x34, 0x0c, 0x00, 0x00, 0x00, 0x10, 0x00, 0x00, 0x00,
  0x34, 0xe3, 0xff, 0xff, 0x01, 0x00, 0x00, 0x00, 0x1a, 0x00, 0x00, 0x00,
  0x02, 0x00, 0x00, 0x00, 0x19, 0x00, 0x00, 0x00, 0x03, 0x00, 0x00, 0x00,
  0xce, 0xfe, 0xff, 0xff, 0x0c, 0x00, 0x00, 0x00, 0x10, 0x00, 0x00, 0x00,
  0x02, 0x00, 0x00, 0x00, 0x01, 0x00, 0x00, 0x00, 0x19, 0x00, 0x00, 0x00,
  0x02, 0x00, 0x00, 0x00, 0x18, 0x00, 0x00, 0x00, 0x05, 0x00, 0x00, 0x00,
  0xc2, 0xfe, 0xff, 0xff, 0x14, 0x00, 0x00, 0x00, 0x00, 0x00, 0x00, 0x01,
  0x1c, 0x00, 0x00, 0x00, 0x20, 0x00, 0x00, 0x00, 0x01, 0x00, 0x00, 0x00,
  0xb4, 0xfe, 0xff, 0xff, 0x00, 0x00, 0x00, 0x01, 0x01, 0x00, 0x00, 0x00,
  0x01, 0x00, 0x00, 0x00, 0x01, 0x00, 0x00, 0x00, 0x18, 0x00, 0x00, 0x00,
  0x03, 0x00, 0x00, 0x00, 0x17, 0x00, 0x00, 0x00, 0x0e, 0x00, 0x00, 0x00,
  0x0d, 0x00, 0x00, 0x00, 0xa6, 0xfe, 0xff, 0xff, 0x10, 0x00, 0x00, 0x00,
  0x00, 0x00, 0x00, 0x34, 0x0c, 0x00, 0x00, 0x00, 0x10, 0x00, 0x00, 0x00,
  0xc4, 0xe3, 0xff, 0xff, 0x01, 0x00, 0x00, 0x00, 0x17, 0x00, 0x00, 0x00,
  0x02, 0x00, 0x00, 0x00, 0x16, 0x00, 0x00, 0x00, 0x01, 0x00, 0x00, 0x00,
  0x5e, 0xff, 0xff, 0xff, 0x0c, 0x00, 0x00, 0x00, 0x10, 0x00, 0x00, 0x00,
  0x02, 0x00, 0x00, 0x00, 0x01, 0x00, 0x00, 0x00, 0x16, 0x00, 0x00, 0x00,
  0x02, 0x00, 0x00, 0x00, 0x15, 0x00, 0x00, 0x00, 0x04, 0x00, 0x00, 0x00,
  0x52, 0xff, 0xff, 0xff, 0x24, 0x00, 0x00, 0x00, 0x00, 0x00, 0x00, 0x05,
  0x34, 0x00, 0x00, 0x00, 0x38, 0x00, 0x00, 0x00, 0x03, 0x00, 0x00, 0x00,
  0x00, 0x00, 0x0e, 0x00, 0x18, 0x00, 0x17, 0x00, 0x10, 0x00, 0x0c, 0x00,
  0x08, 0x00, 0x04, 0x00, 0x0e, 0x00, 0x00, 0x00, 0x01, 0x00, 0x00, 0x00,
  0x04, 0x00, 0x00, 0x00, 0x01, 0x00, 0x00, 0x00, 0x04, 0x00, 0x00, 0x00,
  0x00, 0x00, 0x00, 0x01, 0x01, 0x00, 0x00, 0x00, 0x15, 0x00, 0x00, 0x00,
  0x01, 0x00, 0x00, 0x00, 0x14, 0x00, 0x00, 0x00, 0x46, 0xff, 0xff, 0xff,
  0x10, 0x00, 0x00, 0x00, 0x00, 0x00, 0x00, 0x34, 0x0c, 0x00, 0x00, 0x00,
  0x10, 0x00, 0x00, 0x00, 0x64, 0xe4, 0xff, 0xff, 0x01, 0x00, 0x00, 0x00,
  0x14, 0x00, 0x00, 0x00, 0x02, 0x00, 0x00, 0x00, 0x13, 0x00, 0x00, 0x00,
  0x03, 0x00, 0x00, 0x00, 0x00, 0x00, 0x0a, 0x00, 0x10, 0x00, 0x0c, 0x00,
  0x08, 0x00, 0x04, 0x00, 0x0a, 0x00, 0x00, 0x00, 0x0c, 0x00, 0x00, 0x00,
  0x10, 0x00, 0x00, 0x00, 0x02, 0x00, 0x00, 0x00, 0x01, 0x00, 0x00, 0x00,
  0x13, 0x00, 0x00, 0x00, 0x02, 0x00, 0x00, 0x00, 0x12, 0x00, 0x00, 0x00,
  0x02, 0x00, 0x00, 0x00, 0x00, 0x00, 0x0e, 0x00, 0x18, 0x00, 0x14, 0x00,
  0x10, 0x00, 0x0c, 0x00, 0x0b, 0x00, 0x04, 0x00, 0x0e, 0x00, 0x00, 0x00,
  0x20, 0x00, 0x00, 0x00, 0x00, 0x00, 0x00, 0x01, 0x28, 0x00, 0x00, 0x00,
  0x2c, 0x00, 0x00, 0x00, 0x01, 0x00, 0x00, 0x00, 0x0c, 0x00, 0x10, 0x00,
  0x00, 0x00, 0x0c, 0x00, 0x08, 0x00, 0x07, 0x00, 0x0c, 0x00, 0x00, 0x00,
  0x00, 0x00, 0x00, 0x01, 0x01, 0x00, 0x00, 0x00, 0x01, 0x00, 0x00, 0x00,
  0x01, 0x00, 0x00, 0x00, 0x12, 0x00, 0x00, 0x00, 0x03, 0x00, 0x00, 0x00,
  0x11, 0x00, 0x00, 0x00, 0x10, 0x00, 0x00, 0x00, 0x0f, 0x00, 0x00, 0x00,
  0x00, 0x00, 0x0e, 0x00, 0x14, 0x00, 0x00, 0x00, 0x10, 0x00, 0x0c, 0x00,
  0x0b, 0x00, 0x04, 0x00, 0x0e, 0x00, 0x00, 0x00, 0x10, 0x00, 0x00, 0x00,
  0x00, 0x00, 0x00, 0x34, 0x0c, 0x00, 0x00, 0x00, 0x10, 0x00, 0x00, 0x00,
  0x2c, 0xe5, 0xff, 0xff, 0x01, 0x00, 0x00, 0x00, 0x11, 0x00, 0x00, 0x00,
  0x02, 0x00, 0x00, 0x00, 0x00, 0x00, 0x00, 0x00, 0x01, 0x00, 0x00, 0x00,
  0x01, 0x00, 0x00, 0x00, 0x25, 0x00, 0x00, 0x00, 0x01, 0x00, 0x00, 0x00,
  0x00, 0x00, 0x00, 0x00, 0x26, 0x00, 0x00, 0x00, 0xe0, 0x1a, 0x00, 0x00,
  0x88, 0x1a, 0x00, 0x00, 0x30, 0x1a, 0x00, 0x00, 0xf4, 0x19, 0x00, 0x00,
  0xb4, 0x19, 0x00, 0x00, 0x74, 0x19, 0x00, 0x00, 0x34, 0x19, 0x00, 0x00,
  0xf4, 0x18, 0x00, 0x00, 0xb4, 0x18, 0x00, 0x00, 0x44, 0x18, 0x00, 0x00,
  0xd0, 0x17, 0x00, 0x00, 0xfc, 0x15, 0x00, 0x00, 0x18, 0x14, 0x00, 0x00,
  0x04, 0x13, 0x00, 0x00, 0xe0, 0x11, 0x00, 0x00, 0x2c, 0x11, 0x00, 0x00,
  0x68, 0x10, 0x00, 0x00, 0xc4, 0x0f, 0x00, 0x00, 0x80, 0x0e, 0x00, 0x00,
  0x68, 0x0d, 0x00, 0x00, 0xc0, 0x0c, 0x00, 0x00, 0x24, 0x0c, 0x00, 0x00,
  0x8c, 0x0b, 0x00, 0x00, 0xec, 0x0a, 0x00, 0x00, 0xa0, 0x09, 0x00, 0x00,
  0x80, 0x08, 0x00, 0x00, 0xd8, 0x07, 0x00, 0x00, 0x3c, 0x07, 0x00, 0x00,
  0x9c, 0x06, 0x00, 0x00, 0xfc, 0x05, 0x00, 0x00, 0xb0, 0x04, 0x00, 0x00,
  0x90, 0x03, 0x00, 0x00, 0xe8, 0x02, 0x00, 0x00, 0x4c, 0x02, 0x00, 0x00,
  0xac, 0x01, 0x00, 0x00, 0x1c, 0x01, 0x00, 0x00, 0x80, 0x00, 0x00, 0x00,
  0x04, 0x00, 0x00, 0x00, 0xce, 0xe5, 0xff, 0xff, 0x00, 0x00, 0x00, 0x01,
  0x18, 0x00, 0x00, 0x00, 0x20, 0x00, 0x00, 0x00, 0x3c, 0x00, 0x00, 0x00,
  0x26, 0x00, 0x00, 0x00, 0x00, 0x00, 0x00, 0x09, 0x50, 0x00, 0x00, 0x00,
  0x02, 0x00, 0x00, 0x00, 0xff, 0xff, 0xff, 0xff, 0x02, 0x00, 0x00, 0x00,
  0xb4, 0xe5, 0xff, 0xff, 0x08, 0x00, 0x00, 0x00, 0x10, 0x00, 0x00, 0x00,
  0x01, 0x00, 0x00, 0x00, 0x80, 0xff, 0xff, 0xff, 0xff, 0xff, 0xff, 0xff,
  0x01, 0x00, 0x00, 0x00, 0x00, 0x00, 0x80, 0x3b, 0x1b, 0x00, 0x00, 0x00,
  0x53, 0x74, 0x61, 0x74, 0x65, 0x66, 0x75, 0x6c, 0x50, 0x61, 0x72, 0x74,
  0x69, 0x74, 0x69, 0x6f, 0x6e, 0x65, 0x64, 0x43, 0x61, 0x6c, 0x6c, 0x5f,
  0x31, 0x3a, 0x30, 0x00, 0x02, 0x00, 0x00, 0x00, 0x01, 0x00, 0x00, 0x00,
  0x02, 0x00, 0x00, 0x00, 0x46, 0xe6, 0xff, 0xff, 0x00, 0x00, 0x00, 0x01,
  0x18, 0x00, 0x00, 0x00, 0x20, 0x00, 0x00, 0x00, 0x3c, 0x00, 0x00, 0x00,
  0x25, 0x00, 0x00, 0x00, 0x00, 0x00, 0x00, 0x09, 0x70, 0x00, 0x00, 0x00,
  0x02, 0x00, 0x00, 0x00, 0xff, 0xff, 0xff, 0xff, 0x02, 0x00, 0x00, 0x00,
  0x2c, 0xe6, 0xff, 0xff, 0x08, 0x00, 0x00, 0x00, 0x10, 0x00, 0x00, 0x00,
  0x01, 0x00, 0x00, 0x00, 0x02, 0x00, 0x00, 0x00, 0x00, 0x00, 0x00, 0x00,
  0x01, 0x00, 0x00, 0x00, 0xcd, 0x2d, 0x0a, 0x3d, 0x38, 0x00, 0x00, 0x00,
  0x73, 0x65, 0x71, 0x75, 0x65, 0x6e, 0x74, 0x69, 0x61, 0x6c, 0x5f, 0x31,
  0x2f, 0x64, 0x65, 0x6e, 0x73, 0x65, 0x5f, 0x31, 0x2f, 0x4d, 0x61, 0x74,
  0x4d, 0x75, 0x6c, 0x3b, 0x73, 0x65, 0x71, 0x75, 0x65, 0x6e, 0x74, 0x69,
  0x61, 0x6c, 0x5f, 0x31, 0x2f, 0x64, 0x65, 0x6e, 0x73, 0x65, 0x5f, 0x31,
  0x2f, 0x42, 0x69, 0x61, 0x73, 0x41, 0x64, 0x64, 0x00, 0x00, 0x00, 0x00,
  0x02, 0x00, 0x00, 0x00, 0x01, 0x00, 0x00, 0x00, 0x02, 0x00, 0x00, 0x00,
  0xde, 0xe6, 0xff, 0xff, 0x00, 0x00, 0x00, 0x01, 0x18, 0x00, 0x00, 0x00,
  0x20, 0x00, 0x00, 0x00, 0x3c, 0x00, 0x00, 0x00, 0x24, 0x00, 0x00, 0x00,
  0x00, 0x00, 0x00, 0x09, 0x64, 0x00, 0x00, 0x00, 0x02, 0x00, 0x00, 0x00,
  0xff, 0xff, 0xff, 0xff, 0x20, 0x00, 0x00, 0x00, 0xc4, 0xe6, 0xff, 0xff,
  0x08, 0x00, 0x00, 0x00, 0x10, 0x00, 0x00, 0x00, 0x01, 0x00, 0x00, 0x00,
  0x80, 0xff, 0xff, 0xff, 0xff, 0xff, 0xff, 0xff, 0x01, 0x00, 0x00, 0x00,
  0x91, 0x30, 0x0c, 0x3c, 0x2c, 0x00, 0x00, 0x00, 0x73, 0x65, 0x71, 0x75,
  0x65, 0x6e, 0x74, 0x69, 0x61, 0x6c, 0x5f, 0x31, 0x2f, 0x67, 0x6c, 0x6f,
  0x62, 0x61, 0x6c, 0x5f, 0x61, 0x76, 0x65, 0x72, 0x61, 0x67, 0x65, 0x5f,
  0x70, 0x6f, 0x6f, 0x6c, 0x69, 0x6e, 0x67, 0x31, 0x64, 0x5f, 0x31, 0x2f,
  0x4d, 0x65, 0x61, 0x6e, 0x00, 0x00, 0x00, 0x00, 0x02, 0x00, 0x00, 0x00,
  0x01, 0x00, 0x00, 0x00, 0x20, 0x00, 0x00, 0x00, 0x6a, 0xe7, 0xff, 0xff,
  0x00, 0x00, 0x00, 0x01, 0x18, 0x00, 0x00, 0x00, 0x24, 0x00, 0x00, 0x00,
  0x44, 0x00, 0x00, 0x00, 0x23, 0x00, 0x00, 0x00, 0x00, 0x00, 0x00, 0x09,
  0x70, 0x00, 0x00, 0x00, 0x03, 0x00, 0x00, 0x00, 0xff, 0xff, 0xff, 0xff,
  0x1f, 0x00, 0x00, 0x00, 0x20, 0x00, 0x00, 0x00, 0x54, 0xe7, 0xff, 0xff,
  0x08, 0x00, 0x00, 0x00, 0x14, 0x00, 0x00, 0x00, 0x01, 0x00, 0x00, 0x00,
  0x80, 0xff, 0xff, 0xff, 0xff, 0xff, 0xff, 0xff, 0x00, 0x00, 0x00, 0x00,
  0x01, 0x00, 0x00, 0x00, 0x20, 0x9a, 0x48, 0x3d, 0x30, 0x00, 0x00, 0x00,
  0x73, 0x65, 0x71, 0x75, 0x65, 0x6e, 0x74, 0x69, 0x61, 0x6c, 0x5f, 0x31,
  0x2f, 0x6d, 0x61, 0x78, 0x5f, 0x70, 0x6f, 0x6f, 0x6c, 0x69, 0x6e, 0x67,
  0x31, 0x64, 0x5f, 0x32, 0x5f, 0x31, 0x2f, 0x4d, 0x61, 0x78, 0x50, 0x6f,
  0x6f, 0x6c, 0x31, 0x64, 0x2f, 0x53, 0x71, 0x75, 0x65, 0x65, 0x7a, 0x65,
  0x00, 0x00, 0x00, 0x00, 0x03, 0x00, 0x00, 0x00, 0x01, 0x00, 0x00, 0x00,
  0x1f, 0x00, 0x00, 0x00, 0x20, 0x00, 0x00, 0x00, 0x06, 0xe8, 0xff, 0xff,
  0x00, 0x00, 0x00, 0x01, 0x18, 0x00, 0x00, 0x00, 0x28, 0x00, 0x00, 0x00,
  0x44, 0x00, 0x00, 0x00, 0x22, 0x00, 0x00, 0x00, 0x00, 0x00, 0x00, 0x09,
  0x68, 0x00, 0x00, 0x00, 0x04, 0x00, 0x00, 0x00, 0xff, 0xff, 0xff, 0xff,
  0x01, 0x00, 0x00, 0x00, 0x1f, 0x00, 0x00, 0x00, 0x20, 0x00, 0x00, 0x00,
  0xf4, 0xe7, 0xff, 0xff, 0x08, 0x00, 0x00, 0x00, 0x10, 0x00, 0x00, 0x00,
  0x01, 0x00, 0x00, 0x00, 0x80, 0xff, 0xff, 0xff, 0xff, 0xff, 0xff, 0xff,
  0x01, 0x00, 0x00, 0x00, 0x20, 0x9a, 0x48, 0x3d, 0x28, 0x00, 0x00, 0x00,
  0x73, 0x65, 0x71, 0x75, 0x65, 0x6e, 0x74, 0x69, 0x61, 0x6c, 0x5f, 0x31,
  0x2f, 0x6d, 0x61, 0x78, 0x5f, 0x70, 0x6f, 0x6f, 0x6c, 0x69, 0x6e, 0x67,
  0x31, 0x64, 0x5f, 0x32, 0x5f, 0x31, 0x2f, 0x4d, 0x61, 0x78, 0x50, 0x6f,
  0x6f, 0x6c, 0x31, 0x64, 0x00, 0x00, 0x00, 0x00, 0x04, 0x00, 0x00, 0x00,
  0x01, 0x00, 0x00, 0x00, 0x01, 0x00, 0x00, 0x00, 0x1f, 0x00, 0x00, 0x00,
  0x20, 0x00, 0x00, 0x00, 0x9e, 0xe8, 0xff, 0xff, 0x00, 0x00, 0x00, 0x01,
  0x18, 0x00, 0x00, 0x00, 0x28, 0x00, 0x00, 0x00, 0x48, 0x00, 0x00, 0x00,
  0x21, 0x00, 0x00, 0x00, 0x00, 0x00, 0x00, 0x09, 0x74, 0x00, 0x00, 0x00,
  0x04, 0x00, 0x00, 0x00, 0xff, 0xff, 0xff, 0xff, 0x01, 0x00, 0x00, 0x00,
  0x3e, 0x00, 0x00, 0x00, 0x20, 0x00, 0x00, 0x00, 0x8c, 0xe8, 0xff, 0xff,
  0x08, 0x00, 0x00, 0x00, 0x14, 0x00, 0x00, 0x00, 0x01, 0x00, 0x00, 0x00,
  0x80, 0xff, 0xff, 0xff, 0xff, 0xff, 0xff, 0xff, 0x00, 0x00, 0x00, 0x00,
  0x01, 0x00, 0x00, 0x00, 0x20, 0x9a, 0x48, 0x3d, 0x33, 0x00, 0x00, 0x00,
  0x73, 0x65, 0x71, 0x75, 0x65, 0x6e, 0x74, 0x69, 0x61, 0x6c, 0x5f, 0x31,
  0x2f, 0x6d, 0x61, 0x78, 0x5f, 0x70, 0x6f, 0x6f, 0x6c, 0x69, 0x6e, 0x67,
  0x31, 0x64, 0x5f, 0x32, 0x5f, 0x31, 0x2f, 0x4d, 0x61, 0x78, 0x50, 0x6f,
  0x6f, 0x6c, 0x31, 0x64, 0x2f, 0x45, 0x78, 0x70, 0x61, 0x6e, 0x64, 0x44,
  0x69, 0x6d, 0x73, 0x00, 0x04, 0x00, 0x00, 0x00, 0x01, 0x00, 0x00, 0x00,
  0x01, 0x00, 0x00, 0x00, 0x3e, 0x00, 0x00, 0x00, 0x20, 0x00, 0x00, 0x00,
  0x42, 0xe9, 0xff, 0xff, 0x00, 0x00, 0x00, 0x01, 0x18, 0x00, 0x00, 0x00,
  0x24, 0x00, 0x00, 0x00, 0x40, 0x00, 0x00, 0x00, 0x20, 0x00, 0x00, 0x00,
  0x00, 0x00, 0x00, 0x09, 0xf0, 0x00, 0x00, 0x00, 0x03, 0x00, 0x00, 0x00,
  0xff, 0xff, 0xff, 0xff, 0x3e, 0x00, 0x00, 0x00, 0x20, 0x00, 0x00, 0x00,
  0x2c, 0xe9, 0xff, 0xff, 0x08, 0x00, 0x00, 0x00, 0x10, 0x00, 0x00, 0x00,
  0x01, 0x00, 0x00, 0x00, 0x80, 0xff, 0xff, 0xff, 0xff, 0xff, 0xff, 0xff,
  0x01, 0x00, 0x00, 0x00, 0x20, 0x9a, 0x48, 0x3d, 0xb7, 0x00, 0x00, 0x00,
  0x73, 0x65, 0x71, 0x75, 0x65, 0x6e, 0x74, 0x69, 0x61, 0x6c, 0x5f, 0x31,
  0x2f, 0x61, 0x63, 0x74, 0x69, 0x76, 0x61, 0x74, 0x69, 0x6f, 0x6e, 0x5f,
  0x32, 0x5f, 0x31, 0x2f, 0x52, 0x65, 0x6c, 0x75, 0x3b, 0x73, 0x65, 0x71,
  0x75, 0x65, 0x6e, 0x74, 0x69, 0x61, 0x6c, 0x5f, 0x31, 0x2f, 0x62, 0x61,
  0x74, 0x63, 0x68, 0x5f, 0x6e, 0x6f, 0x72, 0x6d, 0x61, 0x6c, 0x69, 0x7a,
  0x61, 0x74, 0x69, 0x6f, 0x6e, 0x5f, 0x32, 0x5f, 0x31, 0x2f, 0x62, 0x61,
  0x74, 0x63, 0x68, 0x6e, 0x6f, 0x72, 0x6d, 0x2f, 0x61, 0x64, 0x64, 0x5f,
  0x31, 0x3b, 0x73, 0x65, 0x71, 0x75, 0x65, 0x6e, 0x74, 0x69, 0x61, 0x6c,
  0x5f, 0x31, 0x2f, 0x63, 0x6f, 0x6e, 0x76, 0x31, 0x64, 0x5f, 0x32, 0x5f,
  0x31, 0x2f, 0x63, 0x6f, 0x6e, 0x76, 0x6f, 0x6c, 0x75, 0x74, 0x69, 0x6f,
  0x6e, 0x2f, 0x53, 0x71, 0x75, 0x65, 0x65, 0x7a, 0x65, 0x3b, 0x73, 0x65,
  0x71, 0x75, 0x65, 0x6e, 0x74, 0x69, 0x61, 0x6c, 0x5f, 0x31, 0x2f, 0x62,
  0x61, 0x74, 0x63, 0x68, 0x5f, 0x6e, 0x6f, 0x72, 0x6d, 0x61, 0x6c, 0x69,
  0x7a, 0x61, 0x74, 0x69, 0x6f, 0x6e, 0x5f, 0x32, 0x5f, 0x31, 0x2f, 0x62,
  0x61, 0x74, 0x63, 0x68, 0x6e, 0x6f, 0x72, 0x6d, 0x2f, 0x6d, 0x75, 0x6c,
  0x5f, 0x31, 0x3b, 0x00, 0x03, 0x00, 0x00, 0x00, 0x01, 0x00, 0x00, 0x00,
  0x3e, 0x00, 0x00, 0x00, 0x20, 0x00, 0x00, 0x00, 0x5e, 0xea, 0xff, 0xff,
  0x00, 0x00, 0x00, 0x01, 0x18, 0x00, 0x00, 0x00, 0x28, 0x00, 0x00, 0x00,
  0x44, 0x00, 0x00, 0x00, 0x1f, 0x00, 0x00, 0x00, 0x00, 0x00, 0x00, 0x09,
  0x18, 0x01, 0x00, 0x00, 0x04, 0x00, 0x00, 0x00, 0xff, 0xff, 0xff, 0xff,
  0x01, 0x00, 0x00, 0x00, 0x3e, 0x00, 0x00, 0x00, 0x20, 0x00, 0x00, 0x00,
  0x4c, 0xea, 0xff, 0xff, 0x08, 0x00, 0x00, 0x00, 0x10, 0x00, 0x00, 0x00,
  0x01, 0x00, 0x00, 0x00, 0x80, 0xff, 0xff, 0xff, 0xff, 0xff, 0xff, 0xff,
  0x01, 0x00, 0x00, 0x00, 0x20, 0x9a, 0x48, 0x3d, 0xdb, 0x00, 0x00, 0x00,
  0x73, 0x65, 0x71, 0x75, 0x65, 0x6e, 0x74, 0x69, 0x61, 0x6c, 0x5f, 0x31,
  0x2f, 0x61, 0x63, 0x74, 0x69, 0x76, 0x61, 0x74, 0x69, 0x6f, 0x6e, 0x5f,
  0x32, 0x5f, 0x31, 0x2f, 0x52, 0x65, 0x6c, 0x75, 0x3b, 0x73, 0x65, 0x71,
  0x75, 0x65, 0x6e, 0x74, 0x69, 0x61, 0x6c, 0x5f, 0x31, 0x2f, 0x62, 0x61,
  0x74, 0x63, 0x68, 0x5f, 0x6e, 0x6f, 0x72, 0x6d, 0x61, 0x6c, 0x69, 0x7a,
  0x61, 0x74, 0x69, 0x6f, 0x6e, 0x5f, 0x32, 0x5f, 0x31, 0x2f, 0x62, 0x61,
  0x74, 0x63, 0x68, 0x6e, 0x6f, 0x72, 0x6d, 0x2f, 0x61, 0x64, 0x64, 0x5f,
  0x31, 0x3b, 0x73, 0x65, 0x71, 0x75, 0x65, 0x6e, 0x74, 0x69, 0x61, 0x6c,
  0x5f, 0x31, 0x2f, 0x63, 0x6f, 0x6e, 0x76, 0x31, 0x64, 0x5f, 0x32, 0x5f,
  0x31, 0x2f, 0x63, 0x6f, 0x6e, 0x76, 0x6f, 0x6c, 0x75, 0x74, 0x69, 0x6f,
  0x6e, 0x2f, 0x53, 0x71, 0x75, 0x65, 0x65, 0x7a, 0x65, 0x3b, 0x73, 0x65,
  0x71, 0x75, 0x65, 0x6e, 0x74, 0x69, 0x61, 0x6c, 0x5f, 0x31, 0x2f, 0x62,
  0x61, 0x74, 0x63, 0x68, 0x5f, 0x6e, 0x6f, 0x72, 0x6d, 0x61, 0x6c, 0x69,
  0x7a, 0x61, 0x74, 0x69, 0x6f, 0x6e, 0x5f, 0x32, 0x5f, 0x31, 0x2f, 0x62,
  0x61, 0x74, 0x63, 0x68, 0x6e, 0x6f, 0x72, 0x6d, 0x2f, 0x6d, 0x75, 0x6c,
  0x5f, 0x31, 0x3b, 0x3b, 0x73, 0x65, 0x71, 0x75, 0x65, 0x6e, 0x74, 0x69,
  0x61, 0x6c, 0x5f, 0x31, 0x2f, 0x63, 0x6f, 0x6e, 0x76, 0x31, 0x64, 0x5f,
  0x32, 0x5f, 0x31, 0x2f, 0x63, 0x6f, 0x6e, 0x76, 0x6f, 0x6c, 0x75, 0x74,
  0x69, 0x6f, 0x6e, 0x00, 0x04, 0x00, 0x00, 0x00, 0x01, 0x00, 0x00, 0x00,
  0x01, 0x00, 0x00, 0x00, 0x3e, 0x00, 0x00, 0x00, 0x20, 0x00, 0x00, 0x00,
  0xa6, 0xeb, 0xff, 0xff, 0x00, 0x00, 0x00, 0x01, 0x18, 0x00, 0x00, 0x00,
  0x28, 0x00, 0x00, 0x00, 0x44, 0x00, 0x00, 0x00, 0x1e, 0x00, 0x00, 0x00,
  0x00, 0x00, 0x00, 0x09, 0x6c, 0x00, 0x00, 0x00, 0x04, 0x00, 0x00, 0x00,
  0xff, 0xff, 0xff, 0xff, 0x01, 0x00, 0x00, 0x00, 0x3e, 0x00, 0x00, 0x00,
  0x10, 0x00, 0x00, 0x00, 0x94, 0xeb, 0xff, 0xff, 0x08, 0x00, 0x00, 0x00,
  0x10, 0x00, 0x00, 0x00, 0x01, 0x00, 0x00, 0x00, 0x80, 0xff, 0xff, 0xff,
  0xff, 0xff, 0xff, 0xff, 0x01, 0x00, 0x00, 0x00, 0xf2, 0xc4, 0xed, 0x3c,
  0x2e, 0x00, 0x00, 0x00, 0x73, 0x65, 0x71, 0x75, 0x65, 0x6e, 0x74, 0x69,
  0x61, 0x6c, 0x5f, 0x31, 0x2f, 0x63, 0x6f, 0x6e, 0x76, 0x31, 0x64, 0x5f,
  0x32, 0x5f, 0x31, 0x2f, 0x63, 0x6f, 0x6e, 0x76, 0x6f, 0x6c, 0x75, 0x74,
  0x69, 0x6f, 0x6e, 0x2f, 0x45, 0x78, 0x70, 0x61, 0x6e, 0x64, 0x44, 0x69,
  0x6d, 0x73, 0x00, 0x00, 0x04, 0x00, 0x00, 0x00, 0x01, 0x00, 0x00, 0x00,
  0x01, 0x00, 0x00, 0x00, 0x3e, 0x00, 0x00, 0x00, 0x10, 0x00, 0x00, 0x00,
  0x42, 0xec, 0xff, 0xff, 0x00, 0x00, 0x00, 0x01, 0x18, 0x00, 0x00, 0x00,
  0x24, 0x00, 0x00, 0x00, 0x44, 0x00, 0x00, 0x00, 0x1d, 0x00, 0x00, 0x00,
  0x00, 0x00, 0x00, 0x09, 0x70, 0x00, 0x00, 0x00, 0x03, 0x00, 0x00, 0x00,
  0xff, 0xff, 0xff, 0xff, 0x3e, 0x00, 0x00, 0x00, 0x10, 0x00, 0x00, 0x00,
  0x2c, 0xec, 0xff, 0xff, 0x08, 0x00, 0x00, 0x00, 0x14, 0x00, 0x00, 0x00,
  0x01, 0x00, 0x00, 0x00, 0x80, 0xff, 0xff, 0xff, 0xff, 0xff, 0xff, 0xff,
  0x00, 0x00, 0x00, 0x00, 0x01, 0x00, 0x00, 0x00, 0xf2, 0xc4, 0xed, 0x3c,
  0x30, 0x00, 0x00, 0x00, 0x73, 0x65, 0x71, 0x75, 0x65, 0x6e, 0x74, 0x69,
  0x61, 0x6c, 0x5f, 0x31, 0x2f, 0x6d, 0x61, 0x78, 0x5f, 0x70, 0x6f, 0x6f,
  0x6c, 0x69, 0x6e, 0x67, 0x31, 0x64, 0x5f, 0x31, 0x5f, 0x32, 0x2f, 0x4d,
  0x61, 0x78, 0x50, 0x6f, 0x6f, 0x6c, 0x31, 0x64, 0x2f, 0x53, 0x71, 0x75,
  0x65, 0x65, 0x7a, 0x65, 0x00, 0x00, 0x00, 0x00, 0x03, 0x00, 0x00, 0x00,
  0x01, 0x00, 0x00, 0x00, 0x3e, 0x00, 0x00, 0x00, 0x10, 0x00, 0x00, 0x00,
  0xde, 0xec, 0xff, 0xff, 0x00, 0x00, 0x00, 0x01, 0x18, 0x00, 0x00, 0x00,
  0x28, 0x00, 0x00, 0x00, 0x44, 0x00, 0x00, 0x00, 0x1c, 0x00, 0x00, 0x00,
  0x00, 0x00, 0x00, 0x09, 0x68, 0x00, 0x00, 0x00, 0x04, 0x00, 0x00, 0x00,
  0xff, 0xff, 0xff, 0xff, 0x01, 0x00, 0x00, 0x00, 0x3e, 0x00, 0x00, 0x00,
  0x10, 0x00, 0x00, 0x00, 0xcc, 0xec, 0xff, 0xff, 0x08, 0x00, 0x00, 0x00,
  0x10, 0x00, 0x00, 0x00, 0x01, 0x00, 0x00, 0x00, 0x80, 0xff, 0xff, 0xff,
  0xff, 0xff, 0xff, 0xff, 0x01, 0x00, 0x00, 0x00, 0xf2, 0xc4, 0xed, 0x3c,
  0x28, 0x00, 0x00, 0x00, 0x73, 0x65, 0x71, 0x75, 0x65, 0x6e, 0x74, 0x69,
  0x61, 0x6c, 0x5f, 0x31, 0x2f, 0x6d, 0x61, 0x78, 0x5f, 0x70, 0x6f, 0x6f,
  0x6c, 0x69, 0x6e, 0x67, 0x31, 0x64, 0x5f, 0x31, 0x5f, 0x32, 0x2f, 0x4d,
  0x61, 0x78, 0x50, 0x6f, 0x6f, 0x6c, 0x31, 0x64, 0x00, 0x00, 0x00, 0x00,
  0x04, 0x00, 0x00, 0x00, 0x01, 0x00, 0x00, 0x00, 0x01, 0x00, 0x00, 0x00,
  0x3e, 0x00, 0x00, 0x00, 0x10, 0x00, 0x00, 0x00, 0x76, 0xed, 0xff, 0xff,
  0x00, 0x00, 0x00, 0x01, 0x18, 0x00, 0x00, 0x00, 0x28, 0x00, 0x00, 0x00,
  0x48, 0x00, 0x00, 0x00, 0x1b, 0x00, 0x00, 0x00, 0x00, 0x00, 0x00, 0x09,
  0x74, 0x00, 0x00, 0x00, 0x04, 0x00, 0x00, 0x00, 0xff, 0xff, 0xff, 0xff,
  0x01, 0x00, 0x00, 0x00, 0xfa, 0x00, 0x00, 0x00, 0x10, 0x00, 0x00, 0x00,
  0x64, 0xed, 0xff, 0xff, 0x08, 0x00, 0x00, 0x00, 0x14, 0x00, 0x00, 0x00,
  0x01, 0x00, 0x00, 0x00, 0x80, 0xff, 0xff, 0xff, 0xff, 0xff, 0xff, 0xff,
  0x00, 0x00, 0x00, 0x00, 0x01, 0x00, 0x00, 0x00, 0xf2, 0xc4, 0xed, 0x3c,
  0x33, 0x00, 0x00, 0x00, 0x73, 0x65, 0x71, 0x75, 0x65, 0x6e, 0x74, 0x69,
  0x61, 0x6c, 0x5f, 0x31, 0x2f, 0x6d, 0x61, 0x78, 0x5f, 0x70, 0x6f, 0x6f,
  0x6c, 0x69, 0x6e, 0x67, 0x31, 0x64, 0x5f, 0x31, 0x5f, 0x32, 0x2f, 0x4d,
  0x61, 0x78, 0x50, 0x6f, 0x6f, 0x6c, 0x31, 0x64, 0x2f, 0x45, 0x78, 0x70,
  0x61, 0x6e, 0x64, 0x44, 0x69, 0x6d, 0x73, 0x00, 0x04, 0x00, 0x00, 0x00,
  0x01, 0x00, 0x00, 0x00, 0x01, 0x00, 0x00, 0x00, 0xfa, 0x00, 0x00, 0x00,
  0x10, 0x00, 0x00, 0x00, 0x1a, 0xee, 0xff, 0xff, 0x00, 0x00, 0x00, 0x01,
  0x18, 0x00, 0x00, 0x00, 0x24, 0x00, 0x00, 0x00, 0x40, 0x00, 0x00, 0x00,
  0x1a, 0x00, 0x00, 0x00, 0x00, 0x00, 0x00, 0x09, 0xf0, 0x00, 0x00, 0x00,
  0x03, 0x00, 0x00, 0x00, 0xff, 0xff, 0xff, 0xff, 0xfa, 0x00, 0x00, 0x00,
  0x10, 0x00, 0x00, 0x00, 0x04, 0xee, 0xff, 0xff, 0x08, 0x00, 0x00, 0x00,
  0x10, 0x00, 0x00, 0x00, 0x01, 0x00, 0x00, 0x00, 0x80, 0xff, 0xff, 0xff,
  0xff, 0xff, 0xff, 0xff, 0x01, 0x00, 0x00, 0x00, 0xf2, 0xc4, 0xed, 0x3c,
  0xb7, 0x00, 0x00, 0x00, 0x73, 0x65, 0x71, 0x75, 0x65, 0x6e, 0x74, 0x69,
  0x61, 0x6c, 0x5f, 0x31, 0x2f, 0x61, 0x63, 0x74, 0x69, 0x76, 0x61, 0x74,
  0x69, 0x6f, 0x6e, 0x5f, 0x31, 0x5f, 0x32, 0x2f, 0x52, 0x65, 0x6c, 0x75,
  0x3b, 0x73, 0x65, 0x71, 0x75, 0x65, 0x6e, 0x74, 0x69, 0x61, 0x6c, 0x5f,
  0x31, 0x2f, 0x62, 0x61, 0x74, 0x63, 0x68, 0x5f, 0x6e, 0x6f, 0x72, 0x6d,
  0x61, 0x6c, 0x69, 0x7a, 0x61, 0x74, 0x69, 0x6f, 0x6e, 0x5f, 0x31, 0x5f,
  0x32, 0x2f, 0x62, 0x61, 0x74, 0x63, 0x68, 0x6e, 0x6f, 0x72, 0x6d, 0x2f,
  0x61, 0x64, 0x64, 0x5f, 0x31, 0x3b, 0x73, 0x65, 0x71, 0x75, 0x65, 0x6e,
  0x74, 0x69, 0x61, 0x6c, 0x5f, 0x31, 0x2f, 0x63, 0x6f, 0x6e, 0x76, 0x31,
  0x64, 0x5f, 0x31, 0x5f, 0x32, 0x2f, 0x63, 0x6f, 0x6e, 0x76, 0x6f, 0x6c,
  0x75, 0x74, 0x69, 0x6f, 0x6e, 0x2f, 0x53, 0x71, 0x75, 0x65, 0x65, 0x7a,
  0x65, 0x3b, 0x73, 0x65, 0x71, 0x75, 0x65, 0x6e, 0x74, 0x69, 0x61, 0x6c,
  0x5f, 0x31, 0x2f, 0x62, 0x61, 0x74, 0x63, 0x68, 0x5f, 0x6e, 0x6f, 0x72,
  0x6d, 0x61, 0x6c, 0x69, 0x7a, 0x61, 0x74, 0x69, 0x6f, 0x6e, 0x5f, 0x31,
  0x5f, 0x32, 0x2f, 0x62, 0x61, 0x74, 0x63, 0x68, 0x6e, 0x6f, 0x72, 0x6d,
  0x2f, 0x6d, 0x75, 0x6c, 0x5f, 0x31, 0x3b, 0x00, 0x03, 0x00, 0x00, 0x00,
  0x01, 0x00, 0x00, 0x00, 0xfa, 0x00, 0x00, 0x00, 0x10, 0x00, 0x00, 0x00,
  0x36, 0xef, 0xff, 0xff, 0x00, 0x00, 0x00, 0x01, 0x18, 0x00, 0x00, 0x00,
  0x28, 0x00, 0x00, 0x00, 0x44, 0x00, 0x00, 0x00, 0x19, 0x00, 0x00, 0x00,
  0x00, 0x00, 0x00, 0x09, 0x18, 0x01, 0x00, 0x00, 0x04, 0x00, 0x00, 0x00,
  0xff, 0xff, 0xff, 0xff, 0x01, 0x00, 0x00, 0x00, 0xfa, 0x00, 0x00, 0x00,
  0x10, 0x00, 0x00, 0x00, 0x24, 0xef, 0xff, 0xff, 0x08, 0x00, 0x00, 0x00,
  0x10, 0x00, 0x00, 0x00, 0x01, 0x00, 0x00, 0x00, 0x80, 0xff, 0xff, 0xff,
  0xff, 0xff, 0xff, 0xff, 0x01, 0x00, 0x00, 0x00, 0xf2, 0xc4, 0xed, 0x3c,
  0xdb, 0x00, 0x00, 0x00, 0x73, 0x65, 0x71, 0x75, 0x65, 0x6e, 0x74, 0x69,
  0x61, 0x6c, 0x5f, 0x31, 0x2f, 0x61, 0x63, 0x74, 0x69, 0x76, 0x61, 0x74,
  0x69, 0x6f, 0x6e, 0x5f, 0x31, 0x5f, 0x32, 0x2f, 0x52, 0x65, 0x6c, 0x75,
  0x3b, 0x73, 0x65, 0x71, 0x75, 0x65, 0x6e, 0x74, 0x69, 0x61, 0x6c, 0x5f,
  0x31, 0x2f, 0x62, 0x61, 0x74, 0x63, 0x68, 0x5f, 0x6e, 0x6f, 0x72, 0x6d,
  0x61, 0x6c, 0x69, 0x7a, 0x61, 0x74, 0x69, 0x6f, 0x6e, 0x5f, 0x31, 0x5f,
  0x32, 0x2f, 0x62, 0x61, 0x74, 0x63, 0x68, 0x6e, 0x6f, 0x72, 0x6d, 0x2f,
  0x61, 0x64, 0x64, 0x5f, 0x31, 0x3b, 0x73, 0x65, 0x71, 0x75, 0x65, 0x6e,
  0x74, 0x69, 0x61, 0x6c, 0x5f, 0x31, 0x2f, 0x63, 0x6f, 0x6e, 0x76, 0x31,
  0x64, 0x5f, 0x31, 0x5f, 0x32, 0x2f, 0x63, 0x6f, 0x6e, 0x76, 0x6f, 0x6c,
  0x75, 0x74, 0x69, 0x6f, 0x6e, 0x2f, 0x53, 0x71, 0x75, 0x65, 0x65, 0x7a,
  0x65, 0x3b, 0x73, 0x65, 0x71, 0x75, 0x65, 0x6e, 0x74, 0x69, 0x61, 0x6c,
  0x5f, 0x31, 0x2f, 0x62, 0x61, 0x74, 0x63, 0x68, 0x5f, 0x6e, 0x6f, 0x72,
  0x6d, 0x61, 0x6c, 0x69, 0x7a, 0x61, 0x74, 0x69, 0x6f, 0x6e, 0x5f, 0x31,
  0x5f, 0x32, 0x2f, 0x62, 0x61, 0x74, 0x63, 0x68, 0x6e, 0x6f, 0x72, 0x6d,
  0x2f, 0x6d, 0x75, 0x6c, 0x5f, 0x31, 0x3b, 0x3b, 0x73, 0x65, 0x71, 0x75,
  0x65, 0x6e, 0x74, 0x69, 0x61, 0x6c, 0x5f, 0x31, 0x2f, 0x63, 0x6f, 0x6e,
  0x76, 0x31, 0x64, 0x5f, 0x31, 0x5f, 0x32, 0x2f, 0x63, 0x6f, 0x6e, 0x76,
  0x6f, 0x6c, 0x75, 0x74, 0x69, 0x6f, 0x6e, 0x00, 0x04, 0x00, 0x00, 0x00,
  0x01, 0x00, 0x00, 0x00, 0x01, 0x00, 0x00, 0x00, 0xfa, 0x00, 0x00, 0x00,
  0x10, 0x00, 0x00, 0x00, 0x7e, 0xf0, 0xff, 0xff, 0x00, 0x00, 0x00, 0x01,
  0x18, 0x00, 0x00, 0x00, 0x28, 0x00, 0x00, 0x00, 0x44, 0x00, 0x00, 0x00,
  0x18, 0x00, 0x00, 0x00, 0x00, 0x00, 0x00, 0x09, 0x6c, 0x00, 0x00, 0x00,
  0x04, 0x00, 0x00, 0x00, 0xff, 0xff, 0xff, 0xff, 0x01, 0x00, 0x00, 0x00,
  0xfa, 0x00, 0x00, 0x00, 0x08, 0x00, 0x00, 0x00, 0x6c, 0xf0, 0xff, 0xff,
  0x08, 0x00, 0x00, 0x00, 0x10, 0x00, 0x00, 0x00, 0x01, 0x00, 0x00, 0x00,
  0x80, 0xff, 0xff, 0xff, 0xff, 0xff, 0xff, 0xff, 0x01, 0x00, 0x00, 0x00,
  0x05, 0xe7, 0x03, 0x3d, 0x2e, 0x00, 0x00, 0x00, 0x73, 0x65, 0x71, 0x75,
  0x65, 0x6e, 0x74, 0x69, 0x61, 0x6c, 0x5f, 0x31, 0x2f, 0x63, 0x6f, 0x6e,
  0x76, 0x31, 0x64, 0x5f, 0x31, 0x5f, 0x32, 0x2f, 0x63, 0x6f, 0x6e, 0x76,
  0x6f, 0x6c, 0x75, 0x74, 0x69, 0x6f, 0x6e, 0x2f, 0x45, 0x78, 0x70, 0x61,
  0x6e, 0x64, 0x44, 0x69, 0x6d, 0x73, 0x00, 0x00, 0x04, 0x00, 0x00, 0x00,
  0x01, 0x00, 0x00, 0x00, 0x01, 0x00, 0x00, 0x00, 0xfa, 0x00, 0x00, 0x00,
  0x08, 0x00, 0x00, 0x00, 0x1a, 0xf1, 0xff, 0xff, 0x00, 0x00, 0x00, 0x01,
  0x18, 0x00, 0x00, 0x00, 0x24, 0x00, 0x00, 0x00, 0x40, 0x00, 0x00, 0x00,
  0x17, 0x00, 0x00, 0x00, 0x00, 0x00, 0x00, 0x09, 0x68, 0x00, 0x00, 0x00,
  0x03, 0x00, 0x00, 0x00, 0xff, 0xff, 0xff, 0xff, 0xfa, 0x00, 0x00, 0x00,
  0x08, 0x00, 0x00, 0x00, 0x04, 0xf1, 0xff, 0xff, 0x08, 0x00, 0x00, 0x00,
  0x10, 0x00, 0x00, 0x00, 0x01, 0x00, 0x00, 0x00, 0x80, 0xff, 0xff, 0xff,
  0xff, 0xff, 0xff, 0xff, 0x01, 0x00, 0x00, 0x00, 0x05, 0xe7, 0x03, 0x3d,
  0x2e, 0x00, 0x00, 0x00, 0x73, 0x65, 0x71, 0x75, 0x65, 0x6e, 0x74, 0x69,
  0x61, 0x6c, 0x5f, 0x31, 0x2f, 0x6d, 0x61, 0x78, 0x5f, 0x70, 0x6f, 0x6f,
  0x6c, 0x69, 0x6e, 0x67, 0x31, 0x64, 0x5f, 0x31, 0x2f, 0x4d, 0x61, 0x78,
  0x50, 0x6f, 0x6f, 0x6c, 0x31, 0x64, 0x2f, 0x53, 0x71, 0x75, 0x65, 0x65,
  0x7a, 0x65, 0x00, 0x00, 0x03, 0x00, 0x00, 0x00, 0x01, 0x00, 0x00, 0x00,
  0xfa, 0x00, 0x00, 0x00, 0x08, 0x00, 0x00, 0x00, 0xae, 0xf1, 0xff, 0xff,
  0x00, 0x00, 0x00, 0x01, 0x18, 0x00, 0x00, 0x00, 0x28, 0x00, 0x00, 0x00,
  0x48, 0x00, 0x00, 0x00, 0x16, 0x00, 0x00, 0x00, 0x00, 0x00, 0x00, 0x09,
  0x68, 0x00, 0x00, 0x00, 0x04, 0x00, 0x00, 0x00, 0xff, 0xff, 0xff, 0xff,
  0x01, 0x00, 0x00, 0x00, 0xfa, 0x00, 0x00, 0x00, 0x08, 0x00, 0x00, 0x00,
  0x9c, 0xf1, 0xff, 0xff, 0x08, 0x00, 0x00, 0x00, 0x14, 0x00, 0x00, 0x00,
  0x01, 0x00, 0x00, 0x00, 0x80, 0xff, 0xff, 0xff, 0xff, 0xff, 0xff, 0xff,
  0x00, 0x00, 0x00, 0x00, 0x01, 0x00, 0x00, 0x00, 0x05, 0xe7, 0x03, 0x3d,
  0x26, 0x00, 0x00, 0x00, 0x73, 0x65, 0x71, 0x75, 0x65, 0x6e, 0x74, 0x69,
  0x61, 0x6c, 0x5f, 0x31, 0x2f, 0x6d, 0x61, 0x78, 0x5f, 0x70, 0x6f, 0x6f,
  0x6c, 0x69, 0x6e, 0x67, 0x31, 0x64, 0x5f, 0x31, 0x2f, 0x4d, 0x61, 0x78,
  0x50, 0x6f, 0x6f, 0x6c, 0x31, 0x64, 0x00, 0x00, 0x04, 0x00, 0x00, 0x00,
  0x01, 0x00, 0x00, 0x00, 0x01, 0x00, 0x00, 0x00, 0xfa, 0x00, 0x00, 0x00,
  0x08, 0x00, 0x00, 0x00, 0x46, 0xf2, 0xff, 0xff, 0x00, 0x00, 0x00, 0x01,
  0x18, 0x00, 0x00, 0x00, 0x28, 0x00, 0x00, 0x00, 0x48, 0x00, 0x00, 0x00,
  0x15, 0x00, 0x00, 0x00, 0x00, 0x00, 0x00, 0x09, 0x74, 0x00, 0x00, 0x00,
  0x04, 0x00, 0x00, 0x00, 0xff, 0xff, 0xff, 0xff, 0x01, 0x00, 0x00, 0x00,
  0xe8, 0x03, 0x00, 0x00, 0x08, 0x00, 0x00, 0x00, 0x34, 0xf2, 0xff, 0xff,
  0x08, 0x00, 0x00, 0x00, 0x14, 0x00, 0x00, 0x00, 0x01, 0x00, 0x00, 0x00,
  0x80, 0xff, 0xff, 0xff, 0xff, 0xff, 0xff, 0xff, 0x00, 0x00, 0x00, 0x00,
  0x01, 0x00, 0x00, 0x00, 0x05, 0xe7, 0x03, 0x3d, 0x31, 0x00, 0x00, 0x00,
  0x73, 0x65, 0x71, 0x75, 0x65, 0x6e, 0x74, 0x69, 0x61, 0x6c, 0x5f, 0x31,
  0x2f, 0x6d, 0x61, 0x78, 0x5f, 0x70, 0x6f, 0x6f, 0x6c, 0x69, 0x6e, 0x67,
  0x31, 0x64, 0x5f, 0x31, 0x2f, 0x4d, 0x61, 0x78, 0x50, 0x6f, 0x6f, 0x6c,
  0x31, 0x64, 0x2f, 0x45, 0x78, 0x70, 0x61, 0x6e, 0x64, 0x44, 0x69, 0x6d,
  0x73, 0x00, 0x00, 0x00, 0x04, 0x00, 0x00, 0x00, 0x01, 0x00, 0x00, 0x00,
  0x01, 0x00, 0x00, 0x00, 0xe8, 0x03, 0x00, 0x00, 0x08, 0x00, 0x00, 0x00,
  0xea, 0xf2, 0xff, 0xff, 0x00, 0x00, 0x00, 0x01, 0x18, 0x00, 0x00, 0x00,
  0x24, 0x00, 0x00, 0x00, 0x40, 0x00, 0x00, 0x00, 0x14, 0x00, 0x00, 0x00,
  0x00, 0x00, 0x00, 0x09, 0xe8, 0x00, 0x00, 0x00, 0x03, 0x00, 0x00, 0x00,
  0xff, 0xff, 0xff, 0xff, 0xe8, 0x03, 0x00, 0x00, 0x08, 0x00, 0x00, 0x00,
  0xd4, 0xf2, 0xff, 0xff, 0x08, 0x00, 0x00, 0x00, 0x10, 0x00, 0x00, 0x00,
  0x01, 0x00, 0x00, 0x00, 0x80, 0xff, 0xff, 0xff, 0xff, 0xff, 0xff, 0xff,
  0x01, 0x00, 0x00, 0x00, 0x05, 0xe7, 0x03, 0x3d, 0xaf, 0x00, 0x00, 0x00,
  0x73, 0x65, 0x71, 0x75, 0x65, 0x6e, 0x74, 0x69, 0x61, 0x6c, 0x5f, 0x31,
  0x2f, 0x61, 0x63, 0x74, 0x69, 0x76, 0x61, 0x74, 0x69, 0x6f, 0x6e, 0x5f,
  0x31, 0x2f, 0x52, 0x65, 0x6c, 0x75, 0x3b, 0x73, 0x65, 0x71, 0x75, 0x65,
  0x6e, 0x74, 0x69, 0x61, 0x6c, 0x5f, 0x31, 0x2f, 0x62, 0x61, 0x74, 0x63,
  0x68, 0x5f, 0x6e, 0x6f, 0x72, 0x6d, 0x61, 0x6c, 0x69, 0x7a, 0x61, 0x74,
  0x69, 0x6f, 0x6e, 0x5f, 0x31, 0x2f, 0x62, 0x61, 0x74, 0x63, 0x68, 0x6e,
  0x6f, 0x72, 0x6d, 0x2f, 0x61, 0x64, 0x64, 0x5f, 0x31, 0x3b, 0x73, 0x65,
  0x71, 0x75, 0x65, 0x6e, 0x74, 0x69, 0x61, 0x6c, 0x5f, 0x31, 0x2f, 0x63,
  0x6f, 0x6e, 0x76, 0x31, 0x64, 0x5f, 0x31, 0x2f, 0x63, 0x6f, 0x6e, 0x76,
  0x6f, 0x6c, 0x75, 0x74, 0x69, 0x6f, 0x6e, 0x2f, 0x53, 0x71, 0x75, 0x65,
  0x65, 0x7a, 0x65, 0x3b, 0x73, 0x65, 0x71, 0x75, 0x65, 0x6e, 0x74, 0x69,
  0x61, 0x6c, 0x5f, 0x31, 0x2f, 0x62, 0x61, 0x74, 0x63, 0x68, 0x5f, 0x6e,
  0x6f, 0x72, 0x6d, 0x61, 0x6c, 0x69, 0x7a, 0x61, 0x74, 0x69, 0x6f, 0x6e,
  0x5f, 0x31, 0x2f, 0x62, 0x61, 0x74, 0x63, 0x68, 0x6e, 0x6f, 0x72, 0x6d,
  0x2f, 0x6d, 0x75, 0x6c, 0x5f, 0x31, 0x3b, 0x00, 0x03, 0x00, 0x00, 0x00,
  0x01, 0x00, 0x00, 0x00, 0xe8, 0x03, 0x00, 0x00, 0x08, 0x00, 0x00, 0x00,
  0xfe, 0xf3, 0xff, 0xff, 0x00, 0x00, 0x00, 0x01, 0x18, 0x00, 0x00, 0x00,
  0x28, 0x00, 0x00, 0x00, 0x44, 0x00, 0x00, 0x00, 0x13, 0x00, 0x00, 0x00,
  0x00, 0x00, 0x00, 0x09, 0x10, 0x01, 0x00, 0x00, 0x04, 0x00, 0x00, 0x00,
  0xff, 0xff, 0xff, 0xff, 0x01, 0x00, 0x00, 0x00, 0xe8, 0x03, 0x00, 0x00,
  0x08, 0x00, 0x00, 0x00, 0xec, 0xf3, 0xff, 0xff, 0x08, 0x00, 0x00, 0x00,
  0x10, 0x00, 0x00, 0x00, 0x01, 0x00, 0x00, 0x00, 0x80, 0xff, 0xff, 0xff,
  0xff, 0xff, 0xff, 0xff, 0x01, 0x00, 0x00, 0x00, 0x05, 0xe7, 0x03, 0x3d,
  0xd1, 0x00, 0x00, 0x00, 0x73, 0x65, 0x71, 0x75, 0x65, 0x6e, 0x74, 0x69,
  0x61, 0x6c, 0x5f, 0x31, 0x2f, 0x61, 0x63, 0x74, 0x69, 0x76, 0x61, 0x74,
  0x69, 0x6f, 0x6e, 0x5f, 0x31, 0x2f, 0x52, 0x65, 0x6c, 0x75, 0x3b, 0x73,
  0x65, 0x71, 0x75, 0x65, 0x6e, 0x74, 0x69, 0x61, 0x6c, 0x5f, 0x31, 0x2f,
  0x62, 0x61, 0x74, 0x63, 0x68, 0x5f, 0x6e, 0x6f, 0x72, 0x6d, 0x61, 0x6c,
  0x69, 0x7a, 0x61, 0x74, 0x69, 0x6f, 0x6e, 0x5f, 0x31, 0x2f, 0x62, 0x61,
  0x74, 0x63, 0x68, 0x6e, 0x6f, 0x72, 0x6d, 0x2f, 0x61, 0x64, 0x64, 0x5f,
  0x31, 0x3b, 0x73, 0x65, 0x71, 0x75, 0x65, 0x6e, 0x74, 0x69, 0x61, 0x6c,
  0x5f, 0x31, 0x2f, 0x63, 0x6f, 0x6e, 0x76, 0x31, 0x64, 0x5f, 0x31, 0x2f,
  0x63, 0x6f, 0x6e, 0x76, 0x6f, 0x6c, 0x75, 0x74, 0x69, 0x6f, 0x6e, 0x2f,
  0x53, 0x71, 0x75, 0x65, 0x65, 0x7a, 0x65, 0x3b, 0x73, 0x65, 0x71, 0x75,
  0x65, 0x6e, 0x74, 0x69, 0x61, 0x6c, 0x5f, 0x31, 0x2f, 0x62, 0x61, 0x74,
  0x63, 0x68, 0x5f, 0x6e, 0x6f, 0x72, 0x6d, 0x61, 0x6c, 0x69, 0x7a, 0x61,
  0x74, 0x69, 0x6f, 0x6e, 0x5f, 0x31, 0x2f, 0x62, 0x61, 0x74, 0x63, 0x68,
  0x6e, 0x6f, 0x72, 0x6d, 0x2f, 0x6d, 0x75, 0x6c, 0x5f, 0x31, 0x3b, 0x3b,
  0x73, 0x65, 0x71, 0x75, 0x65, 0x6e, 0x74, 0x69, 0x61, 0x6c, 0x5f, 0x31,
  0x2f, 0x63, 0x6f, 0x6e, 0x76, 0x31, 0x64, 0x5f, 0x31, 0x2f, 0x63, 0x6f,
  0x6e, 0x76, 0x6f, 0x6c, 0x75, 0x74, 0x69, 0x6f, 0x6e, 0x00, 0x00, 0x00,
  0x04, 0x00, 0x00, 0x00, 0x01, 0x00, 0x00, 0x00, 0x01, 0x00, 0x00, 0x00,
  0xe8, 0x03, 0x00, 0x00, 0x08, 0x00, 0x00, 0x00, 0x3e, 0xf5, 0xff, 0xff,
  0x00, 0x00, 0x00, 0x01, 0x18, 0x00, 0x00, 0x00, 0x28, 0x00, 0x00, 0x00,
  0x48, 0x00, 0x00, 0x00, 0x12, 0x00, 0x00, 0x00, 0x00, 0x00, 0x00, 0x09,
  0x70, 0x00, 0x00, 0x00, 0x04, 0x00, 0x00, 0x00, 0xff, 0xff, 0xff, 0xff,
  0x01, 0x00, 0x00, 0x00, 0xe8, 0x03, 0x00, 0x00, 0x04, 0x00, 0x00, 0x00,
  0x2c, 0xf5, 0xff, 0xff, 0x08, 0x00, 0x00, 0x00, 0x14, 0x00, 0x00, 0x00,
  0x01, 0x00, 0x00, 0x00, 0x0b, 0x00, 0x00, 0x00, 0x00, 0x00, 0x00, 0x00,
  0x00, 0x00, 0x00, 0x00, 0x01, 0x00, 0x00, 0x00, 0x1c, 0x42, 0x00, 0x3e,
  0x2c, 0x00, 0x00, 0x00, 0x73, 0x65, 0x71, 0x75, 0x65, 0x6e, 0x74, 0x69,
  0x61, 0x6c, 0x5f, 0x31, 0x2f, 0x63, 0x6f, 0x6e, 0x76, 0x31, 0x64, 0x5f,
  0x31, 0x2f, 0x63, 0x6f, 0x6e, 0x76, 0x6f, 0x6c, 0x75, 0x74, 0x69, 0x6f,
  0x6e, 0x2f, 0x45, 0x78, 0x70, 0x61, 0x6e, 0x64, 0x44, 0x69, 0x6d, 0x73,
  0x00, 0x00, 0x00, 0x00, 0x04, 0x00, 0x00, 0x00, 0x01, 0x00, 0x00, 0x00,
  0x01, 0x00, 0x00, 0x00, 0xe8, 0x03, 0x00, 0x00, 0x04, 0x00, 0x00, 0x00,
  0x32, 0xf6, 0xff, 0xff, 0x00, 0x00, 0x00, 0x01, 0x14, 0x00, 0x00, 0x00,
  0x88, 0x00, 0x00, 0x00, 0x11, 0x00, 0x00, 0x00, 0x00, 0x00, 0x00, 0x09,
  0x94, 0x00, 0x00, 0x00, 0xb4, 0xf5, 0xff, 0xff, 0x08, 0x00, 0x00, 0x00,
  0x4c, 0x00, 0x00, 0x00, 0x08, 0x00, 0x00, 0x00, 0x00, 0x00, 0x00, 0x00,
  0x00, 0x00, 0x00, 0x00, 0x00, 0x00, 0x00, 0x00, 0x00, 0x00, 0x00, 0x00,
  0x00, 0x00, 0x00, 0x00, 0x00, 0x00, 0x00, 0x00, 0x00, 0x00, 0x00, 0x00,
  0x00, 0x00, 0x00, 0x00, 0x00, 0x00, 0x00, 0x00, 0x00, 0x00, 0x00, 0x00,
  0x00, 0x00, 0x00, 0x00, 0x00, 0x00, 0x00, 0x00, 0x00, 0x00, 0x00, 0x00,
  0x00, 0x00, 0x00, 0x00, 0x00, 0x00, 0x00, 0x00, 0x00, 0x00, 0x00, 0x00,
  0x00, 0x00, 0x00, 0x00, 0x08, 0x00, 0x00, 0x00, 0x56, 0xc7, 0xe2, 0x3a,
  0x3f, 0x9d, 0xf2, 0x3a, 0xa6, 0xfb, 0x19, 0x3b, 0xda, 0xe1, 0xbb, 0x3a,
  0x41, 0x40, 0x15, 0x3b, 0x69, 0xda, 0x1d, 0x3b, 0xfa, 0x92, 0xf1, 0x3a,
  0x70, 0x7f, 0xcc, 0x3a, 0x12, 0x00, 0x00, 0x00, 0x74, 0x66, 0x6c, 0x2e,
  0x70, 0x73, 0x65, 0x75, 0x64, 0x6f, 0x5f, 0x71, 0x63, 0x6f, 0x6e, 0x73,
  0x74, 0x37, 0x00, 0x00, 0x04, 0x00, 0x00, 0x00, 0x08, 0x00, 0x00, 0x00,
  0x01, 0x00, 0x00, 0x00, 0x0a, 0x00, 0x00, 0x00, 0x04, 0x00, 0x00, 0x00,
  0xf2, 0xf6, 0xff, 0xff, 0x00, 0x00, 0x00, 0x01, 0x14, 0x00, 0x00, 0x00,
  0x84, 0x00, 0x00, 0x00, 0x10, 0x00, 0x00, 0x00, 0x00, 0x00, 0x00, 0x02,
  0x90, 0x00, 0x00, 0x00, 0x74, 0xf6, 0xff, 0xff, 0x08, 0x00, 0x00, 0x00,
  0x48, 0x00, 0x00, 0x00, 0x08, 0x00, 0x00, 0x00, 0x00, 0x00, 0x00, 0x00,
  0x00, 0x00, 0x00, 0x00, 0x00, 0x00, 0x00, 0x00, 0x00, 0x00, 0x00, 0x00,
  0x00, 0x00, 0x00, 0x00, 0x00, 0x00, 0x00, 0x00, 0x00, 0x00, 0x00, 0x00,
  0x00, 0x00, 0x00, 0x00, 0x00, 0x00, 0x00, 0x00, 0x00, 0x00, 0x00, 0x00,
  0x00, 0x00, 0x00, 0x00, 0x00, 0x00, 0x00, 0x00, 0x00, 0x00, 0x00, 0x00,
  0x00, 0x00, 0x00, 0x00, 0x00, 0x00, 0x00, 0x00, 0x00, 0x00, 0x00, 0x00,
  0x08, 0x00, 0x00, 0x00, 0x76, 0x3c, 0x63, 0x39, 0x8d, 0x1a, 0x73, 0x39,
  0x2d, 0x4b, 0x9a, 0x39, 0xe4, 0x42, 0x3c, 0x39, 0x57, 0x8d, 0x95, 0x39,
  0xf0, 0x2b, 0x9e, 0x39, 0xbf, 0x0f, 0x72, 0x39, 0x0e, 0xe9, 0x4c, 0x39,
  0x12, 0x00, 0x00, 0x00, 0x74, 0x66, 0x6c, 0x2e, 0x70, 0x73, 0x65, 0x75,
  0x64, 0x6f, 0x5f, 0x71, 0x63, 0x6f, 0x6e, 0x73, 0x74, 0x36, 0x00, 0x00,
  0x01, 0x00, 0x00, 0x00, 0x08, 0x00, 0x00, 0x00, 0xa2, 0xf7, 0xff, 0xff,
  0x00, 0x00, 0x00, 0x01, 0x14, 0x00, 0x00, 0x00, 0xe8, 0x00, 0x00, 0x00,
  0x0f, 0x00, 0x00, 0x00, 0x00, 0x00, 0x00, 0x09, 0xf4, 0x00, 0x00, 0x00,
  0x24, 0xf7, 0xff, 0xff, 0x08, 0x00, 0x00, 0x00, 0x8c, 0x00, 0x00, 0x00,
  0x10, 0x00, 0x00, 0x00, 0x00, 0x00, 0x00, 0x00, 0x00, 0x00, 0x00, 0x00,
  0x00, 0x00, 0x00, 0x00, 0x00, 0x00, 0x00, 0x00, 0x00, 0x00, 0x00, 0x00,
  0x00, 0x00, 0x00, 0x00, 0x00, 0x00, 0x00, 0x00, 0x00, 0x00, 0x00, 0x00,
  0x00, 0x00, 0x00, 0x00, 0x00, 0x00, 0x00, 0x00, 0x00, 0x00, 0x00, 0x00,
  0x00, 0x00, 0x00, 0x00, 0x00, 0x00, 0x00, 0x00, 0x00, 0x00, 0x00, 0x00,
  0x00, 0x00, 0x00, 0x00, 0x00, 0x00, 0x00, 0x00, 0x00, 0x00, 0x00, 0x00,
  0x00, 0x00, 0x00, 0x00, 0x00, 0x00, 0x00, 0x00, 0x00, 0x00, 0x00, 0x00,
  0x00, 0x00, 0x00, 0x00, 0x00, 0x00, 0x00, 0x00, 0x00, 0x00, 0x00, 0x00,
  0x00, 0x00, 0x00, 0x00, 0x00, 0x00, 0x00, 0x00, 0x00, 0x00, 0x00, 0x00,
  0x00, 0x00, 0x00, 0x00, 0x00, 0x00, 0x00, 0x00, 0x00, 0x00, 0x00, 0x00,
  0x00, 0x00, 0x00, 0x00, 0x00, 0x00, 0x00, 0x00, 0x00, 0x00, 0x00, 0x00,
  0x00, 0x00, 0x00, 0x00, 0x10, 0x00, 0x00, 0x00, 0xf1, 0x68, 0x1a, 0x3b,
  0xb0, 0x97, 0x86, 0x3b, 0xac, 0xe2, 0x5b, 0x3b, 0x01, 0xda, 0xdb, 0x3b,
  0x87, 0x3e, 0x58, 0x3b, 0x3b, 0x51, 0x53, 0x3b, 0x92, 0x93, 0x92, 0x3b,
  0xd0, 0xe1, 0xa4, 0x3b, 0xab, 0x36, 0xe1, 0x3a, 0x8d, 0xdc, 0x7b, 0x3b,
  0xe4, 0x72, 0x26, 0x3b, 0x61, 0x81, 0x12, 0x3b, 0x15, 0xb6, 0x73, 0x3b,
  0x6a, 0x2d, 0x35, 0x3b, 0x44, 0x31, 0x3c, 0x3b, 0xf0, 0x42, 0x87, 0x3b,
  0x12, 0x00, 0x00, 0x00, 0x74, 0x66, 0x6c, 0x2e, 0x70, 0x73, 0x65, 0x75,
  0x64, 0x6f, 0x5f, 0x71, 0x63, 0x6f, 0x6e, 0x73, 0x74, 0x35, 0x00, 0x00,
  0x04, 0x00, 0x00, 0x00, 0x10, 0x00, 0x00, 0x00, 0x01, 0x00, 0x00, 0x00,
  0x05, 0x00, 0x00, 0x00, 0x08, 0x00, 0x00, 0x00, 0xc2, 0xf8, 0xff, 0xff,
  0x00, 0x00, 0x00, 0x01, 0x14, 0x00, 0x00, 0x00, 0xe4, 0x00, 0x00, 0x00,
  0x0e, 0x00, 0x00, 0x00, 0x00, 0x00, 0x00, 0x02, 0xf0, 0x00, 0x00, 0x00,
  0x44, 0xf8, 0xff, 0xff, 0x08, 0x00, 0x00, 0x00, 0x88, 0x00, 0x00, 0x00,
  0x10, 0x00, 0x00, 0x00, 0x00, 0x00, 0x00, 0x00, 0x00, 0x00, 0x00, 0x00,
  0x00, 0x00, 0x00, 0x00, 0x00, 0x00, 0x00, 0x00, 0x00, 0x00, 0x00, 0x00,
  0x00, 0x00, 0x00, 0x00, 0x00, 0x00, 0x00, 0x00, 0x00, 0x00, 0x00, 0x00,
  0x00, 0x00, 0x00, 0x00, 0x00, 0x00, 0x00, 0x00, 0x00, 0x00, 0x00, 0x00,
  0x00, 0x00, 0x00, 0x00, 0x00, 0x00, 0x00, 0x00, 0x00, 0x00, 0x00, 0x00,
  0x00, 0x00, 0x00, 0x00, 0x00, 0x00, 0x00, 0x00, 0x00, 0x00, 0x00, 0x00,
  0x00, 0x00, 0x00, 0x00, 0x00, 0x00, 0x00, 0x00, 0x00, 0x00, 0x00, 0x00,
  0x00, 0x00, 0x00, 0x00, 0x00, 0x00, 0x00, 0x00, 0x00, 0x00, 0x00, 0x00,
  0x00, 0x00, 0x00, 0x00, 0x00, 0x00, 0x00, 0x00, 0x00, 0x00, 0x00, 0x00,
  0x00, 0x00, 0x00, 0x00, 0x00, 0x00, 0x00, 0x00, 0x00, 0x00, 0x00, 0x00,
  0x00, 0x00, 0x00, 0x00, 0x00, 0x00, 0x00, 0x00, 0x00, 0x00, 0x00, 0x00,
  0x10, 0x00, 0x00, 0x00, 0x16, 0x1e, 0x9f, 0x38, 0x29, 0xb2, 0x0a, 0x39,
  0xd8, 0x96, 0xe2, 0x38, 0xe9, 0x8d, 0x62, 0x39, 0x47, 0xd6, 0xde, 0x38,
  0x87, 0xc2, 0xd9, 0x38, 0x93, 0x0b, 0x17, 0x39, 0xb1, 0xe8, 0x29, 0x39,
  0x6c, 0x14, 0x68, 0x38, 0x25, 0xc5, 0x01, 0x39, 0xff, 0x85, 0xab, 0x38,
  0xd4, 0xf8, 0x96, 0x38, 0x36, 0x24, 0xfb, 0x38, 0x7a, 0xb3, 0xba, 0x38,
  0x14, 0xee, 0xc1, 0x38, 0xa2, 0x62, 0x0b, 0x39, 0x12, 0x00, 0x00, 0x00,
  0x74, 0x66, 0x6c, 0x2e, 0x70, 0x73, 0x65, 0x75, 0x64, 0x6f, 0x5f, 0x71,
  0x63, 0x6f, 0x6e, 0x73, 0x74, 0x34, 0x00, 0x00, 0x01, 0x00, 0x00, 0x00,
  0x10, 0x00, 0x00, 0x00, 0xd2, 0xf9, 0xff, 0xff, 0x00, 0x00, 0x00, 0x01,
  0x14, 0x00, 0x00, 0x00, 0xa8, 0x01, 0x00, 0x00, 0x0d, 0x00, 0x00, 0x00,
  0x00, 0x00, 0x00, 0x09, 0xb4, 0x01, 0x00, 0x00, 0x54, 0xf9, 0xff, 0xff,
  0x08, 0x00, 0x00, 0x00, 0x0c, 0x01, 0x00, 0x00, 0x20, 0x00, 0x00, 0x00,
  0x00, 0x00, 0x00, 0x00, 0x00, 0x00, 0x00, 0x00, 0x00, 0x00, 0x00, 0x00,
  0x00, 0x00, 0x00, 0x00, 0x00, 0x00, 0x00, 0x00, 0x00, 0x00, 0x00, 0x00,
  0x00, 0x00, 0x00, 0x00, 0x00, 0x00, 0x00, 0x00, 0x00, 0x00, 0x00, 0x00,
  0x00, 0x00, 0x00, 0x00, 0x00, 0x00, 0x00, 0x00, 0x00, 0x00, 0x00, 0x00,
  0x00, 0x00, 0x00, 0x00, 0x00, 0x00, 0x00, 0x00, 0x00, 0x00, 0x00, 0x00,
  0x00, 0x00, 0x00, 0x00, 0x00, 0x00, 0x00, 0x00, 0x00, 0x00, 0x00, 0x00,
  0x00, 0x00, 0x00, 0x00, 0x00, 0x00, 0x00, 0x00, 0x00, 0x00, 0x00, 0x00,
  0x00, 0x00, 0x00, 0x00, 0x00, 0x00, 0x00, 0x00, 0x00, 0x00, 0x00, 0x00,
  0x00, 0x00, 0x00, 0x00, 0x00, 0x00, 0x00, 0x00, 0x00, 0x00, 0x00, 0x00,
  0x00, 0x00, 0x00, 0x00, 0x00, 0x00, 0x00, 0x00, 0x00, 0x00, 0x00, 0x00,
  0x00, 0x00, 0x00, 0x00, 0x00, 0x00, 0x00, 0x00, 0x00, 0x00, 0x00, 0x00,
  0x00, 0x00, 0x00, 0x00, 0x00, 0x00, 0x00, 0x00, 0x00, 0x00, 0x00, 0x00,
  0x00, 0x00, 0x00, 0x00, 0x00, 0x00, 0x00, 0x00, 0x00, 0x00, 0x00, 0x00,
  0x00, 0x00, 0x00, 0x00, 0x00, 0x00, 0x00, 0x00, 0x00, 0x00, 0x00, 0x00,
  0x00, 0x00, 0x00, 0x00, 0x00, 0x00, 0x00, 0x00, 0x00, 0x00, 0x00, 0x00,
  0x00, 0x00, 0x00, 0x00, 0x00, 0x00, 0x00, 0x00, 0x00, 0x00, 0x00, 0x00,
  0x00, 0x00, 0x00, 0x00, 0x00, 0x00, 0x00, 0x00, 0x00, 0x00, 0x00, 0x00,
  0x00, 0x00, 0x00, 0x00, 0x00, 0x00, 0x00, 0x00, 0x00, 0x00, 0x00, 0x00,
  0x00, 0x00, 0x00, 0x00, 0x00, 0x00, 0x00, 0x00, 0x00, 0x00, 0x00, 0x00,
  0x00, 0x00, 0x00, 0x00, 0x00, 0x00, 0x00, 0x00, 0x00, 0x00, 0x00, 0x00,
  0x00, 0x00, 0x00, 0x00, 0x00, 0x00, 0x00, 0x00, 0x00, 0x00, 0x00, 0x00,
  0x00, 0x00, 0x00, 0x00, 0x00, 0x00, 0x00, 0x00, 0x20, 0x00, 0x00, 0x00,
  0x06, 0x74, 0x9e, 0x3b, 0xf2, 0xfd, 0xc0, 0x3b, 0xf1, 0x67, 0xda, 0x3b,
  0x5f, 0x2a, 0xc4, 0x3b, 0x48, 0xab, 0xda, 0x3b, 0x49, 0xf9, 0xd9, 0x3b,
  0x8a, 0xa8, 0xc3, 0x3b, 0xbb, 0x50, 0xa2, 0x3b, 0xb7, 0xf9, 0xb7, 0x3b,
  0x35, 0xe9, 0xd9, 0x3b, 0x7f, 0x18, 0xf7, 0x3b, 0x6f, 0x9f, 0xa2, 0x3b,
  0x3e, 0x26, 0x9c, 0x3b, 0x04, 0x3a, 0xc2, 0x3b, 0x08, 0x27, 0x8e, 0x3b,
  0x7d, 0xc5, 0xb8, 0x3b, 0x38, 0x33, 0xec, 0x3b, 0x69, 0x75, 0xc8, 0x3b,
  0xff, 0xfe, 0xb7, 0x3b, 0x97, 0x1b, 0xbb, 0x3b, 0x71, 0x48, 0xc0, 0x3b,
  0x56, 0xf8, 0xf0, 0x3b, 0xaa, 0xce, 0xe0, 0x3b, 0x2e, 0x66, 0xc1, 0x3b,
  0x18, 0xe1, 0xd9, 0x3b, 0xe5, 0x49, 0xa4, 0x3b, 0x30, 0x51, 0xed, 0x3b,
  0x1b, 0xf8, 0xe2, 0x3b, 0x0d, 0x92, 0xeb, 0x3b, 0x58, 0x3b, 0x9f, 0x3b,
  0x4b, 0xd6, 0xa5, 0x3b, 0x1f, 0x5f, 0xa1, 0x3b, 0x12, 0x00, 0x00, 0x00,
  0x74, 0x66, 0x6c, 0x2e, 0x70, 0x73, 0x65, 0x75, 0x64, 0x6f, 0x5f, 0x71,
  0x63, 0x6f, 0x6e, 0x73, 0x74, 0x33, 0x00, 0x00, 0x04, 0x00, 0x00, 0x00,
  0x20, 0x00, 0x00, 0x00, 0x01, 0x00, 0x00, 0x00, 0x03, 0x00, 0x00, 0x00,
  0x10, 0x00, 0x00, 0x00, 0xb2, 0xfb, 0xff, 0xff, 0x00, 0x00, 0x00, 0x01,
  0x14, 0x00, 0x00, 0x00, 0xa4, 0x01, 0x00, 0x00, 0x0c, 0x00, 0x00, 0x00,
  0x00, 0x00, 0x00, 0x02, 0xb0, 0x01, 0x00, 0x00, 0x34, 0xfb, 0xff, 0xff,
  0x08, 0x00, 0x00, 0x00, 0x08, 0x01, 0x00, 0x00, 0x20, 0x00, 0x00, 0x00,
  0x00, 0x00, 0x00, 0x00, 0x00, 0x00, 0x00, 0x00, 0x00, 0x00, 0x00, 0x00,
  0x00, 0x00, 0x00, 0x00, 0x00, 0x00, 0x00, 0x00, 0x00, 0x00, 0x00, 0x00,
  0x00, 0x00, 0x00, 0x00, 0x00, 0x00, 0x00, 0x00, 0x00, 0x00, 0x00, 0x00,
  0x00, 0x00, 0x00, 0x00, 0x00, 0x00, 0x00, 0x00, 0x00, 0x00, 0x00, 0x00,
  0x00, 0x00, 0x00, 0x00, 0x00, 0x00, 0x00, 0x00, 0x00, 0x00, 0x00, 0x00,
  0x00, 0x00, 0x00, 0x00, 0x00, 0x00, 0x00, 0x00, 0x00, 0x00, 0x00, 0x00,
  0x00, 0x00, 0x00, 0x00, 0x00, 0x00, 0x00, 0x00, 0x00, 0x00, 0x00, 0x00,
  0x00, 0x00, 0x00, 0x00, 0x00, 0x00, 0x00, 0x00, 0x00, 0x00, 0x00, 0x00,
  0x00, 0x00, 0x00, 0x00, 0x00, 0x00, 0x00, 0x00, 0x00, 0x00, 0x00, 0x00,
  0x00, 0x00, 0x00, 0x00, 0x00, 0x00, 0x00, 0x00, 0x00, 0x00, 0x00, 0x00,
  0x00, 0x00, 0x00, 0x00, 0x00, 0x00, 0x00, 0x00, 0x00, 0x00, 0x00, 0x00,
  0x00, 0x00, 0x00, 0x00, 0x00, 0x00, 0x00, 0x00, 0x00, 0x00, 0x00, 0x00,
  0x00, 0x00, 0x00, 0x00, 0x00, 0x00, 0x00, 0x00, 0x00, 0x00, 0x00, 0x00,
  0x00, 0x00, 0x00, 0x00, 0x00, 0x00, 0x00, 0x00, 0x00, 0x00, 0x00, 0x00,
  0x00, 0x00, 0x00, 0x00, 0x00, 0x00, 0x00, 0x00, 0x00, 0x00, 0x00, 0x00,
  0x00, 0x00, 0x00, 0x00, 0x00, 0x00, 0x00, 0x00, 0x00, 0x00, 0x00, 0x00,
  0x00, 0x00, 0x00, 0x00, 0x00, 0x00, 0x00, 0x00, 0x00, 0x00, 0x00, 0x00,
  0x00, 0x00, 0x00, 0x00, 0x00, 0x00, 0x00, 0x00, 0x00, 0x00, 0x00, 0x00,
  0x00, 0x00, 0x00, 0x00, 0x00, 0x00, 0x00, 0x00, 0x00, 0x00, 0x00, 0x00,
  0x00, 0x00, 0x00, 0x00, 0x00, 0x00, 0x00, 0x00, 0x00, 0x00, 0x00, 0x00,
  0x00, 0x00, 0x00, 0x00, 0x00, 0x00, 0x00, 0x00, 0x00, 0x00, 0x00, 0x00,
  0x00, 0x00, 0x00, 0x00, 0x20, 0x00, 0x00, 0x00, 0x50, 0x2b, 0x13, 0x39,
  0x92, 0x3f, 0x33, 0x39, 0x40, 0xda, 0x4a, 0x39, 0x24, 0x32, 0x36, 0x39,
  0xcc, 0x18, 0x4b, 0x39, 0x79, 0x73, 0x4a, 0x39, 0x8e, 0xb9, 0x35, 0x39,
  0x9c, 0xc1, 0x16, 0x39, 0xb8, 0xdf, 0x2a, 0x39, 0x8b, 0x64, 0x4a, 0x39,
  0xc6, 0x7f, 0x65, 0x39, 0xb6, 0x0a, 0x17, 0x39, 0x88, 0x07, 0x11, 0x39,
  0x22, 0x65, 0x34, 0x39, 0x7f, 0x07, 0x04, 0x39, 0xfb, 0x9c, 0x2b, 0x39,
  0x21, 0x61, 0x5b, 0x39, 0xea, 0x2e, 0x3a, 0x39, 0x9f, 0xe4, 0x2a, 0x39,
  0x7d, 0xc8, 0x2d, 0x39, 0xfe, 0x96, 0x32, 0x39, 0x4a, 0xcf, 0x5f, 0x39,
  0x46, 0xcc, 0x50, 0x39, 0x62, 0xa0, 0x33, 0x39, 0x02, 0x5d, 0x4a, 0x39,
  0xcd, 0x96, 0x18, 0x39, 0xbc, 0x6a, 0x5c, 0x39, 0x4e, 0xce, 0x52, 0x39,
  0x71, 0xcb, 0x5a, 0x39, 0x70, 0xe4, 0x13, 0x39, 0xf8, 0x06, 0x1a, 0x39,
  0x35, 0xe1, 0x15, 0x39, 0x12, 0x00, 0x00, 0x00, 0x74, 0x66, 0x6c, 0x2e,
  0x70, 0x73, 0x65, 0x75, 0x64, 0x6f, 0x5f, 0x71, 0x63, 0x6f, 0x6e, 0x73,
  0x74, 0x32, 0x00, 0x00, 0x01, 0x00, 0x00, 0x00, 0x20, 0x00, 0x00, 0x00,
  0x82, 0xfd, 0xff, 0xff, 0x00, 0x00, 0x00, 0x01, 0x14, 0x00, 0x00, 0x00,
  0x40, 0x00, 0x00, 0x00, 0x0b, 0x00, 0x00, 0x00, 0x00, 0x00, 0x00, 0x09,
  0x4c, 0x00, 0x00, 0x00, 0x04, 0xfd, 0xff, 0xff, 0x08, 0x00, 0x00, 0x00,
  0x1c, 0x00, 0x00, 0x00, 0x02, 0x00, 0x00, 0x00, 0x00, 0x00, 0x00, 0x00,
  0x00, 0x00, 0x00, 0x00, 0x00, 0x00, 0x00, 0x00, 0x00, 0x00, 0x00, 0x00,
  0x00, 0x00, 0x00, 0x00, 0x02, 0x00, 0x00, 0x00, 0xb7, 0xf6, 0x7c, 0x3b,
  0xe6, 0xc8, 0x50, 0x3b, 0x12, 0x00, 0x00, 0x00, 0x74, 0x66, 0x6c, 0x2e,
  0x70, 0x73, 0x65, 0x75, 0x64, 0x6f, 0x5f, 0x71, 0x63, 0x6f, 0x6e, 0x73,
  0x74, 0x31, 0x00, 0x00, 0x02, 0x00, 0x00, 0x00, 0x02, 0x00, 0x00, 0x00,
  0x20, 0x00, 0x00, 0x00, 0xf2, 0xfd, 0xff, 0xff, 0x00, 0x00, 0x00, 0x01,
  0x14, 0x00, 0x00, 0x00, 0x40, 0x00, 0x00, 0x00, 0x0a, 0x00, 0x00, 0x00,
  0x00, 0x00, 0x00, 0x02, 0x4c, 0x00, 0x00, 0x00, 0x74, 0xfd, 0xff, 0xff,
  0x08, 0x00, 0x00, 0x00, 0x1c, 0x00, 0x00, 0x00, 0x02, 0x00, 0x00, 0x00,
  0x00, 0x00, 0x00, 0x00, 0x00, 0x00, 0x00, 0x00, 0x00, 0x00, 0x00, 0x00,
  0x00, 0x00, 0x00, 0x00, 0x00, 0x00, 0x00, 0x00, 0x02, 0x00, 0x00, 0x00,
  0xea, 0x86, 0x0a, 0x38, 0xf3, 0xaa, 0xe4, 0x37, 0x11, 0x00, 0x00, 0x00,
  0x74, 0x66, 0x6c, 0x2e, 0x70, 0x73, 0x65, 0x75, 0x64, 0x6f, 0x5f, 0x71,
  0x63, 0x6f, 0x6e, 0x73, 0x74, 0x00, 0x00, 0x00, 0x01, 0x00, 0x00, 0x00,
  0x02, 0x00, 0x00, 0x00, 0x5e, 0xfe, 0xff, 0xff, 0x00, 0x00, 0x00, 0x01,
  0x14, 0x00, 0x00, 0x00, 0x14, 0x00, 0x00, 0x00, 0x09, 0x00, 0x00, 0x00,
  0x00, 0x00, 0x00, 0x02, 0x1c, 0x00, 0x00, 0x00, 0x48, 0xfe, 0xff, 0xff,
  0x0f, 0x00, 0x00, 0x00, 0x61, 0x72, 0x69, 0x74, 0x68, 0x2e, 0x63, 0x6f,
  0x6e, 0x73, 0x74, 0x61, 0x6e, 0x74, 0x37, 0x00, 0x01, 0x00, 0x00, 0x00,
  0x03, 0x00, 0x00, 0x00, 0x9a, 0xfe, 0xff, 0xff, 0x00, 0x00, 0x00, 0x01,
  0x14, 0x00, 0x00, 0x00, 0x14, 0x00, 0x00, 0x00, 0x08, 0x00, 0x00, 0x00,
  0x00, 0x00, 0x00, 0x02, 0x1c, 0x00, 0x00, 0x00, 0x84, 0xfe, 0xff, 0xff,
  0x0f, 0x00, 0x00, 0x00, 0x61, 0x72, 0x69, 0x74, 0x68, 0x2e, 0x63, 0x6f,
  0x6e, 0x73, 0x74, 0x61, 0x6e, 0x74, 0x36, 0x00, 0x01, 0x00, 0x00, 0x00,
  0x03, 0x00, 0x00, 0x00, 0xd6, 0xfe, 0xff, 0xff, 0x00, 0x00, 0x00, 0x01,
  0x14, 0x00, 0x00, 0x00, 0x14, 0x00, 0x00, 0x00, 0x07, 0x00, 0x00, 0x00,
  0x00, 0x00, 0x00, 0x02, 0x1c, 0x00, 0x00, 0x00, 0xc0, 0xfe, 0xff, 0xff,
  0x0f, 0x00, 0x00, 0x00, 0x61, 0x72, 0x69, 0x74, 0x68, 0x2e, 0x63, 0x6f,
  0x6e, 0x73, 0x74, 0x61, 0x6e, 0x74, 0x35, 0x00, 0x01, 0x00, 0x00, 0x00,
  0x03, 0x00, 0x00, 0x00, 0x12, 0xff, 0xff, 0xff, 0x00, 0x00, 0x00, 0x01,
  0x14, 0x00, 0x00, 0x00, 0x14, 0x00, 0x00, 0x00, 0x06, 0x00, 0x00, 0x00,
  0x00, 0x00, 0x00, 0x02, 0x1c, 0x00, 0x00, 0x00, 0xfc, 0xfe, 0xff, 0xff,
  0x0f, 0x00, 0x00, 0x00, 0x61, 0x72, 0x69, 0x74, 0x68, 0x2e, 0x63, 0x6f,
  0x6e, 0x73, 0x74, 0x61, 0x6e, 0x74, 0x34, 0x00, 0x01, 0x00, 0x00, 0x00,
  0x03, 0x00, 0x00, 0x00, 0x4e, 0xff, 0xff, 0xff, 0x00, 0x00, 0x00, 0x01,
  0x14, 0x00, 0x00, 0x00, 0x14, 0x00, 0x00, 0x00, 0x05, 0x00, 0x00, 0x00,
  0x00, 0x00, 0x00, 0x02, 0x1c, 0x00, 0x00, 0x00, 0x38, 0xff, 0xff, 0xff,
  0x0f, 0x00, 0x00, 0x00, 0x61, 0x72, 0x69, 0x74, 0x68, 0x2e, 0x63, 0x6f,
  0x6e, 0x73, 0x74, 0x61, 0x6e, 0x74, 0x33, 0x00, 0x01, 0x00, 0x00, 0x00,
  0x03, 0x00, 0x00, 0x00, 0x8a, 0xff, 0xff, 0xff, 0x00, 0x00, 0x00, 0x01,
  0x14, 0x00, 0x00, 0x00, 0x14, 0x00, 0x00, 0x00, 0x04, 0x00, 0x00, 0x00,
  0x00, 0x00, 0x00, 0x02, 0x1c, 0x00, 0x00, 0x00, 0x74, 0xff, 0xff, 0xff,
  0x0f, 0x00, 0x00, 0x00, 0x61, 0x72, 0x69, 0x74, 0x68, 0x2e, 0x63, 0x6f,
  0x6e, 0x73, 0x74, 0x61, 0x6e, 0x74, 0x32, 0x00, 0x00, 0x00, 0x00, 0x00,
  0xc2, 0xff, 0xff, 0xff, 0x00, 0x00, 0x00, 0x01, 0x14, 0x00, 0x00, 0x00,
  0x14, 0x00, 0x00, 0x00, 0x03, 0x00, 0x00, 0x00, 0x00, 0x00, 0x00, 0x02,
  0x1c, 0x00, 0x00, 0x00, 0xac, 0xff, 0xff, 0xff, 0x0f, 0x00, 0x00, 0x00,
  0x61, 0x72, 0x69, 0x74, 0x68, 0x2e, 0x63, 0x6f, 0x6e, 0x73, 0x74, 0x61,
  0x6e, 0x74, 0x31, 0x00, 0x01, 0x00, 0x00, 0x00, 0x03, 0x00, 0x00, 0x00,
  0x00, 0x00, 0x16, 0x00, 0x1c, 0x00, 0x18, 0x00, 0x17, 0x00, 0x10, 0x00,
  0x0c, 0x00, 0x08, 0x00, 0x00, 0x00, 0x00, 0x00, 0x00, 0x00, 0x07, 0x00,
  0x16, 0x00, 0x00, 0x00, 0x00, 0x00, 0x00, 0x01, 0x18, 0x00, 0x00, 0x00,
  0x18, 0x00, 0x00, 0x00, 0x02, 0x00, 0x00, 0x00, 0x00, 0x00, 0x00, 0x02,
  0x20, 0x00, 0x00, 0x00, 0x04, 0x00, 0x04, 0x00, 0x04, 0x00, 0x00, 0x00,
  0x0e, 0x00, 0x00, 0x00, 0x61, 0x72, 0x69, 0x74, 0x68, 0x2e, 0x63, 0x6f,
  0x6e, 0x73, 0x74, 0x61, 0x6e, 0x74, 0x00, 0x00, 0x00, 0x00, 0x00, 0x00,
  0x00, 0x00, 0x16, 0x00, 0x20, 0x00, 0x1c, 0x00, 0x1b, 0x00, 0x14, 0x00,
  0x10, 0x00, 0x0c, 0x00, 0x00, 0x00, 0x00, 0x00, 0x08, 0x00, 0x07, 0x00,
  0x16, 0x00, 0x00, 0x00, 0x00, 0x00, 0x00, 0x01, 0x18, 0x00, 0x00, 0x00,
  0x30, 0x00, 0x00, 0x00, 0x50, 0x00, 0x00, 0x00, 0x01, 0x00, 0x00, 0x00,
  0x00, 0x00, 0x00, 0x09, 0x68, 0x00, 0x00, 0x00, 0x03, 0x00, 0x00, 0x00,
  0xff, 0xff, 0xff, 0xff, 0xe8, 0x03, 0x00, 0x00, 0x04, 0x00, 0x00, 0x00,
  0x0c, 0x00, 0x0c, 0x00, 0x00, 0x00, 0x00, 0x00, 0x08, 0x00, 0x04, 0x00,
  0x0c, 0x00, 0x00, 0x00, 0x08, 0x00, 0x00, 0x00, 0x14, 0x00, 0x00, 0x00,
  0x01, 0x00, 0x00, 0x00, 0x0b, 0x00, 0x00, 0x00, 0x00, 0x00, 0x00, 0x00,
  0x00, 0x00, 0x00, 0x00, 0x01, 0x00, 0x00, 0x00, 0x1c, 0x42, 0x00, 0x3e,
  0x1e, 0x00, 0x00, 0x00, 0x73, 0x65, 0x72, 0x76, 0x69, 0x6e, 0x67, 0x5f,
  0x64, 0x65, 0x66, 0x61, 0x75, 0x6c, 0x74, 0x5f, 0x6b, 0x65, 0x72, 0x61,
  0x73, 0x5f, 0x74, 0x65, 0x6e, 0x73, 0x6f, 0x72, 0x3a, 0x30, 0x00, 0x00,
  0x03, 0x00, 0x00, 0x00, 0x01, 0x00, 0x00, 0x00, 0xe8, 0x03, 0x00, 0x00,
  0x04, 0x00, 0x00, 0x00, 0x07, 0x00, 0x00, 0x00, 0x90, 0x00, 0x00, 0x00,
  0x70, 0x00, 0x00, 0x00, 0x54, 0x00, 0x00, 0x00, 0x40, 0x00, 0x00, 0x00,
  0x2c, 0x00, 0x00, 0x00, 0x18, 0x00, 0x00, 0x00, 0x04, 0x00, 0x00, 0x00,
  0xb4, 0xff, 0xff, 0xff, 0x19, 0x00, 0x00, 0x00, 0x02, 0x00, 0x00, 0x00,
  0x00, 0x00, 0x00, 0x19, 0xc4, 0xff, 0xff, 0xff, 0x09, 0x00, 0x00, 0x00,
  0x04, 0x00, 0x00, 0x00, 0x00, 0x00, 0x00, 0x09, 0xd4, 0xff, 0xff, 0xff,
  0x28, 0x00, 0x00, 0x00, 0x02, 0x00, 0x00, 0x00, 0x00, 0x00, 0x00, 0x28,
  0xe4, 0xff, 0xff, 0xff, 0x11, 0x00, 0x00, 0x00, 0x02, 0x00, 0x00, 0x00,
  0x00, 0x00, 0x00, 0x11, 0xd8, 0xff, 0xff, 0xff, 0x16, 0x00, 0x00, 0x00,
  0x00, 0x00, 0x00, 0x16, 0x0c, 0x00, 0x10, 0x00, 0x0f, 0x00, 0x00, 0x00,
  0x08, 0x00, 0x04, 0x00, 0x0c, 0x00, 0x00, 0x00, 0x03, 0x00, 0x00, 0x00,
  0x03, 0x00, 0x00, 0x00, 0x00, 0x00, 0x00, 0x03, 0x0c, 0x00, 0x0c, 0x00,
  0x0b, 0x00, 0x00, 0x00, 0x00, 0x00, 0x04, 0x00, 0x0c, 0x00, 0x00, 0x00,
  0x46, 0x00, 0x00, 0x00, 0x00, 0x00, 0x00, 0x46