#pragma once

// COPY THE CONTENT OF 'stress_model.h' GENERATED BY COLAB HERE
// Example structure:
const unsigned char g_stress_model_data[] __attribute__((aligned(16))) = {
0x20, 0x00, 0x00, 0x00, 0x54, 0x46, 0x4c, 0x33, 0x00, 0x00, 0x00, 0x00,
  0x14, 0x00, 0x20, 0x00, 0x1c, 0x00, 0x18, 0x00, 0x14, 0x00, 0x10, 0x00,
  0x0c, 0x00, 0x00, 0x00, 0x08, 0x00, 0x04, 0x00, 0x14, 0x00, 0x00, 0x00,
  0x1c, 0x00, 0x00, 0x00, 0x8c, 0x00, 0x00, 0x00, 0x0c, 0x01, 0x00, 0x00,
  0xac, 0x0e, 0x00, 0x00, 0xbc, 0x0e, 0x00, 0x00, 0x18, 0x2f, 0x00, 0x00,
  0x03, 0x00, 0x00, 0x00, 0x01, 0x00, 0x00, 0x00, 0x04, 0x00, 0x00, 0x00,
  0x46, 0xed, 0xff, 0xff, 0x0c, 0x00, 0x00, 0x00, 0x1c, 0x00, 0x00, 0x00,
  0x3c, 0x00, 0x00, 0x00, 0x0f, 0x00, 0x00, 0x00, 0x73, 0x65, 0x72, 0x76,
  0x69, 0x6e, 0x67, 0x5f, 0x64, 0x65, 0x66, 0x61, 0x75, 0x6c, 0x74, 0x00,
  0x01, 0x00, 0x00, 0x00, 0x04, 0x00, 0x00, 0x00, 0x68, 0xff, 0xff, 0xff,
  0x25, 0x00, 0x00, 0x00, 0x04, 0x00, 0x00, 0x00, 0x08, 0x00, 0x00, 0x00,
  0x6f, 0x75, 0x74, 0x70, 0x75, 0x74, 0x5f, 0x30, 0x00, 0x00, 0x00, 0x00,
  0x01, 0x00, 0x00, 0x00, 0x04, 0x00, 0x00, 0x00, 0xfa, 0xf0, 0xff, 0xff,
  0x04, 0x00, 0x00, 0x00, 0x0c, 0x00, 0x00, 0x00, 0x6b, 0x65, 0x72, 0x61,
  0x73, 0x5f, 0x74, 0x65, 0x6e, 0x73, 0x6f, 0x72, 0x00, 0x00, 0x00, 0x00,
  0x03, 0x00, 0x00, 0x00, 0x5c, 0x00, 0x00, 0x00, 0x2c, 0x00, 0x00, 0x00,
  0x04, 0x00, 0x00, 0x00, 0xb8, 0xff, 0xff, 0xff, 0x29, 0x00, 0x00, 0x00,
  0x04, 0x00, 0x00, 0x00, 0x13, 0x00, 0x00, 0x00, 0x43, 0x4f, 0x4e, 0x56,
  0x45, 0x52, 0x53, 0x49, 0x4f, 0x4e, 0x5f, 0x4d, 0x45, 0x54, 0x41, 0x44,
  0x41, 0x54, 0x41, 0x00, 0xdc, 0xff, 0xff, 0xff, 0x28, 0x00, 0x00, 0x00,
  0x04, 0x00, 0x00, 0x00, 0x13, 0x00, 0x00, 0x00, 0x6d, 0x69, 0x6e, 0x5f,
  0x72, 0x75, 0x6e, 0x74, 0x69, 0x6d, 0x65, 0x5f, 0x76, 0x65, 0x72, 0x73,
  0x69, 0x6f, 0x6e, 0x00, 0x08, 0x00, 0x0c, 0x00, 0x08, 0x00, 0x04, 0x00,
  0x08, 0x00, 0x00, 0x00, 0x27, 0x00, 0x00, 0x00, 0x04, 0x00, 0x00, 0x00,
  0x13, 0x00, 0x00, 0x00, 0x6d, 0x69, 0x6e, 0x5f, 0x72, 0x75, 0x6e, 0x74,
  0x69, 0x6d, 0x65, 0x5f, 0x76, 0x65, 0x72, 0x73, 0x69, 0x6f, 0x6e, 0x00,
  0x2a, 0x00, 0x00, 0x00, 0x9c, 0x0d, 0x00, 0x00, 0x94, 0x0d, 0x00, 0x00,
  0x80, 0x0d, 0x00, 0x00, 0x64, 0x0d, 0x00, 0x00, 0x50, 0x0d, 0x00, 0x00,
  0x34, 0x0d, 0x00, 0x00, 0x18, 0x0d, 0x00, 0x00, 0xfc, 0x0c, 0x00, 0x00,
  0xe0, 0x0c, 0x00, 0x00, 0xc4, 0x0c, 0x00, 0x00, 0xac, 0x0c, 0x00, 0x00,
  0x5c, 0x0c, 0x00, 0x00, 0xcc, 0x0b, 0x00, 0x00, 0xbc, 0x05, 0x00, 0x00,
  0x6c, 0x05, 0x00, 0x00, 0xdc, 0x02, 0x00, 0x00, 0xac, 0x02, 0x00, 0x00,
  0x5c, 0x01, 0x00, 0x00, 0x54, 0x01, 0x00, 0x00, 0x4c, 0x01, 0x00, 0x00,
  0x44, 0x01, 0x00, 0x00, 0x3c, 0x01, 0x00, 0x00, 0x34, 0x01, 0x00, 0x00,
  0x2c, 0x01, 0x00, 0x00, 0x24, 0x01, 0x00, 0x00, 0x1c, 0x01, 0x00, 0x00,
  0x14, 0x01, 0x00, 0x00, 0x0c, 0x01, 0x00, 0x00, 0x04, 0x01, 0x00, 0x00,
  0xfc, 0x00, 0x00, 0x00, 0xf4, 0x00, 0x00, 0x00, 0xec, 0x00, 0x00, 0x00,
  0xe4, 0x00, 0x00, 0x00, 0xdc, 0x00, 0x00, 0x00, 0xd4, 0x00, 0x00, 0x00,
  0xcc, 0x00, 0x00, 0x00, 0xc4, 0x00, 0x00, 0x00, 0xbc, 0x00, 0x00, 0x00,
  0xb4, 0x00, 0x00, 0x00, 0x94, 0x00, 0x00, 0x00, 0x74, 0x00, 0x00, 0x00,
  0x04, 0x00, 0x00, 0x00, 0x46, 0xf2, 0xff, 0xff, 0x04, 0x00, 0x00, 0x00,
  0x60, 0x00, 0x00, 0x00, 0x0c, 0x00, 0x00, 0x00, 0x08, 0x00, 0x0e, 0x00,
  0x08, 0x00, 0x04, 0x00, 0x08, 0x00, 0x00, 0x00, 0x10, 0x00, 0x00, 0x00,
  0x28, 0x00, 0x00, 0x00, 0x00, 0x00, 0x06, 0x00, 0x08, 0x00, 0x04, 0x00,
  0x06, 0x00, 0x00, 0x00, 0x04, 0x00, 0x00, 0x00, 0x01, 0x00, 0x00, 0x00,
  0xeb, 0x03, 0x00, 0x00, 0x0c, 0x00, 0x18, 0x00, 0x14, 0x00, 0x10, 0x00,
  0x0c, 0x00, 0x04, 0x00, 0x0c, 0x00, 0x00, 0x00, 0xb2, 0x88, 0x28, 0xdc,
  0x47, 0xec, 0x25, 0x50, 0x02, 0x00, 0x00, 0x00, 0x02, 0x00, 0x00, 0x00,
  0x04, 0x00, 0x00, 0x00, 0x06, 0x00, 0x00, 0x00, 0x32, 0x2e, 0x31, 0x39,
  0x2e, 0x30, 0x00, 0x00, 0xb2, 0xf2, 0xff, 0xff, 0x04, 0x00, 0x00, 0x00,
  0x10, 0x00, 0x00, 0x00, 0x00, 0x00, 0x00, 0x00, 0x00, 0x00, 0x00, 0x00,
  0x00, 0x00, 0x00, 0x00, 0x00, 0x00, 0x00, 0x00, 0xce, 0xf2, 0xff, 0xff,
  0x04, 0x00, 0x00, 0x00, 0x10, 0x00, 0x00, 0x00, 0x31, 0x2e, 0x31, 0x34,
  0x2e, 0x30, 0x00, 0x00, 0x00, 0x00, 0x00, 0x00, 0x00, 0x00, 0x00, 0x00,
  0x04, 0xd4, 0xff, 0xff, 0x08, 0xd4, 0xff, 0xff, 0x0c, 0xd4, 0xff, 0xff,
  0x10, 0xd4, 0xff, 0xff, 0x14, 0xd4, 0xff, 0xff, 0x18, 0xd4, 0xff, 0xff,
  0x1c, 0xd4, 0xff, 0xff, 0x20, 0xd4, 0xff, 0xff, 0x24, 0xd4, 0xff, 0xff,
  0x28, 0xd4, 0xff, 0xff, 0x2c, 0xd4, 0xff, 0xff, 0x30, 0xd4, 0xff, 0xff,
  0x34, 0xd4, 0xff, 0xff, 0x38, 0xd4, 0xff, 0xff, 0x3c, 0xd4, 0xff, 0xff,
  0x40, 0xd4, 0xff, 0xff, 0x44, 0xd4, 0xff, 0xff, 0x48, 0xd4, 0xff, 0xff,
  0x4c, 0xd4, 0xff, 0xff, 0x50, 0xd4, 0xff, 0xff, 0x54, 0xd4, 0xff, 0xff,
  0x3e, 0xf3, 0xff, 0xff, 0x04, 0x00, 0x00, 0x00, 0x40, 0x01, 0x00, 0x00,
  0x8b, 0xcf, 0x17, 0x0d, 0x81, 0xe3, 0x3e, 0x2a, 0xb1, 0x41, 0x1e, 0xca,
  0x9f, 0xaa, 0x13, 0x44, 0x34, 0xf3, 0xdd, 0xec, 0x27, 0x2d, 0xe2, 0xdf,
  0x6f, 0x10, 0xf9, 0x5b, 0x68, 0x2b, 0x0d, 0xd6, 0x01, 0x26, 0xe0, 0x0f,
  0x30, 0xe4, 0xc9, 0xc1, 0x1b, 0xba, 0x24, 0xcd, 0x1d, 0xc3, 0x0a, 0xe6,
  0xd6, 0xdc, 0xcb, 0x13, 0xe1, 0xec, 0xe8, 0x0f, 0xdd, 0xe2, 0x29, 0x2b,
  0xfe, 0x20, 0xf6, 0xf7, 0xe2, 0xe5, 0x32, 0xc5, 0x27, 0x04, 0xce, 0xf5,
  0x31, 0xff, 0xe1, 0xd4, 0x3d, 0x81, 0xd6, 0x17, 0xf6, 0xa4, 0x05, 0x56,
  0x36, 0xe9, 0x81, 0xd2, 0x6e, 0x18, 0x43, 0xad, 0xf9, 0x38, 0x2f, 0x41,
  0xc7, 0x9e, 0xa1, 0xbf, 0x50, 0x09, 0x0a, 0x22, 0xcc, 0xbf, 0xc9, 0x5c,
  0xa6, 0xf8, 0x16, 0xcd, 0x25, 0x1c, 0x2d, 0xa4, 0xae, 0x5b, 0x41, 0xd9,
  0x7f, 0x11, 0x06, 0x2e, 0x40, 0xf0, 0x0e, 0xf2, 0x38, 0xd3, 0x3d, 0xc4,
  0x07, 0x0a, 0xb9, 0x00, 0x3e, 0x43, 0xe5, 0x14, 0x26, 0xcc, 0xe9, 0xf7,
  0x19, 0x05, 0x10, 0x22, 0x08, 0xe6, 0x1e, 0x25, 0x09, 0x57, 0xe6, 0xe4,
  0xe7, 0xf2, 0x1e, 0x05, 0xa7, 0xfa, 0x03, 0x81, 0x3c, 0xcb, 0x09, 0xc4,
  0xeb, 0xf7, 0x26, 0x05, 0x02, 0x19, 0xcd, 0x17, 0x0c, 0xbd, 0x00, 0xb2,
  0x34, 0x0a, 0x0d, 0x9d, 0x36, 0xf2, 0xd5, 0x26, 0xe3, 0xc6, 0xfc, 0xfc,
  0x3e, 0xc2, 0xe1, 0x11, 0x33, 0x04, 0xb5, 0xb2, 0x92, 0xea, 0x57, 0x3f,
  0x31, 0x42, 0x45, 0xe1, 0x0c, 0xd1, 0xd7, 0xe8, 0x1d, 0xe7, 0x9c, 0x3c,
  0xcd, 0x07, 0x4a, 0xdd, 0x9f, 0xc1, 0xf9, 0xbe, 0x8b, 0x31, 0xc6, 0x5c,
  0x81, 0x24, 0xd9, 0xb0, 0x98, 0x11, 0x0e, 0x4d, 0x81, 0xe4, 0x48, 0xdf,
  0x29, 0xdc, 0x8e, 0x4d, 0x89, 0x31, 0xdf, 0xa8, 0x20, 0x44, 0xae, 0x64,
  0xe0, 0xdd, 0x44, 0xce, 0xfd, 0x72, 0x02, 0xec, 0x53, 0x30, 0xf5, 0x83,
  0xa4, 0x48, 0x87, 0xd1, 0x14, 0xa5, 0x33, 0x16, 0x55, 0x0c, 0x8c, 0x6f,
  0x7f, 0x6f, 0xd9, 0x8d, 0x7f, 0xf9, 0xfa, 0x1f, 0x49, 0x07, 0x0e, 0xd8,
  0x45, 0xff, 0xfc, 0xde, 0x10, 0xe1, 0xd2, 0x0e, 0x48, 0x1d, 0x50, 0xfb,
  0x22, 0xff, 0xca, 0xd5, 0xa5, 0xd3, 0x22, 0x41, 0xe5, 0x39, 0x04, 0x06,
  0xe3, 0xd9, 0xed, 0xcb, 0x9c, 0xed, 0xdc, 0x20, 0x8a, 0xf4, 0xff, 0xff,
  0x04, 0x00, 0x00, 0x00, 0x20, 0x00, 0x00, 0x00, 0xe8, 0x00, 0x00, 0x00,
  0xf9, 0x00, 0x00, 0x00, 0xc6, 0xff, 0xff, 0xff, 0x5b, 0x01, 0x00, 0x00,
  0xfc, 0x00, 0x00, 0x00, 0x73, 0x00, 0x00, 0x00, 0xea, 0xfe, 0xff, 0xff,
  0x0e, 0x00, 0x00, 0x00, 0xb6, 0xf4, 0xff, 0xff, 0x04, 0x00, 0x00, 0x00,
  0x80, 0x02, 0x00, 0x00, 0xeb, 0x92, 0x4b, 0xd3, 0xfa, 0xad, 0xc2, 0xfe,
  0x13, 0x3e, 0x20, 0x3c, 0x42, 0x91, 0x2c, 0xfe, 0xdb, 0xd7, 0xb8, 0xd7,
  0xe4, 0xf6, 0x28, 0x15, 0x37, 0xff, 0x17, 0x06, 0xbe, 0x2d, 0xc0, 0xeb,
  0x05, 0x30, 0x36, 0x33, 0x7f, 0x87, 0x13, 0x10, 0x27, 0x0b, 0xe5, 0x53,
  0x34, 0x13, 0x45, 0x0c, 0xf2, 0x24, 0xbd, 0xe7, 0xd3, 0x81, 0x18, 0xdf,
  0x3a, 0x2c, 0x01, 0x37, 0x25, 0xb7, 0x24, 0xce, 0xd1, 0x56, 0x3d, 0xde,
  0xe5, 0x83, 0xf2, 0xe4, 0x56, 0x29, 0x43, 0x1c, 0xa8, 0xaf, 0xf9, 0x10,
  0xb3, 0xdf, 0x14, 0xbc, 0x50, 0x81, 0x1e, 0xdc, 0x3b, 0x28, 0x27, 0x9a,
  0x05, 0x8a, 0xd2, 0x17, 0x01, 0x05, 0xe3, 0x89, 0x40, 0x4b, 0x0c, 0x30,
  0xd6, 0xe4, 0x2e, 0x89, 0xbe, 0xf5, 0xdd, 0x93, 0x62, 0x09, 0x09, 0x51,
  0xd3, 0xd5, 0x46, 0xc1, 0x17, 0x16, 0x81, 0xc1, 0x63, 0xa0, 0xff, 0x18,
  0x41, 0xea, 0xbf, 0xdf, 0xe4, 0xad, 0xd5, 0x34, 0x10, 0x0d, 0xb5, 0xbf,
  0x0c, 0x56, 0x0a, 0x3f, 0xc3, 0xec, 0xa1, 0x61, 0xa5, 0xfe, 0x75, 0xc1,
  0x58, 0x5d, 0x03, 0xfa, 0x4f, 0xfc, 0xf6, 0x89, 0x01, 0x30, 0xd7, 0x0c,
  0xfb, 0x81, 0xf7, 0x6d, 0x13, 0x38, 0x43, 0x20, 0x20, 0xc8, 0x22, 0xb6,
  0xfb, 0x30, 0xe8, 0x24, 0xec, 0xc4, 0xed, 0x9c, 0xd6, 0x1d, 0xbc, 0xde,
  0x18, 0x96, 0xe1, 0xba, 0x6a, 0xd4, 0xc8, 0xbb, 0x03, 0xdb, 0x2a, 0xde,
  0xf0, 0x18, 0xeb, 0x32, 0x29, 0x0a, 0xae, 0xf9, 0x0f, 0xca, 0xdf, 0x7f,
  0x3c, 0xe9, 0x2e, 0x03, 0xbb, 0x18, 0x07, 0x56, 0x57, 0xd8, 0xef, 0x65,
  0xc2, 0x17, 0x2a, 0x2e, 0xaa, 0xe3, 0x49, 0x32, 0x09, 0xd4, 0xf9, 0xdf,
  0x59, 0xfb, 0x1f, 0xc1, 0xfa, 0x4c, 0xd8, 0xa7, 0x0d, 0xeb, 0x01, 0x81,
  0xcc, 0x37, 0x1b, 0x91, 0xda, 0x91, 0x32, 0xeb, 0xd3, 0x26, 0xe9, 0x03,
  0xe9, 0x10, 0x4d, 0xc8, 0x98, 0x37, 0xe0, 0x40, 0x11, 0x45, 0xf9, 0x51,
  0xe8, 0xed, 0x01, 0xba, 0xe3, 0x7b, 0x36, 0x34, 0x2c, 0xda, 0x24, 0x81,
  0xee, 0x35, 0x23, 0xa2, 0x22, 0xe1, 0xd6, 0xa3, 0x3e, 0x9c, 0xe4, 0xce,
  0x00, 0xe6, 0x33, 0xb7, 0x17, 0x26, 0xdd, 0xb9, 0xdd, 0x22, 0xdc, 0x44,
  0xf8, 0xe8, 0x0a, 0xfc, 0xdb, 0xfa, 0x28, 0x2c, 0xea, 0x66, 0x1c, 0x26,
  0x09, 0x1f, 0x3b, 0x42, 0x16, 0xf7, 0x0b, 0x42, 0x05, 0xff, 0xe4, 0x14,
  0xdd, 0xc8, 0x2f, 0xf0, 0xfe, 0xf1, 0x18, 0x23, 0x39, 0x13, 0xef, 0x01,
  0xd9, 0xca, 0x42, 0x67, 0x31, 0x06, 0x09, 0x62, 0xfe, 0xbd, 0x2a, 0x2b,
  0x28, 0xd8, 0xc3, 0x7f, 0x0e, 0x19, 0xfe, 0x45, 0x16, 0x7f, 0x03, 0x0d,
  0xe0, 0xf4, 0xe3, 0xea, 0xd1, 0x14, 0xc6, 0x24, 0xd3, 0xb4, 0x1b, 0x1d,
  0x22, 0xde, 0xe1, 0xf5, 0xdd, 0xe1, 0x28, 0xc3, 0x1b, 0x28, 0x32, 0xff,
  0xda, 0xe2, 0xf9, 0xf9, 0xe9, 0xfb, 0xa3, 0x5c, 0x8b, 0x47, 0x58, 0x07,
  0x47, 0x7f, 0xfa, 0x64, 0x47, 0x2a, 0xc9, 0xe5, 0x13, 0xb3, 0xc3, 0x66,
  0x06, 0xed, 0xd9, 0x64, 0x13, 0x72, 0xa0, 0xed, 0x15, 0x15, 0x15, 0x27,
  0x05, 0x10, 0x0d, 0x20, 0xf3, 0x6f, 0x31, 0xc9, 0x01, 0x6c, 0xa5, 0x2b,
  0x3d, 0xdc, 0xb1, 0x19, 0xf2, 0x28, 0x0c, 0xe1, 0x0a, 0x2a, 0xe3, 0x32,
  0x95, 0x35, 0x09, 0x29, 0x81, 0x97, 0xc1, 0xfd, 0x07, 0xdd, 0xbe, 0xf0,
  0x16, 0x3f, 0x02, 0xe5, 0x54, 0xff, 0x1a, 0xe5, 0x19, 0xf6, 0x8d, 0xbd,
  0x38, 0xe4, 0xe8, 0x01, 0x51, 0xff, 0x02, 0x59, 0xd9, 0x53, 0xfd, 0x09,
  0xf6, 0xcd, 0x48, 0x0e, 0xce, 0x9f, 0x13, 0x3e, 0x10, 0xca, 0x5e, 0x81,
  0xbf, 0x3f, 0xc2, 0xe0, 0xcf, 0x17, 0x24, 0x83, 0x57, 0x24, 0xbc, 0xc3,
  0xc1, 0x36, 0xe0, 0xa9, 0xf9, 0x41, 0x2e, 0xb2, 0x46, 0x2c, 0xee, 0xd4,
  0xef, 0x12, 0x2f, 0xaa, 0xd4, 0x16, 0xee, 0x33, 0x0a, 0x91, 0x17, 0xb5,
  0xeb, 0x10, 0xe8, 0xed, 0xf7, 0xa0, 0x15, 0x2a, 0xa9, 0x24, 0x00, 0x3c,
  0x20, 0x81, 0xca, 0x3d, 0x2a, 0xbd, 0x01, 0xa4, 0x0d, 0xa8, 0xcf, 0xb2,
  0x25, 0x02, 0xf8, 0x13, 0xb2, 0x45, 0x0a, 0x7b, 0x31, 0x63, 0xcb, 0xee,
  0xe7, 0x6f, 0x38, 0x60, 0xf3, 0xea, 0x51, 0x47, 0xc4, 0x25, 0x3c, 0xb3,
  0x05, 0x55, 0x83, 0x17, 0x55, 0x81, 0xc4, 0xf1, 0x44, 0x89, 0xda, 0x4c,
  0x06, 0xb3, 0xc7, 0x23, 0xa2, 0xe8, 0x04, 0xe5, 0xd2, 0xbd, 0x22, 0x81,
  0xd5, 0x26, 0xc3, 0xa2, 0xda, 0x42, 0x40, 0x14, 0xe9, 0x16, 0x3d, 0xc0,
  0xdc, 0x1a, 0x43, 0x5a, 0x10, 0xd5, 0x12, 0x1c, 0x07, 0xdd, 0x18, 0xdc,
  0xbe, 0xf6, 0x0a, 0xb1, 0xce, 0x4a, 0x1a, 0x07, 0x42, 0xf7, 0xff, 0xff,
  0x04, 0x00, 0x00, 0x00, 0x40, 0x00, 0x00, 0x00, 0x1f, 0x02, 0x00, 0x00,
  0xae, 0xfb, 0xff, 0xff, 0x15, 0x12, 0x00, 0x00, 0x36, 0x08, 0x00, 0x00,
  0xc1, 0x10, 0x00, 0x00, 0x99, 0xef, 0xff, 0xff, 0x47, 0x0a, 0x00, 0x00,
  0x1c, 0x0e, 0x00, 0x00, 0x9d, 0xe3, 0xff, 0xff, 0x81, 0xff, 0xff, 0xff,
  0x6e, 0xda, 0xff, 0xff, 0x46, 0x0d, 0x00, 0x00, 0x89, 0x07, 0x00, 0x00,
  0x1c, 0x1c, 0x00, 0x00, 0xbc, 0xed, 0xff, 0xff, 0x03, 0x10, 0x00, 0x00,
  0x8e, 0xf7, 0xff, 0xff, 0x04, 0x00, 0x00, 0x00, 0x00, 0x06, 0x00, 0x00,
  0xc6, 0x57, 0xb5, 0xd6, 0xdc, 0x08, 0x66, 0x60, 0x51, 0xc1, 0xf2, 0x05,
  0xcb, 0xce, 0x11, 0xd3, 0xe9, 0x43, 0x8c, 0xbb, 0x15, 0xf6, 0x25, 0x38,
  0x00, 0xbb, 0xe1, 0xd7, 0x05, 0x23, 0x07, 0x46, 0xfa, 0xec, 0x98, 0xb0,
  0x51, 0xe0, 0x11, 0x1b, 0xff, 0xb2, 0xd5, 0xde, 0xc7, 0x7f, 0x0c, 0xed,
  0x1d, 0x30, 0xb4, 0xee, 0xde, 0xe3, 0x4d, 0x51, 0xe7, 0xd5, 0x2d, 0xbf,
  0x93, 0xfa, 0x53, 0x25, 0xd6, 0x35, 0xcf, 0xbc, 0xce, 0x34, 0x42, 0x27,
  0xe3, 0xdf, 0xd9, 0xf7, 0xdf, 0xde, 0x08, 0x2e, 0x36, 0x3d, 0xa7, 0xb4,
  0x03, 0x24, 0x05, 0x1e, 0x84, 0xd1, 0xea, 0xe7, 0x81, 0x55, 0xfe, 0x0b,
  0x33, 0x0d, 0xc4, 0xc4, 0x6e, 0xfe, 0xcd, 0xaa, 0xd0, 0xb9, 0xa1, 0xc5,
  0xdb, 0xb5, 0x01, 0x46, 0xf5, 0x34, 0xf1, 0xc0, 0x08, 0xf9, 0x25, 0xed,
  0xe5, 0xf5, 0x40, 0xe8, 0xbd, 0xe3, 0x36, 0x60, 0xd0, 0xc7, 0xe4, 0xe2,
  0x19, 0x3c, 0x7f, 0x23, 0xe6, 0xb2, 0xf6, 0xff, 0x24, 0xa5, 0x2e, 0x14,
  0xc7, 0x5b, 0xc6, 0xd5, 0xc0, 0x11, 0x3b, 0x5a, 0x1b, 0xc5, 0x18, 0xfc,
  0xc7, 0x18, 0xe9, 0xf4, 0x14, 0x20, 0x95, 0xb7, 0xfa, 0x1a, 0x2f, 0x14,
  0xb6, 0xd5, 0x18, 0xc9, 0xf6, 0x58, 0x3a, 0x38, 0x12, 0x34, 0x81, 0xa6,
  0x38, 0xb1, 0x2d, 0x02, 0xd7, 0xcc, 0xc2, 0xbe, 0xd3, 0x78, 0x27, 0xdd,
  0xec, 0x6d, 0xbb, 0x9c, 0x9c, 0x47, 0x7f, 0x47, 0x03, 0xcb, 0x10, 0xee,
  0xaa, 0xc9, 0x4c, 0x38, 0xa0, 0xd8, 0xa0, 0x83, 0x49, 0xde, 0x5b, 0x2f,
  0x11, 0xee, 0xa6, 0xf1, 0xd2, 0x4b, 0xf8, 0x19, 0x49, 0x75, 0x85, 0x89,
  0x48, 0xd0, 0x14, 0xdb, 0xb5, 0xae, 0x0e, 0xc4, 0xab, 0x57, 0x21, 0xd0,
  0x0a, 0xef, 0xce, 0xd8, 0xdc, 0x19, 0x5d, 0x5d, 0xe7, 0xf6, 0x11, 0xbd,
  0xe5, 0x47, 0x41, 0xf1, 0xe7, 0x04, 0xd5, 0x9d, 0xf1, 0x0b, 0x1f, 0xef,
  0x0c, 0xaa, 0xd4, 0x00, 0xea, 0x20, 0x2d, 0x4d, 0x34, 0x32, 0x92, 0x88,
  0x40, 0xdc, 0x1f, 0x04, 0x97, 0xf0, 0x15, 0xd4, 0xa7, 0x7f, 0x19, 0x16,
  0x56, 0xfb, 0xb0, 0xde, 0x01, 0x31, 0x0c, 0x16, 0xcb, 0xe0, 0xd2, 0xb2,
  0xcb, 0xb3, 0x49, 0x5c, 0x03, 0xf2, 0xea, 0xe3, 0xc8, 0xe3, 0x62, 0x48,
  0x2d, 0xda, 0xe5, 0xca, 0xf0, 0x54, 0xe8, 0x5e, 0xf7, 0x1c, 0xb8, 0xbd,
  0xf0, 0xdd, 0x3c, 0xe1, 0xd6, 0x81, 0xd2, 0x04, 0xcd, 0x02, 0x4f, 0xae,
  0x37, 0x37, 0xd6, 0xb5, 0x5d, 0xaa, 0xf9, 0x9b, 0xe1, 0xf9, 0xe3, 0xe8,
  0x81, 0x04, 0x29, 0x6c, 0xd8, 0xea, 0xbe, 0xbf, 0xfc, 0x1b, 0x21, 0x21,
  0xed, 0x96, 0x41, 0xe8, 0x90, 0xcc, 0x6a, 0x48, 0xf1, 0xdd, 0x26, 0xcc,
  0xbd, 0x12, 0x47, 0x44, 0xe2, 0xa6, 0x0a, 0xf7, 0x0a, 0xd7, 0x22, 0x58,
  0xdb, 0x0e, 0xbe, 0xba, 0xf4, 0x55, 0x4a, 0x7d, 0xff, 0xc5, 0x07, 0xef,
  0xb4, 0xfe, 0x26, 0x1e, 0xc8, 0x2e, 0xb3, 0x9f, 0x3c, 0xd6, 0x36, 0x04,
  0xc4, 0x01, 0xe0, 0xc2, 0xf1, 0x2b, 0x48, 0x33, 0x29, 0x21, 0x9c, 0x8d,
  0x34, 0x05, 0x11, 0xf9, 0xc5, 0xc1, 0x0b, 0xd4, 0xc4, 0x7f, 0x03, 0xf1,
  0x31, 0xdb, 0xe2, 0x90, 0x7f, 0xb7, 0xf4, 0xae, 0xb7, 0xe9, 0xe5, 0xf4,
  0xbf, 0x02, 0x4f, 0x54, 0x00, 0xf7, 0xdc, 0x9d, 0x41, 0xc1, 0x02, 0xde,
  0x14, 0xd7, 0x24, 0xe1, 0xb4, 0xf0, 0x5d, 0x38, 0xe9, 0x22, 0x15, 0xb9,
  0xe8, 0x12, 0x55, 0x30, 0xf3, 0xb0, 0x09, 0x13, 0x0c, 0xab, 0x27, 0x33,
  0x36, 0xf0, 0x5b, 0x43, 0x13, 0x0a, 0x82, 0xc0, 0x4f, 0x14, 0x41, 0x34,
  0x3d, 0xfe, 0x86, 0xb3, 0x34, 0xc0, 0x68, 0x4a, 0x32, 0x3e, 0x81, 0xf2,
  0x05, 0x0c, 0x96, 0x4b, 0xee, 0xc3, 0xfb, 0x57, 0x60, 0xd6, 0x2d, 0x2e,
  0xd2, 0xce, 0xd3, 0xfa, 0x15, 0x0e, 0x00, 0x3d, 0xfd, 0x52, 0x2b, 0xb1,
  0x3b, 0x10, 0xdf, 0x93, 0x48, 0xc3, 0x02, 0x86, 0xa0, 0x13, 0xe4, 0xe9,
  0xd6, 0x52, 0x3d, 0x30, 0x21, 0xf0, 0xa7, 0x8a, 0x46, 0xc9, 0x19, 0xf9,
  0x10, 0xb3, 0x30, 0xff, 0x81, 0xd3, 0x55, 0x5e, 0xc8, 0xfd, 0x0b, 0xbd,
  0xf0, 0xd2, 0x57, 0x39, 0x30, 0xaa, 0x26, 0x16, 0x03, 0xd1, 0x0e, 0x6c,
  0x5d, 0x26, 0x7f, 0x11, 0xf7, 0xf3, 0xc4, 0xb4, 0x07, 0x16, 0xf6, 0x1f,
  0x3c, 0x03, 0xc3, 0xec, 0x53, 0x42, 0x31, 0x42, 0xf0, 0xe3, 0xd9, 0xca,
  0xcd, 0x3b, 0xd2, 0x63, 0x20, 0x14, 0xfc, 0xf1, 0xe9, 0xfd, 0xe0, 0x17,
  0xb7, 0xee, 0xc5, 0xf9, 0x0b, 0x19, 0xf6, 0xfb, 0xf9, 0x0f, 0xdd, 0xc9,
  0x42, 0x39, 0x09, 0x29, 0xe9, 0xf5, 0xc0, 0xad, 0x23, 0x40, 0xee, 0x20,
  0x44, 0x19, 0xbc, 0xb3, 0x02, 0xf8, 0x7f, 0x42, 0x04, 0xff, 0xa4, 0xee,
  0x27, 0xf9, 0xd2, 0x4b, 0x15, 0x05, 0xc7, 0x1e, 0x20, 0x36, 0x3b, 0x36,
  0x07, 0xc8, 0xb0, 0x15, 0x30, 0x23, 0xfb, 0x17, 0xe1, 0x46, 0x04, 0xd3,
  0xdb, 0x39, 0xea, 0xb9, 0xcb, 0x5e, 0x3f, 0x61, 0xe2, 0xc8, 0xf6, 0xe9,
  0xb3, 0x06, 0x2d, 0x22, 0xce, 0xf0, 0xd1, 0x81, 0x02, 0x3c, 0x3d, 0x18,
  0xac, 0xb9, 0x08, 0xe9, 0xe1, 0x31, 0x40, 0x14, 0x18, 0x47, 0xb0, 0x8e,
  0x39, 0xf1, 0x13, 0x0b, 0xa8, 0xe8, 0x03, 0xd4, 0xb1, 0x6e, 0x21, 0xed,
  0xe2, 0x47, 0x7b, 0x2b, 0x81, 0x24, 0x18, 0x42, 0xb7, 0x05, 0xf3, 0x36,
  0xef, 0x44, 0xe4, 0x9b, 0x29, 0x74, 0x11, 0x53, 0xee, 0xb1, 0x9d, 0xf9,
  0x0d, 0x69, 0x0a, 0x0d, 0x5d, 0xcd, 0xbb, 0x0f, 0x28, 0x04, 0x7c, 0x1e,
  0x13, 0x32, 0xb7, 0x11, 0xd9, 0x0f, 0xc0, 0x74, 0x62, 0xc5, 0xc3, 0xd6,
  0x10, 0x42, 0xb1, 0xb5, 0xf3, 0x52, 0x57, 0x08, 0xe5, 0xd7, 0xef, 0xfb,
  0xd6, 0x41, 0x24, 0x1e, 0xfe, 0x56, 0xa1, 0x81, 0x0e, 0xb9, 0x20, 0x0b,
  0xbe, 0xca, 0xec, 0x09, 0xa1, 0x0c, 0x41, 0x3d, 0x27, 0x2f, 0xb6, 0x91,
  0x23, 0xd4, 0xfa, 0xfe, 0xb5, 0xe6, 0x22, 0xf3, 0xc6, 0x6f, 0x11, 0x3e,
  0xde, 0xec, 0xd4, 0xcc, 0x05, 0xfe, 0x27, 0x62, 0x0b, 0xdb, 0x05, 0xcd,
  0xbb, 0x56, 0x0b, 0x2e, 0xc7, 0x52, 0xcf, 0xa9, 0xf8, 0xd8, 0x24, 0x04,
  0xfd, 0xb1, 0x1e, 0xee, 0xdb, 0xec, 0x3e, 0x09, 0x1d, 0xfa, 0xcc, 0xb6,
  0x09, 0xe8, 0x2a, 0xf7, 0xc2, 0xf0, 0xfe, 0xe8, 0xaa, 0x7f, 0x1c, 0x15,
  0x21, 0xef, 0xce, 0xc0, 0x6a, 0xc0, 0xff, 0x81, 0x87, 0xae, 0x07, 0xa7,
  0x9f, 0x04, 0x4f, 0x0e, 0xe1, 0xf6, 0xda, 0x9c, 0x4d, 0x02, 0x2c, 0x09,
  0x0d, 0xe5, 0x4d, 0xc6, 0xab, 0xd5, 0x5b, 0x70, 0xe3, 0xed, 0x05, 0xc7,
  0xe4, 0x31, 0x66, 0x20, 0xff, 0xae, 0xa5, 0xc7, 0x3c, 0xfe, 0x40, 0x50,
  0xfd, 0x49, 0x49, 0x21, 0x05, 0x11, 0xb3, 0x01, 0x2c, 0x0c, 0xe2, 0xf0,
  0x22, 0xf5, 0xb1, 0xe4, 0x13, 0x04, 0x7f, 0x6d, 0xf1, 0x40, 0xc0, 0xb4,
  0xdb, 0x1a, 0xe6, 0x36, 0xf9, 0xf3, 0xd2, 0xd9, 0x26, 0x1c, 0x3d, 0x3d,
  0xec, 0x0a, 0x9b, 0x09, 0x0b, 0xf8, 0xd3, 0x5c, 0x6d, 0x23, 0x00, 0xb9,
  0xe0, 0xd9, 0xca, 0xa8, 0xc6, 0x4f, 0x72, 0x38, 0x14, 0xd2, 0xfb, 0xc5,
  0xf7, 0x43, 0x40, 0x10, 0xeb, 0x34, 0xab, 0x8c, 0x32, 0xe3, 0x2c, 0x00,
  0x93, 0x05, 0xd6, 0xcd, 0xc6, 0x5e, 0x54, 0x32, 0x2d, 0xd7, 0xa6, 0x87,
  0x69, 0x16, 0xfc, 0xfd, 0x8f, 0xaf, 0x3c, 0xc3, 0x88, 0x7f, 0x36, 0x43,
  0x26, 0xef, 0x05, 0x36, 0x17, 0x15, 0xc1, 0xbc, 0x00, 0x2a, 0x13, 0xf4,
  0xff, 0x2e, 0xc5, 0xfd, 0xec, 0x3a, 0x35, 0x5f, 0x3c, 0x42, 0x93, 0x0f,
  0xdd, 0x13, 0xc8, 0x2b, 0x41, 0xd1, 0xc0, 0x04, 0x4b, 0x03, 0x29, 0x02,
  0x1f, 0xe4, 0xe0, 0x1b, 0x2f, 0x05, 0xc7, 0x47, 0x28, 0x02, 0x00, 0x81,
  0x11, 0x35, 0xab, 0xda, 0xf3, 0x45, 0x3a, 0x6c, 0xcf, 0xde, 0x14, 0xc2,
  0xb3, 0x00, 0x2c, 0x25, 0xee, 0x13, 0xb8, 0x87, 0x30, 0x0f, 0x38, 0x33,
  0xdb, 0xc4, 0xc2, 0x08, 0xd2, 0x06, 0x03, 0x08, 0x25, 0x39, 0x94, 0x81,
  0x33, 0xdd, 0x21, 0x12, 0x9d, 0xdc, 0xfb, 0xd7, 0xcd, 0x77, 0x44, 0x01,
  0x53, 0x69, 0x4e, 0x39, 0x07, 0x27, 0x81, 0xa7, 0x07, 0xfa, 0x14, 0x3b,
  0x5e, 0x0c, 0x90, 0x91, 0x67, 0xda, 0x6b, 0x5e, 0xf9, 0xed, 0xd6, 0x10,
  0xfa, 0x62, 0xdc, 0x21, 0xf3, 0x09, 0xd8, 0xe1, 0x74, 0x18, 0xda, 0x34,
  0xe5, 0x0f, 0xa4, 0x63, 0xd7, 0x36, 0x99, 0x4f, 0x07, 0x72, 0xdc, 0xec,
  0xd9, 0x01, 0xc7, 0xca, 0xdd, 0xee, 0x2b, 0x7f, 0xfa, 0xd7, 0x35, 0xd0,
  0x82, 0xc5, 0x45, 0x53, 0xfa, 0xec, 0xeb, 0xa9, 0xe3, 0x22, 0x51, 0xf7,
  0xee, 0x81, 0x32, 0xfd, 0x0f, 0x61, 0x22, 0x3d, 0x05, 0xf0, 0x96, 0xb2,
  0x1e, 0x04, 0x12, 0xdc, 0xd5, 0x9b, 0xf1, 0xfe, 0x88, 0x4a, 0x4b, 0xca,
  0x15, 0xea, 0x16, 0x39, 0xc8, 0x09, 0xfe, 0x4b, 0x00, 0x0c, 0xdb, 0x25,
  0x18, 0x00, 0xf5, 0xe3, 0x03, 0x1e, 0x10, 0x1c, 0xdc, 0xc2, 0xeb, 0xe3,
  0x05, 0x19, 0x0a, 0x08, 0x10, 0xfe, 0xd1, 0xd7, 0x29, 0x10, 0x7f, 0x28,
  0xd6, 0xed, 0xde, 0x02, 0xef, 0x1f, 0x0f, 0x1d, 0x13, 0xda, 0xf0, 0x03,
  0x2d, 0xed, 0x2f, 0x48, 0x28, 0xe9, 0xcd, 0xcb, 0x19, 0x13, 0xf1, 0x35,
  0x21, 0xcd, 0xc2, 0xf9, 0x5e, 0x40, 0x59, 0x2e, 0x1e, 0xb6, 0xcf, 0xf0,
  0x12, 0x2f, 0xd6, 0x36, 0x7f, 0x03, 0xd4, 0xbb, 0x38, 0x1c, 0x00, 0x0f,
  0xd9, 0xe7, 0xb8, 0xf0, 0xfa, 0x39, 0xc9, 0x37, 0x1c, 0x1d, 0xbf, 0xd8,
  0xdf, 0x36, 0xd5, 0xe6, 0xcc, 0x5a, 0x5a, 0x69, 0x1b, 0xac, 0xe3, 0xdf,
  0xe9, 0xf6, 0x08, 0x16, 0x0c, 0x5f, 0xd9, 0x99, 0xdd, 0xe2, 0x1a, 0xee,
  0xcb, 0xe4, 0xd4, 0xfd, 0xe2, 0x09, 0x1a, 0x36, 0xc9, 0xfd, 0x8d, 0x9a,
  0x4e, 0x15, 0x19, 0x18, 0xed, 0xcf, 0x08, 0xf0, 0x81, 0x5d, 0x03, 0x23,
  0xf4, 0x22, 0xeb, 0xf2, 0x10, 0xb6, 0x40, 0xef, 0x17, 0xc4, 0xbb, 0xcb,
  0xbe, 0xc3, 0x2b, 0x49, 0xf7, 0xee, 0xc7, 0xda, 0xba, 0x42, 0x79, 0xfd,
  0x1e, 0xd5, 0xfc, 0xa6, 0xfe, 0xfb, 0x2f, 0xfd, 0x10, 0x1f, 0xe4, 0xb9,
  0xb9, 0xf6, 0x2a, 0x47, 0xda, 0x81, 0xb1, 0x0a, 0xc2, 0x29, 0xf6, 0xfb,
  0x1f, 0x48, 0x46, 0x1c, 0x0e, 0x1c, 0xb0, 0xb9, 0x21, 0xfe, 0x18, 0x47,
  0x1e, 0xff, 0xc1, 0xbb, 0x0f, 0xe5, 0x7f, 0x2d, 0xe9, 0x0a, 0xf7, 0xfb,
  0x0a, 0x07, 0xd8, 0x58, 0x1f, 0xfe, 0x15, 0xd8, 0x4e, 0xe7, 0xe3, 0x00,
  0x09, 0x01, 0xe0, 0x06, 0x09, 0x0e, 0xc5, 0x3b, 0x25, 0x3b, 0xdf, 0xc5,
  0x35, 0x24, 0x37, 0x39, 0xca, 0xe7, 0x0e, 0x59, 0xe8, 0x0f, 0xd8, 0xf9,
  0x2b, 0xfa, 0x11, 0xbf, 0x08, 0x0a, 0x09, 0x20, 0xc0, 0xd7, 0xcf, 0x00,
  0xdd, 0x21, 0x01, 0x0f, 0x1c, 0x03, 0xd8, 0x08, 0xe9, 0x21, 0x7f, 0x2b,
  0x0a, 0x16, 0xda, 0xf0, 0xf3, 0x36, 0xf9, 0x20, 0x31, 0xd7, 0xbd, 0xf7,
  0xab, 0x06, 0xab, 0xd0, 0xf6, 0x24, 0x6f, 0x49, 0x22, 0xb0, 0x1d, 0xf2,
  0xca, 0xec, 0x41, 0x1f, 0x21, 0xcd, 0xba, 0x8b, 0x1b, 0xb4, 0x1e, 0x07,
  0xde, 0x07, 0x1b, 0xcf, 0xa8, 0x75, 0x24, 0x3c, 0x2d, 0x2f, 0x98, 0x81,
  0x3e, 0xd4, 0x0b, 0xfc, 0x96, 0xa7, 0x05, 0xb6, 0x92, 0x74, 0x4f, 0x12,
  0x9a, 0xfd, 0xff, 0xff, 0x04, 0x00, 0x00, 0x00, 0x80, 0x00, 0x00, 0x00,
  0x0e, 0x08, 0x00, 0x00, 0x12, 0x10, 0x00, 0x00, 0x5e, 0x19, 0x00, 0x00,
  0x67, 0x0b, 0x00, 0x00, 0x49, 0x19, 0x00, 0x00, 0x26, 0x05, 0x00, 0x00,
  0x33, 0x12, 0x00, 0x00, 0x04, 0x19, 0x00, 0x00, 0xff, 0x0a, 0x00, 0x00,
  0x6c, 0x15, 0x00, 0x00, 0x51, 0xe9, 0xff, 0xff, 0x6c, 0x12, 0x00, 0x00,
  0x6f, 0xf9, 0xff, 0xff, 0xfb, 0xea, 0xff, 0xff, 0x3b, 0x0f, 0x00, 0x00,
  0xab, 0xe0, 0xff, 0xff, 0xda, 0x0e, 0x00, 0x00, 0xe0, 0x0b, 0x00, 0x00,
  0xcc, 0x1b, 0x00, 0x00, 0xd8, 0xec, 0xff, 0xff, 0x6f, 0x0a, 0x00, 0x00,
  0x19, 0xec, 0xff, 0xff, 0xc7, 0x0b, 0x00, 0x00, 0xe6, 0xd8, 0xff, 0xff,
  0xac, 0x13, 0x00, 0x00, 0xc2, 0xf2, 0xff, 0xff, 0x51, 0xec, 0xff, 0xff,
  0xf7, 0x0d, 0x00, 0x00, 0x5c, 0x1b, 0x00, 0x00, 0x0d, 0xe9, 0xff, 0xff,
  0x58, 0xee, 0xff, 0xff, 0x26, 0x15, 0x00, 0x00, 0x26, 0xfe, 0xff, 0xff,
  0x04, 0x00, 0x00, 0x00, 0x40, 0x00, 0x00, 0x00, 0x47, 0x36, 0x0d, 0x59,
  0x21, 0xcd, 0x54, 0xd8, 0xff, 0x30, 0xee, 0x23, 0xe0, 0x3a, 0x1e, 0xba,
  0x75, 0x2f, 0x02, 0xa2, 0x03, 0xa2, 0x69, 0xb7, 0x21, 0x81, 0xa3, 0x3f,
  0x60, 0x8b, 0xe0, 0x71, 0xaf, 0xaa, 0xb1, 0xed, 0xc9, 0x82, 0xf6, 0xa9,
  0x8b, 0xde, 0x60, 0xc3, 0x61, 0x7f, 0xb1, 0x39, 0x11, 0xa9, 0xc5, 0x25,
  0xa9, 0x2e, 0xf7, 0x3a, 0xb9, 0xfb, 0x43, 0xb2, 0x1b, 0x08, 0x51, 0xf9,
  0x72, 0xfe, 0xff, 0xff, 0x04, 0x00, 0x00, 0x00, 0x08, 0x00, 0x00, 0x00,
  0x12, 0xf8, 0xff, 0xff, 0x6a, 0x06, 0x00, 0x00, 0x86, 0xfe, 0xff, 0xff,
  0x04, 0x00, 0x00, 0x00, 0x0c, 0x00, 0x00, 0x00, 0xff, 0xff, 0xff, 0xff,
  0x1f, 0x00, 0x00, 0x00, 0x20, 0x00, 0x00, 0x00, 0x9e, 0xfe, 0xff, 0xff,
  0x04, 0x00, 0x00, 0x00, 0x0c, 0x00, 0x00, 0x00, 0xff, 0xff, 0xff, 0xff,
  0x3e, 0x00, 0x00, 0x00, 0x20, 0x00, 0x00, 0x00, 0xb6, 0xfe, 0xff, 0xff,
  0x04, 0x00, 0x00, 0x00, 0x0c, 0x00, 0x00, 0x00, 0xff, 0xff, 0xff, 0xff,
  0x3e, 0x00, 0x00, 0x00, 0x10, 0x00, 0x00, 0x00, 0xce, 0xfe, 0xff, 0xff,
  0x04, 0x00, 0x00, 0x00, 0x0c, 0x00, 0x00, 0x00, 0xff, 0xff, 0xff, 0xff,
  0xfa, 0x00, 0x00, 0x00, 0x10, 0x00, 0x00, 0x00, 0xe6, 0xfe, 0xff, 0xff,
  0x04, 0x00, 0x00, 0x00, 0x0c, 0x00, 0x00, 0x00, 0xff, 0xff, 0xff, 0xff,
  0xfa, 0x00, 0x00, 0x00, 0x08, 0x00, 0x00, 0x00, 0xfe, 0xfe, 0xff, 0xff,
  0x04, 0x00, 0x00, 0x00, 0x04, 0x00, 0x00, 0x00, 0x01, 0x00, 0x00, 0x00,
  0x0e, 0xff, 0xff, 0xff, 0x04, 0x00, 0x00, 0x00, 0x0c, 0x00, 0x00, 0x00,
  0xff, 0xff, 0xff, 0xff, 0xe8, 0x03, 0x00, 0x00, 0x08, 0x00, 0x00, 0x00,
  0x26, 0xff, 0xff, 0xff, 0x04, 0x00, 0x00, 0x00, 0x04, 0x00, 0x00, 0x00,
  0xfd, 0xff, 0xff, 0xff, 0x50, 0xe0, 0xff, 0xff, 0x54, 0xe0, 0xff, 0xff,
  0x0f, 0x00, 0x00, 0x00, 0x4d, 0x4c, 0x49, 0x52, 0x20, 0x43, 0x6f, 0x6e,
  0x76, 0x65, 0x72, 0x74, 0x65, 0x64, 0x2e, 0x00, 0x01, 0x00, 0x00, 0x00,
  0x14, 0x00, 0x00, 0x00, 0x00, 0x00, 0x0e, 0x00, 0x18, 0x00, 0x14, 0x00,
  0x10, 0x00, 0x0c, 0x00, 0x08, 0x00, 0x04, 0x00, 0x0e, 0x00, 0x00, 0x00,
  0x14, 0x00, 0x00, 0x00, 0x1c, 0x00, 0x00, 0x00, 0xb4, 0x04, 0x00, 0x00,
  0xb8, 0x04, 0x00, 0x00, 0xbc, 0x04, 0x00, 0x00, 0x04, 0x00, 0x00, 0x00,
  0x6d, 0x61, 0x69, 0x6e, 0x00, 0x00, 0x00, 0x00, 0x15, 0x00, 0x00, 0x00,
  0x6c, 0x04, 0x00, 0x00, 0x0c, 0x04, 0x00, 0x00, 0xd4, 0x03, 0x00, 0x00,
  0x98, 0x03, 0x00, 0x00, 0x44, 0x03, 0x00, 0x00, 0x1c, 0x03, 0x00, 0x00,
  0xec, 0x02, 0x00, 0x00, 0xa8, 0x02, 0x00, 0x00, 0x80, 0x02, 0x00, 0x00,
  0x50, 0x02, 0x00, 0x00, 0x0c, 0x02, 0x00, 0x00, 0xe4, 0x01, 0x00, 0x00,
  0xb4, 0x01, 0x00, 0x00, 0x70, 0x01, 0x00, 0x00, 0x48, 0x01, 0x00, 0x00,
  0x18, 0x01, 0x00, 0x00, 0xd4, 0x00, 0x00, 0x00, 0xac, 0x00, 0x00, 0x00,
  0x78, 0x00, 0x00, 0x00, 0x40, 0x00, 0x00, 0x00, 0x04, 0x00, 0x00, 0x00,
  0x52, 0xfc, 0xff, 0xff, 0x1c, 0x00, 0x00, 0x00, 0x00, 0x00, 0x00, 0x09,
  0x1c, 0x00, 0x00, 0x00, 0x20, 0x00, 0x00, 0x00, 0x06, 0x00, 0x00, 0x00,
  0x00, 0x00, 0x06, 0x00, 0x08, 0x00, 0x04, 0x00, 0x06, 0x00, 0x00, 0x00,
  0x00, 0x00, 0x80, 0x3f, 0x01, 0x00, 0x00, 0x00, 0x25, 0x00, 0x00, 0x00,
  0x01, 0x00, 0x00, 0x00, 0x24, 0x00, 0x00, 0x00, 0x8a, 0xfc, 0xff, 0xff,
  0x14, 0x00, 0x00, 0x00, 0x00, 0x00, 0x00, 0x08, 0x10, 0x00, 0x00, 0x00,
  0x14, 0x00, 0x00, 0x00, 0x05, 0x00, 0x00, 0x00, 0x50, 0xe1, 0xff, 0xff,
  0x01, 0x00, 0x00, 0x00, 0x24, 0x00, 0x00, 0x00, 0x03, 0x00, 0x00, 0x00,
  0x23, 0x00, 0x00, 0x00, 0x0a, 0x00, 0x00, 0x00, 0x09, 0x00, 0x00, 0x00,
  0xbe, 0xfc, 0xff, 0xff, 0x14, 0x00, 0x00, 0x00, 0x00, 0x00, 0x00, 0x1b,
  0x10, 0x00, 0x00, 0x00, 0x14, 0x00, 0x00, 0x00, 0x04, 0x00, 0x00, 0x00,
  0x84, 0xe1, 0xff, 0xff, 0x01, 0x00, 0x00, 0x00, 0x23, 0x00, 0x00, 0x00,
  0x02, 0x00, 0x00, 0x00, 0x22, 0x00, 0x00, 0x00, 0x03, 0x00, 0x00, 0x00,
  0x1e, 0xfd, 0xff, 0xff, 0x0c, 0x00, 0x00, 0x00, 0x10, 0x00, 0x00, 0x00,
  0x02, 0x00, 0x00, 0x00, 0x01, 0x00, 0x00, 0x00, 0x22, 0x00, 0x00, 0x00,
  0x02, 0x00, 0x00, 0x00, 0x21, 0x00, 0x00, 0x00, 0x08, 0x00, 0x00, 0x00,
  0x12, 0xfd, 0xff, 0xff, 0x14, 0x00, 0x00, 0x00, 0x00, 0x00, 0x00, 0x05,
  0x24, 0x00, 0x00, 0x00, 0x28, 0x00, 0x00, 0x00, 0x03, 0x00, 0x00, 0x00,
  0xbe, 0xfd, 0xff, 0xff, 0x01, 0x00, 0x00, 0x00, 0x02, 0x00, 0x00, 0x00,
  0x01, 0x00, 0x00, 0x00, 0x02, 0x00, 0x00, 0x00, 0x00, 0x00, 0x00, 0x01,
  0x01, 0x00, 0x00, 0x00, 0x21, 0x00, 0x00, 0x00, 0x01, 0x00, 0x00, 0x00,
  0x20, 0x00, 0x00, 0x00, 0xf6, 0xfc, 0xff, 0xff, 0x10, 0x00, 0x00, 0x00,
  0x00, 0x00, 0x00, 0x34, 0x0c, 0x00, 0x00, 0x00, 0x10, 0x00, 0x00, 0x00,
  0x14, 0xe2, 0xff, 0xff, 0x01, 0x00, 0x00, 0x00, 0x20, 0x00, 0x00, 0x00,
  0x02, 0x00, 0x00, 0x00, 0x1f, 0x00, 0x00, 0x00, 0x03, 0x00, 0x00, 0x00,
  0xae, 0xfd, 0xff, 0xff, 0x0c, 0x00, 0x00, 0x00, 0x10, 0x00, 0x00, 0x00,
  0x02, 0x00, 0x00, 0x00, 0x01, 0x00, 0x00, 0x00, 0x1f, 0x00, 0x00, 0x00,
  0x02, 0x00, 0x00, 0x00, 0x1e, 0x00, 0x00, 0x00, 0x07, 0x00, 0x00, 0x00,
  0xa2, 0xfd, 0xff, 0xff, 0x14, 0x00, 0x00, 0x00, 0x00, 0x00, 0x00, 0x01,
  0x1c, 0x00, 0x00, 0x00, 0x20, 0x00, 0x00, 0x00, 0x01, 0x00, 0x00, 0x00,
  0x94, 0xfd, 0xff, 0xff, 0x00, 0x00, 0x00, 0x01, 0x01, 0x00, 0x00, 0x00,
  0x01, 0x00, 0x00, 0x00, 0x01, 0x00, 0x00, 0x00, 0x1e, 0x00, 0x00, 0x00,
  0x03, 0x00, 0x00, 0x00, 0x1d, 0x00, 0x00, 0x00, 0x0c, 0x00, 0x00, 0x00,
  0x0b, 0x00, 0x00, 0x00, 0x86, 0xfd, 0xff, 0xff, 0x10, 0x00, 0x00, 0x00,
  0x00, 0x00, 0x00, 0x34, 0x0c, 0x00, 0x00, 0x00, 0x10, 0x00, 0x00, 0x00,
  0xa4, 0xe2, 0xff, 0xff, 0x01, 0x00, 0x00, 0x00, 0x1d, 0x00, 0x00, 0x00,
  0x02, 0x00, 0x00, 0x00, 0x1c, 0x00, 0x00, 0x00, 0x01, 0x00, 0x00, 0x00,
  0x3e, 0xfe, 0xff, 0xff, 0x0c, 0x00, 0x00, 0x00, 0x10, 0x00, 0x00, 0x00,
  0x02, 0x00, 0x00, 0x00, 0x01, 0x00, 0x00, 0x00, 0x1c, 0x00, 0x00, 0x00,
  0x02, 0x00, 0x00, 0x00, 0x1b, 0x00, 0x00, 0x00, 0x06, 0x00, 0x00, 0x00,
  0x32, 0xfe, 0xff, 0xff, 0x14, 0x00, 0x00, 0x00, 0x00, 0x00, 0x00, 0x05,
  0x24, 0x00, 0x00, 0x00, 0x28, 0x00, 0x00, 0x00, 0x03, 0x00, 0x00, 0x00,
  0xde, 0xfe, 0xff, 0xff, 0x01, 0x00, 0x00, 0x00, 0x04, 0x00, 0x00, 0x00,
  0x01, 0x00, 0x00, 0x00, 0x04, 0x00, 0x00, 0x00, 0x00, 0x00, 0x00, 0x01,
  0x01, 0x00, 0x00, 0x00, 0x1b, 0x00, 0x00, 0x00, 0x01, 0x00, 0x00, 0x00,
  0x1a, 0x00, 0x00, 0x00, 0x16, 0xfe, 0xff, 0xff, 0x10, 0x00, 0x00, 0x00,
  0x00, 0x00, 0x00, 0x34, 0x0c, 0x00, 0x00, 0x00, 0x10, 0x00, 0x00, 0x00,
  0x34, 0xe3, 0xff, 0xff, 0x01, 0x00, 0x00, 0x00, 0x1a, 0x00, 0x00, 0x00,
  0x02, 0x00, 0x00, 0x00, 0x19, 0x00, 0x00, 0x00, 0x03, 0x00, 0x00, 0x00,
  0xce, 0xfe, 0xff, 0xff, 0x0c, 0x00, 0x00, 0x00, 0x10, 0x00, 0x00, 0x00,
  0x02, 0x00, 0x00, 0x00, 0x01, 0x00, 0x00, 0x00, 0x19, 0x00, 0x00, 0x00,
  0x02, 0x00, 0x00, 0x00, 0x18, 0x00, 0x00, 0x00, 0x05, 0x00, 0x00, 0x00,
  0xc2, 0xfe, 0xff, 0xff, 0x14, 0x00, 0x00, 0x00, 0x00, 0x00, 0x00, 0x01,
  0x1c, 0x00, 0x00, 0x00, 0x20, 0x00, 0x00, 0x00, 0x01, 0x00, 0x00, 0x00,
  0xb4, 0xfe, 0xff, 0xff, 0x00, 0x00, 0x00, 0x01, 0x01, 0x00, 0x00, 0x00,
  0x01, 0x00, 0x00, 0x00, 0x01, 0x00, 0x00, 0x00, 0x18, 0x00, 0x00, 0x00,
  0x03, 0x00, 0x00, 0x00, 0x17, 0x00, 0x00, 0x00, 0x0e, 0x00, 0x00, 0x00,
  0x0d, 0x00, 0x00, 0x00, 0xa6, 0xfe, 0xff, 0xff, 0x10, 0x00, 0x00, 0x00,
  0x00, 0x00, 0x00, 0x34, 0x0c, 0x00, 0x00, 0x00, 0x10, 0x00, 0x00, 0x00,
  0xc4, 0xe3, 0xff, 0xff, 0x01, 0x00, 0x00, 0x00, 0x17, 0x00, 0x00, 0x00,
  0x02, 0x00, 0x00, 0x00, 0x16, 0x00, 0x00, 0x00, 0x01, 0x00, 0x00, 0x00,
  0x5e, 0xff, 0xff, 0xff, 0x0c, 0x00, 0x00, 0x00, 0x10, 0x00, 0x00, 0x00,
  0x02, 0x00, 0x00, 0x00, 0x01, 0x00, 0x00, 0x00, 0x16, 0x00, 0x00, 0x00,
  0x02, 0x00, 0x00, 0x00, 0x15, 0x00, 0x00, 0x00, 0x04, 0x00, 0x00, 0x00,
  0x52, 0xff, 0xff, 0xff, 0x24, 0x00, 0x00, 0x00, 0x00, 0x00, 0x00, 0x05,
  0x34, 0x00, 0x00, 0x00, 0x38, 0x00, 0x00, 0x00, 0x03, 0x00, 0x00, 0x00,
  0x00, 0x00, 0x0e, 0x00, 0x18, 0x00, 0x17, 0x00, 0x10, 0x00, 0x0c, 0x00,
  0x08, 0x00, 0x04, 0x00, 0x0e, 0x00, 0x00, 0x00, 0x01, 0x00, 0x00, 0x00,
  0x04, 0x00, 0x00, 0x00, 0x01, 0x00, 0x00, 0x00, 0x04, 0x00, 0x00, 0x00,
  0x00, 0x00, 0x00, 0x01, 0x01, 0x00, 0x00, 0x00, 0x15, 0x00, 0x00, 0x00,
  0x01, 0x00, 0x00, 0x00, 0x14, 0x00, 0x00, 0x00, 0x46, 0xff, 0xff, 0xff,
  0x10, 0x00, 0x00, 0x00, 0x00, 0x00, 0x00, 0x34, 0x0c, 0x00, 0x00, 0x00,
  0x10, 0x00, 0x00, 0x00, 0x64, 0xe4, 0xff, 0xff, 0x01, 0x00, 0x00, 0x00,
  0x14, 0x00, 0x00, 0x00, 0x02, 0x00, 0x00, 0x00, 0x13, 0x00, 0x00, 0x00,
  0x03, 0x00, 0x00, 0x00, 0x00, 0x00, 0x0a, 0x00, 0x10, 0x00, 0x0c, 0x00,
  0x08, 0x00, 0x04, 0x00, 0x0a, 0x00, 0x00, 0x00, 0x0c, 0x00, 0x00, 0x00,
  0x10, 0x00, 0x00, 0x00, 0x02, 0x00, 0x00, 0x00, 0x01, 0x00, 0x00, 0x00,
  0x13, 0x00, 0x00, 0x00, 0x02, 0x00, 0x00, 0x00, 0x12, 0x00, 0x00, 0x00,
  0x02, 0x00, 0x00, 0x00, 0x00, 0x00, 0x0e, 0x00, 0x18, 0x00, 0x14, 0x00,
  0x10, 0x00, 0x0c, 0x00, 0x0b, 0x00, 0x04, 0x00, 0x0e, 0x00, 0x00, 0x00,
  0x20, 0x00, 0x00, 0x00, 0x00, 0x00, 0x00, 0x01, 0x28, 0x00, 0x00, 0x00,
  0x2c, 0x00, 0x00, 0x00, 0x01, 0x00, 0x00, 0x00, 0x0c, 0x00, 0x10, 0x00,
  0x00, 0x00, 0x0c, 0x00, 0x08, 0x00, 0x07, 0x00, 0x0c, 0x00, 0x00, 0x00,
  0x00, 0x00, 0x00, 0x01, 0x01, 0x00, 0x00, 0x00, 0x01, 0x00, 0x00, 0x00,
  0x01, 0x00, 0x00, 0x00, 0x12, 0x00, 0x00, 0x00, 0x03, 0x00, 0x00, 0x00,
  0x11, 0x00, 0x00, 0x00, 0x10, 0x00, 0x00, 0x00, 0x0f, 0x00, 0x00, 0x00,
  0x00, 0x00, 0x0e, 0x00, 0x14, 0x00, 0x00, 0x00, 0x10, 0x00, 0x0c, 0x00,
  0x0b, 0x00, 0x04, 0x00, 0x0e, 0x00, 0x00, 0x00, 0x10, 0x00, 0x00, 0x00,
  0x00, 0x00, 0x00, 0x34, 0x0c, 0x00, 0x00, 0x00, 0x10, 0x00, 0x00, 0x00,
  0x2c, 0xe5, 0xff, 0xff, 0x01, 0x00, 0x00, 0x00, 0x11, 0x00, 0x00, 0x00,
  0x02, 0x00, 0x00, 0x00, 0x00, 0x00, 0x00, 0x00, 0x01, 0x00, 0x00, 0x00,
  0x01, 0x00, 0x00, 0x00, 0x25, 0x00, 0x00, 0x00, 0x01, 0x00, 0x00, 0x00,
  0x00, 0x00, 0x00, 0x00, 0x26, 0x00, 0x00, 0x00, 0xe0, 0x1a, 0x00, 0x00,
  0x88, 0x1a, 0x00, 0x00, 0x30, 0x1a, 0x00, 0x00, 0xf4, 0x19, 0x00, 0x00,
  0xb4, 0x19, 0x00, 0x00, 0x74, 0x19, 0x00, 0x00, 0x34, 0x19, 0x00, 0x00,
  0xf4, 0x18, 0x00, 0x00, 0xb4, 0x18, 0x00, 0x00, 0x44, 0x18, 0x00, 0x00,
  0xd0, 0x17, 0x00, 0x00, 0xfc, 0x15, 0x00, 0x00, 0x18, 0x14, 0x00, 0x00,
  0x04, 0x13, 0x00, 0x00, 0xe0, 0x11, 0x00, 0x00, 0x2c, 0x11, 0x00, 0x00,
  0x68, 0x10, 0x00, 0x00, 0xc4, 0x0f, 0x00, 0x00, 0x80, 0x0e, 0x00, 0x00,
  0x68, 0x0d, 0x00, 0x00, 0xc0, 0x0c, 0x00, 0x00, 0x24, 0x0c, 0x00, 0x00,
  0x8c, 0x0b, 0x00, 0x00, 0xec, 0x0a, 0x00, 0x00, 0xa0, 0x09, 0x00, 0x00,
  0x80, 0x08, 0x00, 0x00, 0xd8, 0x07, 0x00, 0x00, 0x3c, 0x07, 0x00, 0x00,
  0x9c, 0x06, 0x00, 0x00, 0xfc, 0x05, 0x00, 0x00, 0xb0, 0x04, 0x00, 0x00,
  0x90, 0x03, 0x00, 0x00, 0xe8, 0x02, 0x00, 0x00, 0x4c, 0x02, 0x00, 0x00,
  0xac, 0x01, 0x00, 0x00, 0x1c, 0x01, 0x00, 0x00, 0x80, 0x00, 0x00, 0x00,
  0x04, 0x00, 0x00, 0x00, 0xce, 0xe5, 0xff, 0xff, 0x00, 0x00, 0x00, 0x01,
  0x18, 0x00, 0x00, 0x00, 0x20, 0x00, 0x00, 0x00, 0x3c, 0x00, 0x00, 0x00,
  0x26, 0x00, 0x00, 0x00, 0x00, 0x00, 0x00, 0x09, 0x50, 0x00, 0x00, 0x00,
  0x02, 0x00, 0x00, 0x00, 0xff, 0xff, 0xff, 0xff, 0x02, 0x00, 0x00, 0x00,
  0xb4, 0xe5, 0xff, 0xff, 0x08, 0x00, 0x00, 0x00, 0x10, 0x00, 0x00, 0x00,
  0x01, 0x00, 0x00, 0x00, 0x80, 0xff, 0xff, 0xff, 0xff, 0xff, 0xff, 0xff,
  0x01, 0x00, 0x00, 0x00, 0x00, 0x00, 0x80, 0x3b, 0x1b, 0x00, 0x00, 0x00,
  0x53, 0x74, 0x61, 0x74, 0x65, 0x66, 0x75, 0x6c, 0x50, 0x61, 0x72, 0x74,
  0x69, 0x74, 0x69, 0x6f, 0x6e, 0x65, 0x64, 0x43, 0x61, 0x6c, 0x6c, 0x5f,
  0x31, 0x3a, 0x30, 0x00, 0x02, 0x00, 0x00, 0x00, 0x01, 0x00, 0x00, 0x00,
  0x02, 0x00, 0x00, 0x00, 0x46, 0xe6, 0xff, 0xff, 0x00, 0x00, 0x00, 0x01,
  0x18, 0x00, 0x00, 0x00, 0x20, 0x00, 0x00, 0x00, 0x3c, 0x00, 0x00, 0x00,
  0x25, 0x00, 0x00, 0x00, 0x00, 0x00, 0x00, 0x09, 0x70, 0x00, 0x00, 0x00,
  0x02, 0x00, 0x00, 0x00, 0xff, 0xff, 0xff, 0xff, 0x02, 0x00, 0x00, 0x00,
  0x2c, 0xe6, 0xff, 0xff, 0x08, 0x00, 0x00, 0x00, 0x10, 0x00, 0x00, 0x00,
  0x01, 0x00, 0x00, 0x00, 0x1c, 0x00, 0x00, 0x00, 0x00, 0x00, 0x00, 0x00,
  0x01, 0x00, 0x00, 0x00, 0x52, 0x2b, 0x13, 0x3d, 0x38, 0x00, 0x00, 0x00,
  0x73, 0x65, 0x71, 0x75, 0x65, 0x6e, 0x74, 0x69, 0x61, 0x6c, 0x5f, 0x31,
  0x2f, 0x64, 0x65, 0x6e, 0x73, 0x65, 0x5f, 0x31, 0x2f, 0x4d, 0x61, 0x74,
  0x4d, 0x75, 0x6c, 0x3b, 0x73, 0x65, 0x71, 0x75, 0x65, 0x6e, 0x74, 0x69,
  0x61, 0x6c, 0x5f, 0x31, 0x2f, 0x64, 0x65, 0x6e, 0x73, 0x65, 0x5f, 0x31,
  0x2f, 0x42, 0x69, 0x61, 0x73, 0x41, 0x64, 0x64, 0x00, 0x00, 0x00, 0x00,
  0x02, 0x00, 0x00, 0x00, 0x01, 0x00, 0x00, 0x00, 0x02, 0x00, 0x00, 0x00,
  0xde, 0xe6, 0xff, 0xff, 0x00, 0x00, 0x00, 0x01, 0x18, 0x00, 0x00, 0x00,
  0x20, 0x00, 0x00, 0x00, 0x3c, 0x00, 0x00, 0x00, 0x24, 0x00, 0x00, 0x00,
  0x00, 0x00, 0x00, 0x09, 0x64, 0x00, 0x00, 0x00, 0x02, 0x00, 0x00, 0x00,
  0xff, 0xff, 0xff, 0xff, 0x20, 0x00, 0x00, 0x00, 0xc4, 0xe6, 0xff, 0xff,
  0x08, 0x00, 0x00, 0x00, 0x10, 0x00, 0x00, 0x00, 0x01, 0x00, 0x00, 0x00,
  0x80, 0xff, 0xff, 0xff, 0xff, 0xff, 0xff, 0xff, 0x01, 0x00, 0x00, 0x00,
  0xbc, 0x03, 0x0c, 0x3c, 0x2c, 0x00, 0x00, 0x00, 0x73, 0x65, 0x71, 0x75,
  0x65, 0x6e, 0x74, 0x69, 0x61, 0x6c, 0x5f, 0x31, 0x2f, 0x67, 0x6c, 0x6f,
  0x62, 0x61, 0x6c, 0x5f, 0x61, 0x76, 0x65, 0x72, 0x61, 0x67, 0x65, 0x5f,
  0x70, 0x6f, 0x6f, 0x6c, 0x69, 0x6e, 0x67, 0x31, 0x64, 0x5f, 0x31, 0x2f,
  0x4d, 0x65, 0x61, 0x6e, 0x00, 0x00, 0x00, 0x00, 0x02, 0x00, 0x00, 0x00,
  0x01, 0x00, 0x00, 0x00, 0x20, 0x00, 0x00, 0x00, 0x6a, 0xe7, 0xff, 0xff,
  0x00, 0x00, 0x00, 0x01, 0x18, 0x00, 0x00, 0x00, 0x24, 0x00, 0x00, 0x00,
  0x44, 0x00, 0x00, 0x00, 0x23, 0x00, 0x00, 0x00, 0x00, 0x00, 0x00, 0x09,
  0x70, 0x00, 0x00, 0x00, 0x03, 0x00, 0x00, 0x00, 0xff, 0xff, 0xff, 0xff,
  0x1f, 0x00, 0x00, 0x00, 0x20, 0x00, 0x00, 0x00, 0x54, 0xe7, 0xff, 0xff,
  0x08, 0x00, 0x00, 0x00, 0x14, 0x00, 0x00, 0x00, 0x01, 0x00, 0x00, 0x00,
  0x80, 0xff, 0xff, 0xff, 0xff, 0xff, 0xff, 0xff, 0x00, 0x00, 0x00, 0x00,
  0x01, 0x00, 0x00, 0x00, 0x6f, 0x52, 0x23, 0x3d, 0x30, 0x00, 0x00, 0x00,
  0x73, 0x65, 0x71, 0x75, 0x65, 0x6e, 0x74, 0x69, 0x61, 0x6c, 0x5f, 0x31,
  0x2f, 0x6d, 0x61, 0x78, 0x5f, 0x70, 0x6f, 0x6f, 0x6c, 0x69, 0x6e, 0x67,
  0x31, 0x64, 0x5f, 0x32, 0x5f, 0x31, 0x2f, 0x4d, 0x61, 0x78, 0x50, 0x6f,
  0x6f, 0x6c, 0x31, 0x64, 0x2f, 0x53, 0x71, 0x75, 0x65, 0x65, 0x7a, 0x65,
  0x00, 0x00, 0x00, 0x00, 0x03, 0x00, 0x00, 0x00, 0x01, 0x00, 0x00, 0x00,
  0x1f, 0x00, 0x00, 0x00, 0x20, 0x00, 0x00, 0x00, 0x06, 0xe8, 0xff, 0xff,
  0x00, 0x00, 0x00, 0x01, 0x18, 0x00, 0x00, 0x00, 0x28, 0x00, 0x00, 0x00,
  0x44, 0x00, 0x00, 0x00, 0x22, 0x00, 0x00, 0x00, 0x00, 0x00, 0x00, 0x09,
  0x68, 0x00, 0x00, 0x00, 0x04, 0x00, 0x00, 0x00, 0xff, 0xff, 0xff, 0xff,
  0x01, 0x00, 0x00, 0x00, 0x1f, 0x00, 0x00, 0x00, 0x20, 0x00, 0x00, 0x00,
  0xf4, 0xe7, 0xff, 0xff, 0x08, 0x00, 0x00, 0x00, 0x10, 0x00, 0x00, 0x00,
  0x01, 0x00, 0x00, 0x00, 0x80, 0xff, 0xff, 0xff, 0xff, 0xff, 0xff, 0xff,
  0x01, 0x00, 0x00, 0x00, 0x6f, 0x52, 0x23, 0x3d, 0x28, 0x00, 0x00, 0x00,
  0x73, 0x65, 0x71, 0x75, 0x65, 0x6e, 0x74, 0x69, 0x61, 0x6c, 0x5f, 0x31,
  0x2f, 0x6d, 0x61, 0x78, 0x5f, 0x70, 0x6f, 0x6f, 0x6c, 0x69, 0x6e, 0x67,
  0x31, 0x64, 0x5f, 0x32, 0x5f, 0x31, 0x2f, 0x4d, 0x61, 0x78, 0x50, 0x6f,
  0x6f, 0x6c, 0x31, 0x64, 0x00, 0x00, 0x00, 0x00, 0x04, 0x00, 0x00, 0x00,
  0x01, 0x00, 0x00, 0x00, 0x01, 0x00, 0x00, 0x00, 0x1f, 0x00, 0x00, 0x00,
  0x20, 0x00, 0x00, 0x00, 0x9e, 0xe8, 0xff, 0xff, 0x00, 0x00, 0x00, 0x01,
  0x18, 0x00, 0x00, 0x00, 0x28, 0x00, 0x00, 0x00, 0x48, 0x00, 0x00, 0x00,
  0x21, 0x00, 0x00, 0x00, 0x00, 0x00, 0x00, 0x09, 0x74, 0x00, 0x00, 0x00,
  0x04, 0x00, 0x00, 0x00, 0xff, 0xff, 0xff, 0xff, 0x01, 0x00, 0x00, 0x00,
  0x3e, 0x00, 0x00, 0x00, 0x20, 0x00, 0x00, 0x00, 0x8c, 0xe8, 0xff, 0xff,
  0x08, 0x00, 0x00, 0x00, 0x14, 0x00, 0x00, 0x00, 0x01, 0x00, 0x00, 0x00,
  0x80, 0xff, 0xff, 0xff, 0xff, 0xff, 0xff, 0xff, 0x00, 0x00, 0x00, 0x00,
  0x01, 0x00, 0x00, 0x00, 0x6f, 0x52, 0x23, 0x3d, 0x33, 0x00, 0x00, 0x00,
  0x73, 0x65, 0x71, 0x75, 0x65, 0x6e, 0x74, 0x69, 0x61, 0x6c, 0x5f, 0x31,
  0x2f, 0x6d, 0x61, 0x78, 0x5f, 0x70, 0x6f, 0x6f, 0x6c, 0x69, 0x6e, 0x67,
  0x31, 0x64, 0x5f, 0x32, 0x5f, 0x31, 0x2f, 0x4d, 0x61, 0x78, 0x50, 0x6f,
  0x6f, 0x6c, 0x31, 0x64, 0x2f, 0x45, 0x78, 0x70, 0x61, 0x6e, 0x64, 0x44,
  0x69, 0x6d, 0x73, 0x00, 0x04, 0x00, 0x00, 0x00, 0x01, 0x00, 0x00, 0x00,
  0x01, 0x00, 0x00, 0x00, 0x3e, 0x00, 0x00, 0x00, 0x20, 0x00, 0x00, 0x00,
  0x42, 0xe9, 0xff, 0xff, 0x00, 0x00, 0x00, 0x01, 0x18, 0x00, 0x00, 0x00,
  0x24, 0x00, 0x00, 0x00, 0x40, 0x00, 0x00, 0x00, 0x20, 0x00, 0x00, 0x00,
  0x00, 0x00, 0x00, 0x09, 0xf0, 0x00, 0x00, 0x00, 0x03, 0x00, 0x00, 0x00,
  0xff, 0xff, 0xff, 0xff, 0x3e, 0x00, 0x00, 0x00, 0x20, 0x00, 0x00, 0x00,
  0x2c, 0xe9, 0xff, 0xff, 0x08, 0x00, 0x00, 0x00, 0x10, 0x00, 0x00, 0x00,
  0x01, 0x00, 0x00, 0x00, 0x80, 0xff, 0xff, 0xff, 0xff, 0xff, 0xff, 0xff,
  0x01, 0x00, 0x00, 0x00, 0x6f, 0x52, 0x23, 0x3d, 0xb7, 0x00, 0x00, 0x00,
  0x73, 0x65, 0x71, 0x75, 0x65, 0x6e, 0x74, 0x69, 0x61, 0x6c, 0x5f, 0x31,
  0x2f, 0x61, 0x63, 0x74, 0x69, 0x76, 0x61, 0x74, 0x69, 0x6f, 0x6e, 0x5f,
  0x32, 0x5f, 0x31, 0x2f, 0x52, 0x65, 0x6c, 0x75, 0x3b, 0x73, 0x65, 0x71,
  0x75, 0x65, 0x6e, 0x74, 0x69, 0x61, 0x6c, 0x5f, 0x31, 0x2f, 0x62, 0x61,
  0x74, 0x63, 0x68, 0x5f, 0x6e, 0x6f, 0x72, 0x6d, 0x61, 0x6c, 0x69, 0x7a,
  0x61, 0x74, 0x69, 0x6f, 0x6e, 0x5f, 0x32, 0x5f, 0x31, 0x2f, 0x62, 0x61,
  0x74, 0x63, 0x68, 0x6e, 0x6f, 0x72, 0x6d, 0x2f, 0x61, 0x64, 0x64, 0x5f,
  0x31, 0x3b, 0x73, 0x65, 0x71, 0x75, 0x65, 0x6e, 0x74, 0x69, 0x61, 0x6c,
  0x5f, 0x31, 0x2f, 0x63, 0x6f, 0x6e, 0x76, 0x31, 0x64, 0x5f, 0x32, 0x5f,
  0x31, 0x2f, 0x63, 0x6f, 0x6e, 0x76, 0x6f, 0x6c, 0x75, 0x74, 0x69, 0x6f,
  0x6e, 0x2f, 0x53, 0x71, 0x75, 0x65, 0x65, 0x7a, 0x65, 0x3b, 0x73, 0x65,
  0x71, 0x75, 0x65, 0x6e, 0x74, 0x69, 0x61, 0x6c, 0x5f, 0x31, 0x2f, 0x62,
  0x61, 0x74, 0x63, 0x68, 0x5f, 0x6e, 0x6f, 0x72, 0x6d, 0x61, 0x6c, 0x69,
  0x7a, 0x61, 0x74, 0x69, 0x6f, 0x6e, 0x5f, 0x32, 0x5f, 0x31, 0x2f, 0x62,
  0x61, 0x74, 0x63, 0x68, 0x6e, 0x6f, 0x72, 0x6d, 0x2f, 0x6d, 0x75, 0x6c,
  0x5f, 0x31, 0x3b, 0x00, 0x03, 0x00, 0x00, 0x00, 0x01, 0x00, 0x00, 0x00,
  0x3e, 0x00, 0x00, 0x00, 0x20, 0x00, 0x00, 0x00, 0x5e, 0xea, 0xff, 0xff,
  0x00, 0x00, 0x00, 0x01, 0x18, 0x00, 0x00, 0x00, 0x28, 0x00, 0x00, 0x00,
  0x44, 0x00, 0x00, 0x00, 0x1f, 0x00, 0x00, 0x00, 0x00, 0x00, 0x00, 0x09,
  0x18, 0x01, 0x00, 0x00, 0x04, 0x00, 0x00, 0x00, 0xff, 0xff, 0xff, 0xff,
  0x01, 0x00, 0x00, 0x00, 0x3e, 0x00, 0x00, 0x00, 0x20, 0x00, 0x00, 0x00,
  0x4c, 0xea, 0xff, 0xff, 0x08, 0x00, 0x00, 0x00, 0x10, 0x00, 0x00, 0x00,
  0x01, 0x00, 0x00, 0x00, 0x80, 0xff, 0xff, 0xff, 0xff, 0xff, 0xff, 0xff,
  0x01, 0x00, 0x00, 0x00, 0x6f, 0x52, 0x23, 0x3d, 0xdb, 0x00, 0x00, 0x00,
  0x73, 0x65, 0x71, 0x75, 0x65, 0x6e, 0x74, 0x69, 0x61, 0x6c, 0x5f, 0x31,
  0x2f, 0x61, 0x63, 0x74, 0x69, 0x76, 0x61, 0x74, 0x69, 0x6f, 0x6e, 0x5f,
  0x32, 0x5f, 0x31, 0x2f, 0x52, 0x65, 0x6c, 0x75, 0x3b, 0x73, 0x65, 0x71,
  0x75, 0x65, 0x6e, 0x74, 0x69, 0x61, 0x6c, 0x5f, 0x31, 0x2f, 0x62, 0x61,
  0x74, 0x63, 0x68, 0x5f, 0x6e, 0x6f, 0x72, 0x6d, 0x61, 0x6c, 0x69, 0x7a,
  0x61, 0x74, 0x69, 0x6f, 0x6e, 0x5f, 0x32, 0x5f, 0x31, 0x2f, 0x62, 0x61,
  0x74, 0x63, 0x68, 0x6e, 0x6f, 0x72, 0x6d, 0x2f, 0x61, 0x64, 0x64, 0x5f,
  0x31, 0x3b, 0x73, 0x65, 0x71, 0x75, 0x65, 0x6e, 0x74, 0x69, 0x61, 0x6c,
  0x5f, 0x31, 0x2f, 0x63, 0x6f, 0x6e, 0x76, 0x31, 0x64, 0x5f, 0x32, 0x5f,
  0x31, 0x2f, 0x63, 0x6f, 0x6e, 0x76, 0x6f, 0x6c, 0x75, 0x74, 0x69, 0x6f,
  0x6e, 0x2f, 0x53, 0x71, 0x75, 0x65, 0x65, 0x7a, 0x65, 0x3b, 0x73, 0x65,
  0x71, 0x75, 0x65, 0x6e, 0x74, 0x69, 0x61, 0x6c, 0x5f, 0x31, 0x2f, 0x62,
  0x61, 0x74, 0x63, 0x68, 0x5f, 0x6e, 0x6f, 0x72, 0x6d, 0x61, 0x6c, 0x69,
  0x7a, 0x61, 0x74, 0x69, 0x6f, 0x6e, 0x5f, 0x32, 0x5f, 0x31, 0x2f, 0x62,
  0x61, 0x74, 0x63, 0x68, 0x6e, 0x6f, 0x72, 0x6d, 0x2f, 0x6d, 0x75, 0x6c,
  0x5f, 0x31, 0x3b, 0x3b, 0x73, 0x65, 0x71, 0x75, 0x65, 0x6e, 0x74, 0x69,
  0x61, 0x6c, 0x5f, 0x31, 0x2f, 0x63, 0x6f, 0x6e, 0x76, 0x31, 0x64, 0x5f,
  0x32, 0x5f, 0x31, 0x2f, 0x63, 0x6f, 0x6e, 0x76, 0x6f, 0x6c, 0x75, 0x74,
  0x69, 0x6f, 0x6e, 0x00, 0x04, 0x00, 0x00, 0x00, 0x01, 0x00, 0x00, 0x00,
  0x01, 0x00, 0x00, 0x00, 0x3e, 0x00, 0x00, 0x00, 0x20, 0x00, 0x00, 0x00,
  0xa6, 0xeb, 0xff, 0xff, 0x00, 0x00, 0x00, 0x01, 0x18, 0x00, 0x00, 0x00,
  0x28, 0x00, 0x00, 0x00, 0x44, 0x00, 0x00, 0x00, 0x1e, 0x00, 0x00, 0x00,
  0x00, 0x00, 0x00, 0x09, 0x6c, 0x00, 0x00, 0x00, 0x04, 0x00, 0x00, 0x00,
  0xff, 0xff, 0xff, 0xff, 0x01, 0x00, 0x00, 0x00, 0x3e, 0x00, 0x00, 0x00,
  0x10, 0x00, 0x00, 0x00, 0x94, 0xeb, 0xff, 0xff, 0x08, 0x00, 0x00, 0x00,
  0x10, 0x00, 0x00, 0x00, 0x01, 0x00, 0x00, 0x00, 0x80, 0xff, 0xff, 0xff,
  0xff, 0xff, 0xff, 0xff, 0x01, 0x00, 0x00, 0x00, 0xf3, 0x4b, 0x04, 0x3d,
  0x2e, 0x00, 0x00, 0x00, 0x73, 0x65, 0x71, 0x75, 0x65, 0x6e, 0x74, 0x69,
  0x61, 0x6c, 0x5f, 0x31, 0x2f, 0x63, 0x6f, 0x6e, 0x76, 0x31, 0x64, 0x5f,
  0x32, 0x5f, 0x31, 0x2f, 0x63, 0x6f, 0x6e, 0x76, 0x6f, 0x6c, 0x75, 0x74,
  0x69, 0x6f, 0x6e, 0x2f, 0x45, 0x78, 0x70, 0x61, 0x6e, 0x64, 0x44, 0x69,
  0x6d, 0x73, 0x00, 0x00, 0x04, 0x00, 0x00, 0x00, 0x01, 0x00, 0x00, 0x00,
  0x01, 0x00, 0x00, 0x00, 0x3e, 0x00, 0x00, 0x00, 0x10, 0x00, 0x00, 0x00,
  0x42, 0xec, 0xff, 0xff, 0x00, 0x00, 0x00, 0x01, 0x18, 0x00, 0x00, 0x00,
  0x24, 0x00, 0x00, 0x00, 0x44, 0x00, 0x00, 0x00, 0x1d, 0x00, 0x00, 0x00,
  0x00, 0x00, 0x00, 0x09, 0x70, 0x00, 0x00, 0x00, 0x03, 0x00, 0x00, 0x00,
  0xff, 0xff, 0xff, 0xff, 0x3e, 0x00, 0x00, 0x00, 0x10, 0x00, 0x00, 0x00,
  0x2c, 0xec, 0xff, 0xff, 0x08, 0x00, 0x00, 0x00, 0x14, 0x00, 0x00, 0x00,
  0x01, 0x00, 0x00, 0x00, 0x80, 0xff, 0xff, 0xff, 0xff, 0xff, 0xff, 0xff,
  0x00, 0x00, 0x00, 0x00, 0x01, 0x00, 0x00, 0x00, 0xf3, 0x4b, 0x04, 0x3d,
  0x30, 0x00, 0x00, 0x00, 0x73, 0x65, 0x71, 0x75, 0x65, 0x6e, 0x74, 0x69,
  0x61, 0x6c, 0x5f, 0x31, 0x2f, 0x6d, 0x61, 0x78, 0x5f, 0x70, 0x6f, 0x6f,
  0x6c, 0x69, 0x6e, 0x67, 0x31, 0x64, 0x5f, 0x31, 0x5f, 0x32, 0x2f, 0x4d,
  0x61, 0x78, 0x50, 0x6f, 0x6f, 0x6c, 0x31, 0x64, 0x2f, 0x53, 0x71, 0x75,
  0x65, 0x65, 0x7a, 0x65, 0x00, 0x00, 0x00, 0x00, 0x03, 0x00, 0x00, 0x00,
  0x01, 0x00, 0x00, 0x00, 0x3e, 0x00, 0x00, 0x00, 0x10, 0x00, 0x00, 0x00,
  0xde, 0xec, 0xff, 0xff, 0x00, 0x00, 0x00, 0x01, 0x18, 0x00, 0x00, 0x00,
  0x28, 0x00, 0x00, 0x00, 0x44, 0x00, 0x00, 0x00, 0x1c, 0x00, 0x00, 0x00,
  0x00, 0x00, 0x00, 0x09, 0x68, 0x00, 0x00, 0x00, 0x04, 0x00, 0x00, 0x00,
  0xff, 0xff, 0xff, 0xff, 0x01, 0x00, 0x00, 0x00, 0x3e, 0x00, 0x00, 0x00,
  0x10, 0x00, 0x00, 0x00, 0xcc, 0xec, 0xff, 0xff, 0x08, 0x00, 0x00, 0x00,
  0x10, 0x00, 0x00, 0x00, 0x01, 0x00, 0x00, 0x00, 0x80, 0xff, 0xff, 0xff,
  0xff, 0xff, 0xff, 0xff, 0x01, 0x00, 0x00, 0x00, 0xf3, 0x4b, 0x04, 0x3d,
  0x28, 0x00, 0x00, 0x00, 0x73, 0x65, 0x71, 0x75, 0x65, 0x6e, 0x74, 0x69,
  0x61, 0x6c, 0x5f, 0x31, 0x2f, 0x6d, 0x61, 0x78, 0x5f, 0x70, 0x6f, 0x6f,
  0x6c, 0x69, 0x6e, 0x67, 0x31, 0x64, 0x5f, 0x31, 0x5f, 0x32, 0x2f, 0x4d,
  0x61, 0x78, 0x50, 0x6f, 0x6f, 0x6c, 0x31, 0x64, 0x00, 0x00, 0x00, 0x00,
  0x04, 0x00, 0x00, 0x00, 0x01, 0x00, 0x00, 0x00, 0x01, 0x00, 0x00, 0x00,
  0x3e, 0x00, 0x00, 0x00, 0x10, 0x00, 0x00, 0x00, 0x76, 0xed, 0xff, 0xff,
  0x00, 0x00, 0x00, 0x01, 0x18, 0x00, 0x00, 0x00, 0x28, 0x00, 0x00, 0x00,
  0x48, 0x00, 0x00, 0x00, 0x1b, 0x00, 0x00, 0x00, 0x00, 0x00, 0x00, 0x09,
  0x74, 0x00, 0x00, 0x00, 0x04, 0x00, 0x00, 0x00, 0xff, 0xff, 0xff, 0xff,
  0x01, 0x00, 0x00, 0x00, 0xfa, 0x00, 0x00, 0x00, 0x10, 0x00, 0x00, 0x00,
  0x64, 0xed, 0xff, 0xff, 0x08, 0x00, 0x00, 0x00, 0x14, 0x00, 0x00, 0x00,
  0x01, 0x00, 0x00, 0x00, 0x80, 0xff, 0xff, 0xff, 0xff, 0xff, 0xff, 0xff,
  0x00, 0x00, 0x00, 0x00, 0x01, 0x00, 0x00, 0x00, 0xf3, 0x4b, 0x04, 0x3d,
  0x33, 0x00, 0x00, 0x00, 0x73, 0x65, 0x71, 0x75, 0x65, 0x6e, 0x74, 0x69,
  0x61, 0x6c, 0x5f, 0x31, 0x2f, 0x6d, 0x61, 0x78, 0x5f, 0x70, 0x6f, 0x6f,
  0x6c, 0x69, 0x6e, 0x67, 0x31, 0x64, 0x5f, 0x31, 0x5f, 0x32, 0x2f, 0x4d,
  0x61, 0x78, 0x50, 0x6f, 0x6f, 0x6c, 0x31, 0x64, 0x2f, 0x45, 0x78, 0x70,
  0x61, 0x6e, 0x64, 0x44, 0x69, 0x6d, 0x73, 0x00, 0x04, 0x00, 0x00, 0x00,
  0x01, 0x00, 0x00, 0x00, 0x01, 0x00, 0x00, 0x00, 0xfa, 0x00, 0x00, 0x00,
  0x10, 0x00, 0x00, 0x00, 0x1a, 0xee, 0xff, 0xff, 0x00, 0x00, 0x00, 0x01,
  0x18, 0x00, 0x00, 0x00, 0x24, 0x00, 0x00, 0x00, 0x40, 0x00, 0x00, 0x00,
  0x1a, 0x00, 0x00, 0x00, 0x00, 0x00, 0x00, 0x09, 0xf0, 0x00, 0x00, 0x00,
  0x03, 0x00, 0x00, 0x00, 0xff, 0xff, 0xff, 0xff, 0xfa, 0x00, 0x00, 0x00,
  0x10, 0x00, 0x00, 0x00, 0x04, 0xee, 0xff, 0xff, 0x08, 0x00, 0x00, 0x00,
  0x10, 0x00, 0x00, 0x00, 0x01, 0x00, 0x00, 0x00, 0x80, 0xff, 0xff, 0xff,
  0xff, 0xff, 0xff, 0xff, 0x01, 0x00, 0x00, 0x00, 0xf3, 0x4b, 0x04, 0x3d,
  0xb7, 0x00, 0x00, 0x00, 0x73, 0x65, 0x71, 0x75, 0x65, 0x6e, 0x74, 0x69,
  0x61, 0x6c, 0x5f, 0x31, 0x2f, 0x61, 0x63, 0x74, 0x69, 0x76, 0x61, 0x74,
  0x69, 0x6f, 0x6e, 0x5f, 0x31, 0x5f, 0x32, 0x2f, 0x52, 0x65, 0x6c, 0x75,
  0x3b, 0x73, 0x65, 0x71, 0x75, 0x65, 0x6e, 0x74, 0x69, 0x61, 0x6c, 0x5f,
  0x31, 0x2f, 0x62, 0x61, 0x74, 0x63, 0x68, 0x5f, 0x6e, 0x6f, 0x72, 0x6d,
  0x61, 0x6c, 0x69, 0x7a, 0x61, 0x74, 0x69, 0x6f, 0x6e, 0x5f, 0x31, 0x5f,
  0x32, 0x2f, 0x62, 0x61, 0x74, 0x63, 0x68, 0x6e, 0x6f, 0x72, 0x6d, 0x2f,
  0x61, 0x64, 0x64, 0x5f, 0x31, 0x3b, 0x73, 0x65, 0x71, 0x75, 0x65, 0x6e,
  0x74, 0x69, 0x61, 0x6c, 0x5f, 0x31, 0x2f, 0x63, 0x6f, 0x6e, 0x76, 0x31,
  0x64, 0x5f, 0x31, 0x5f, 0x32, 0x2f, 0x63, 0x6f, 0x6e, 0x76, 0x6f, 0x6c,
  0x75, 0x74, 0x69, 0x6f, 0x6e, 0x2f, 0x53, 0x71, 0x75, 0x65, 0x65, 0x7a,
  0x65, 0x3b, 0x73, 0x65, 0x71, 0x75, 0x65, 0x6e, 0x74, 0x69, 0x61, 0x6c,
  0x5f, 0x31, 0x2f, 0x62, 0x61, 0x74, 0x63, 0x68, 0x5f, 0x6e, 0x6f, 0x72,
  0x6d, 0x61, 0x6c, 0x69, 0x7a, 0x61, 0x74, 0x69, 0x6f, 0x6e, 0x5f, 0x31,
  0x5f, 0x32, 0x2f, 0x62, 0x61, 0x74, 0x63, 0x68, 0x6e, 0x6f, 0x72, 0x6d,
  0x2f, 0x6d, 0x75, 0x6c, 0x5f, 0x31, 0x3b, 0x00, 0x03, 0x00, 0x00, 0x00,
  0x01, 0x00, 0x00, 0x00, 0xfa, 0x00, 0x00, 0x00, 0x10, 0x00, 0x00, 0x00,
  0x36, 0xef, 0xff, 0xff, 0x00, 0x00, 0x00, 0x01, 0x18, 0x00, 0x00, 0x00,
  0x28, 0x00, 0x00, 0x00, 0x44, 0x00, 0x00, 0x00, 0x19, 0x00, 0x00, 0x00,
  0x00, 0x00, 0x00, 0x09, 0x18, 0x01, 0x00, 0x00, 0x04, 0x00, 0x00, 0x00,
  0xff, 0xff, 0xff, 0xff, 0x01, 0x00, 0x00, 0x00, 0xfa, 0x00, 0x00, 0x00,
  0x10, 0x00, 0x00, 0x00, 0x24, 0xef, 0xff, 0xff, 0x08, 0x00, 0x00, 0x00,
  0x10, 0x00, 0x00, 0x00, 0x01, 0x00, 0x00, 0x00, 0x80, 0xff, 0xff, 0xff,
  0xff, 0xff, 0xff, 0xff, 0x01, 0x00, 0x00, 0x00, 0xf3, 0x4b, 0x04, 0x3d,
  0xdb, 0x00, 0x00, 0x00, 0x73, 0x65, 0x71, 0x75, 0x65, 0x6e, 0x74, 0x69,
  0x61, 0x6c, 0x5f, 0x31, 0x2f, 0x61, 0x63, 0x74, 0x69, 0x76, 0x61, 0x74,
  0x69, 0x6f, 0x6e, 0x5f, 0x31, 0x5f, 0x32, 0x2f, 0x52, 0x65, 0x6c, 0x75,
  0x3b, 0x73, 0x65, 0x71, 0x75, 0x65, 0x6e, 0x74, 0x69, 0x61, 0x6c, 0x5f,
  0x31, 0x2f, 0x62, 0x61, 0x74, 0x63, 0x68, 0x5f, 0x6e, 0x6f, 0x72, 0x6d,
  0x61, 0x6c, 0x69, 0x7a, 0x61, 0x74, 0x69, 0x6f, 0x6e, 0x5f, 0x31, 0x5f,
  0x32, 0x2f, 0x62, 0x61, 0x74, 0x63, 0x68, 0x6e, 0x6f, 0x72, 0x6d, 0x2f,
  0x61, 0x64, 0x64, 0x5f, 0x31, 0x3b, 0x73, 0x65, 0x71, 0x75, 0x65, 0x6e,
  0x74, 0x69, 0x61, 0x6c, 0x5f, 0x31, 0x2f, 0x63, 0x6f, 0x6e, 0x76, 0x31,
  0x64, 0x5f, 0x31, 0x5f, 0x32, 0x2f, 0x63, 0x6f, 0x6e, 0x76, 0x6f, 0x6c,
  0x75, 0x74, 0x69, 0x6f, 0x6e, 0x2f, 0x53, 0x71, 0x75, 0x65, 0x65, 0x7a,
  0x65, 0x3b, 0x73, 0x65, 0x71, 0x75, 0x65, 0x6e, 0x74, 0x69, 0x61, 0x6c,
  0x5f, 0x31, 0x2f, 0x62, 0x61, 0x74, 0x63, 0x68, 0x5f, 0x6e, 0x6f, 0x72,
  0x6d, 0x61, 0x6c, 0x69, 0x7a, 0x61, 0x74, 0x69, 0x6f, 0x6e, 0x5f, 0x31,
  0x5f, 0x32, 0x2f, 0x62, 0x61, 0x74, 0x63, 0x68, 0x6e, 0x6f, 0x72, 0x6d,
  0x2f, 0x6d, 0x75, 0x6c, 0x5f, 0x31, 0x3b, 0x3b, 0x73, 0x65, 0x71, 0x75,
  0x65, 0x6e, 0x74, 0x69, 0x61, 0x6c, 0x5f, 0x31, 0x2f, 0x63, 0x6f, 0x6e,
  0x76, 0x31, 0x64, 0x5f, 0x31, 0x5f, 0x32, 0x2f, 0x63, 0x6f, 0x6e, 0x76,
  0x6f, 0x6c, 0x75, 0x74, 0x69, 0x6f, 0x6e, 0x00, 0x04, 0x00, 0x00, 0x00,
  0x01, 0x00, 0x00, 0x00, 0x01, 0x00, 0x00, 0x00, 0xfa, 0x00, 0x00, 0x00,
  0x10, 0x00, 0x00, 0x00, 0x7e, 0xf0, 0xff, 0xff, 0x00, 0x00, 0x00, 0x01,
  0x18, 0x00, 0x00, 0x00, 0x28, 0x00, 0x00, 0x00, 0x44, 0x00, 0x00, 0x00,
  0x18, 0x00, 0x00, 0x00, 0x00, 0x00, 0x00, 0x09, 0x6c, 0x00, 0x00, 0x00,
  0x04, 0x00, 0x00, 0x00, 0xff, 0xff, 0xff, 0xff, 0x01, 0x00, 0x00, 0x00,
  0xfa, 0x00, 0x00, 0x00, 0x08, 0x00, 0x00, 0x00, 0x6c, 0xf0, 0xff, 0xff,
  0x08, 0x00, 0x00, 0x00, 0x10, 0x00, 0x00, 0x00, 0x01, 0x00, 0x00, 0x00,
  0x80, 0xff, 0xff, 0xff, 0xff, 0xff, 0xff, 0xff, 0x01, 0x00, 0x00, 0x00,
  0xf8, 0x6c, 0x3a, 0x3d, 0x2e, 0x00, 0x00, 0x00, 0x73, 0x65, 0x71, 0x75,
  0x65, 0x6e, 0x74, 0x69, 0x61, 0x6c, 0x5f, 0x31, 0x2f, 0x63, 0x6f, 0x6e,
  0x76, 0x31, 0x64, 0x5f, 0x31, 0x5f, 0x32, 0x2f, 0x63, 0x6f, 0x6e, 0x76,
  0x6f, 0x6c, 0x75, 0x74, 0x69, 0x6f, 0x6e, 0x2f, 0x45, 0x78, 0x70, 0x61,
  0x6e, 0x64, 0x44, 0x69, 0x6d, 0x73, 0x00, 0x00, 0x04, 0x00, 0x00, 0x00,
  0x01, 0x00, 0x00, 0x00, 0x01, 0x00, 0x00, 0x00, 0xfa, 0x00, 0x00, 0x00,
  0x08, 0x00, 0x00, 0x00, 0x1a, 0xf1, 0xff, 0xff, 0x00, 0x00, 0x00, 0x01,
  0x18, 0x00, 0x00, 0x00, 0x24, 0x00, 0x00, 0x00, 0x40, 0x00, 0x00, 0x00,
  0x17, 0x00, 0x00, 0x00, 0x00, 0x00, 0x00, 0x09, 0x68, 0x00, 0x00, 0x00,
  0x03, 0x00, 0x00, 0x00, 0xff, 0xff, 0xff, 0xff, 0xfa, 0x00, 0x00, 0x00,
  0x08, 0x00, 0x00, 0x00, 0x04, 0xf1, 0xff, 0xff, 0x08, 0x00, 0x00, 0x00,
  0x10, 0x00, 0x00, 0x00, 0x01, 0x00, 0x00, 0x00, 0x80, 0xff, 0xff, 0xff,
  0xff, 0xff, 0xff, 0xff, 0x01, 0x00, 0x00, 0x00, 0xf8, 0x6c, 0x3a, 0x3d,
  0x2e, 0x00, 0x00, 0x00, 0x73, 0x65, 0x71, 0x75, 0x65, 0x6e, 0x74, 0x69,
  0x61, 0x6c, 0x5f, 0x31, 0x2f, 0x6d, 0x61, 0x78, 0x5f, 0x70, 0x6f, 0x6f,
  0x6c, 0x69, 0x6e, 0x67, 0x31, 0x64, 0x5f, 0x31, 0x2f, 0x4d, 0x61, 0x78,
  0x50, 0x6f, 0x6f, 0x6c, 0x31, 0x64, 0x2f, 0x53, 0x71, 0x75, 0x65, 0x65,
  0x7a, 0x65, 0x00, 0x00, 0x03, 0x00, 0x00, 0x00, 0x01, 0x00, 0x00, 0x00,
  0xfa, 0x00, 0x00, 0x00, 0x08, 0x00, 0x00, 0x00, 0xae, 0xf1, 0xff, 0xff,
  0x00, 0x00, 0x00, 0x01, 0x18, 0x00, 0x00, 0x00, 0x28, 0x00, 0x00, 0x00,
  0x48, 0x00, 0x00, 0x00, 0x16, 0x00, 0x00, 0x00, 0x00, 0x00, 0x00, 0x09,
  0x68, 0x00, 0x00, 0x00, 0x04, 0x00, 0x00, 0x00, 0xff, 0xff, 0xff, 0xff,
  0x01, 0x00, 0x00, 0x00, 0xfa, 0x00, 0x00, 0x00, 0x08, 0x00, 0x00, 0x00,
  0x9c, 0xf1, 0xff, 0xff, 0x08, 0x00, 0x00, 0x00, 0x14, 0x00, 0x00, 0x00,
  0x01, 0x00, 0x00, 0x00, 0x80, 0xff, 0xff, 0xff, 0xff, 0xff, 0xff, 0xff,
  0x00, 0x00, 0x00, 0x00, 0x01, 0x00, 0x00, 0x00, 0xf8, 0x6c, 0x3a, 0x3d,
  0x26, 0x00, 0x00, 0x00, 0x73, 0x65, 0x71, 0x75, 0x65, 0x6e, 0x74, 0x69,
  0x61, 0x6c, 0x5f, 0x31, 0x2f, 0x6d, 0x61, 0x78, 0x5f, 0x70, 0x6f, 0x6f,
  0x6c, 0x69, 0x6e, 0x67, 0x31, 0x64, 0x5f, 0x31, 0x2f, 0x4d, 0x61, 0x78,
  0x50, 0x6f, 0x6f, 0x6c, 0x31, 0x64, 0x00, 0x00, 0x04, 0x00, 0x00, 0x00,
  0x01, 0x00, 0x00, 0x00, 0x01, 0x00, 0x00, 0x00, 0xfa, 0x00, 0x00, 0x00,
  0x08, 0x00, 0x00, 0x00, 0x46, 0xf2, 0xff, 0xff, 0x00, 0x00, 0x00, 0x01,
  0x18, 0x00, 0x00, 0x00, 0x28, 0x00, 0x00, 0x00, 0x48, 0x00, 0x00, 0x00,
  0x15, 0x00, 0x00, 0x00, 0x00, 0x00, 0x00, 0x09, 0x74, 0x00, 0x00, 0x00,
  0x04, 0x00, 0x00, 0x00, 0xff, 0xff, 0xff, 0xff, 0x01, 0x00, 0x00, 0x00,
  0xe8, 0x03, 0x00, 0x00, 0x08, 0x00, 0x00, 0x00, 0x34, 0xf2, 0xff, 0xff,
  0x08, 0x00, 0x00, 0x00, 0x14, 0x00, 0x00, 0x00, 0x01, 0x00, 0x00, 0x00,
  0x80, 0xff, 0xff, 0xff, 0xff, 0xff, 0xff, 0xff, 0x00, 0x00, 0x00, 0x00,
  0x01, 0x00, 0x00, 0x00, 0xf8, 0x6c, 0x3a, 0x3d, 0x31, 0x00, 0x00, 0x00,
  0x73, 0x65, 0x71, 0x75, 0x65, 0x6e, 0x74, 0x69, 0x61, 0x6c, 0x5f, 0x31,
  0x2f, 0x6d, 0x61, 0x78, 0x5f, 0x70, 0x6f, 0x6f, 0x6c, 0x69, 0x6e, 0x67,
  0x31, 0x64, 0x5f, 0x31, 0x2f, 0x4d, 0x61, 0x78, 0x50, 0x6f, 0x6f, 0x6c,
  0x31, 0x64, 0x2f, 0x45, 0x78, 0x70, 0x61, 0x6e, 0x64, 0x44, 0x69, 0x6d,
  0x73, 0x00, 0x00, 0x00, 0x04, 0x00, 0x00, 0x00, 0x01, 0x00, 0x00, 0x00,
  0x01, 0x00, 0x00, 0x00, 0xe8, 0x03, 0x00, 0x00, 0x08, 0x00, 0x00, 0x00,
  0xea, 0xf2, 0xff, 0xff, 0x00, 0x00, 0x00, 0x01, 0x18, 0x00, 0x00, 0x00,
  0x24, 0x00, 0x00, 0x00, 0x40, 0x00, 0x00, 0x00, 0x14, 0x00, 0x00, 0x00,
  0x00, 0x00, 0x00, 0x09, 0xe8, 0x00, 0x00, 0x00, 0x03, 0x00, 0x00, 0x00,
  0xff, 0xff, 0xff, 0xff, 0xe8, 0x03, 0x00, 0x00, 0x08, 0x00, 0x00, 0x00,
  0xd4, 0xf2, 0xff, 0xff, 0x08, 0x00, 0x00, 0x00, 0x10, 0x00, 0x00, 0x00,
  0x01, 0x00, 0x00, 0x00, 0x80, 0xff, 0xff, 0xff, 0xff, 0xff, 0xff, 0xff,
  0x01, 0x00, 0x00, 0x00, 0xf8, 0x6c, 0x3a, 0x3d, 0xaf, 0x00, 0x00, 0x00,
  0x73, 0x65, 0x71, 0x75, 0x65, 0x6e, 0x74, 0x69, 0x61, 0x6c, 0x5f, 0x31,
  0x2f, 0x61, 0x63, 0x74, 0x69, 0x76, 0x61, 0x74, 0x69, 0x6f, 0x6e, 0x5f,
  0x31, 0x2f, 0x52, 0x65, 0x6c, 0x75, 0x3b, 0x73, 0x65, 0x71, 0x75, 0x65,
  0x6e, 0x74, 0x69, 0x61, 0x6c, 0x5f, 0x31, 0x2f, 0x62, 0x61, 0x74, 0x63,
  0x68, 0x5f, 0x6e, 0x6f, 0x72, 0x6d, 0x61, 0x6c, 0x69, 0x7a, 0x61, 0x74,
  0x69, 0x6f, 0x6e, 0x5f, 0x31, 0x2f, 0x62, 0x61, 0x74, 0x63, 0x68, 0x6e,
  0x6f, 0x72, 0x6d, 0x2f, 0x61, 0x64, 0x64, 0x5f, 0x31, 0x3b, 0x73, 0x65,
  0x71, 0x75, 0x65, 0x6e, 0x74, 0x69, 0x61, 0x6c, 0x5f, 0x31, 0x2f, 0x63,
  0x6f, 0x6e, 0x76, 0x31, 0x64, 0x5f, 0x31, 0x2f, 0x63, 0x6f, 0x6e, 0x76,
  0x6f, 0x6c, 0x75, 0x74, 0x69, 0x6f, 0x6e, 0x2f, 0x53, 0x71, 0x75, 0x65,
  0x65, 0x7a, 0x65, 0x3b, 0x73, 0x65, 0x71, 0x75, 0x65, 0x6e, 0x74, 0x69,
  0x61, 0x6c, 0x5f, 0x31, 0x2f, 0x62, 0x61, 0x74, 0x63, 0x68, 0x5f, 0x6e,
  0x6f, 0x72, 0x6d, 0x61, 0x6c, 0x69, 0x7a, 0x61, 0x74, 0x69, 0x6f, 0x6e,
  0x5f, 0x31, 0x2f, 0x62, 0x61, 0x74, 0x63, 0x68, 0x6e, 0x6f, 0x72, 0x6d,
  0x2f, 0x6d, 0x75, 0x6c, 0x5f, 0x31, 0x3b, 0x00, 0x03, 0x00, 0x00, 0x00,
  0x01, 0x00, 0x00, 0x00, 0xe8, 0x03, 0x00, 0x00, 0x08, 0x00, 0x00, 0x00,
  0xfe, 0xf3, 0xff, 0xff, 0x00, 0x00, 0x00, 0x01, 0x18, 0x00, 0x00, 0x00,
  0x28, 0x00, 0x00, 0x00, 0x44, 0x00, 0x00, 0x00, 0x13, 0x00, 0x00, 0x00,
  0x00, 0x00, 0x00, 0x09, 0x10, 0x01, 0x00, 0x00, 0x04, 0x00, 0x00, 0x00,
  0xff, 0xff, 0xff, 0xff, 0x01, 0x00, 0x00, 0x00, 0xe8, 0x03, 0x00, 0x00,
  0x08, 0x00, 0x00, 0x00, 0xec, 0xf3, 0xff, 0xff, 0x08, 0x00, 0x00, 0x00,
  0x10, 0x00, 0x00, 0x00, 0x01, 0x00, 0x00, 0x00, 0x80, 0xff, 0xff, 0xff,
  0xff, 0xff, 0xff, 0xff, 0x01, 0x00, 0x00, 0x00, 0xf8, 0x6c, 0x3a, 0x3d,
  0xd1, 0x00, 0x00, 0x00, 0x73, 0x65, 0x71, 0x75, 0x65, 0x6e, 0x74, 0x69,
  0x61, 0x6c, 0x5f, 0x31, 0x2f, 0x61, 0x63, 0x74, 0x69, 0x76, 0x61, 0x74,
  0x69, 0x6f, 0x6e, 0x5f, 0x31, 0x2f, 0x52, 0x65, 0x6c, 0x75, 0x3b, 0x73,
  0x65, 0x71, 0x75, 0x65, 0x6e, 0x74, 0x69, 0x61, 0x6c, 0x5f, 0x31, 0x2f,
  0x62, 0x61, 0x74, 0x63, 0x68, 0x5f, 0x6e, 0x6f, 0x72, 0x6d, 0x61, 0x6c,
  0x69, 0x7a, 0x61, 0x74, 0x69, 0x6f, 0x6e, 0x5f, 0x31, 0x2f, 0x62, 0x61,
  0x74, 0x63, 0x68, 0x6e, 0x6f, 0x72, 0x6d, 0x2f, 0x61, 0x64, 0x64, 0x5f,
  0x31, 0x3b, 0x73, 0x65, 0x71, 0x75, 0x65, 0x6e, 0x74, 0x69, 0x61, 0x6c,
  0x5f, 0x31, 0x2f, 0x63, 0x6f, 0x6e, 0x76, 0x31, 0x64, 0x5f, 0x31, 0x2f,
  0x63, 0x6f, 0x6e, 0x76, 0x6f, 0x6c, 0x75, 0x74, 0x69, 0x6f, 0x6e, 0x2f,
  0x53, 0x71, 0x75, 0x65, 0x65, 0x7a, 0x65, 0x3b, 0x73, 0x65, 0x71, 0x75,
  0x65, 0x6e, 0x74, 0x69, 0x61, 0x6c, 0x5f, 0x31, 0x2f, 0x62, 0x61, 0x74,
  0x63, 0x68, 0x5f, 0x6e, 0x6f, 0x72, 0x6d, 0x61, 0x6c, 0x69, 0x7a, 0x61,
  0x74, 0x69, 0x6f, 0x6e, 0x5f, 0x31, 0x2f, 0x62, 0x61, 0x74, 0x63, 0x68,
  0x6e, 0x6f, 0x72, 0x6d, 0x2f, 0x6d, 0x75, 0x6c, 0x5f, 0x31, 0x3b, 0x3b,
  0x73, 0x65, 0x71, 0x75, 0x65, 0x6e, 0x74, 0x69, 0x61, 0x6c, 0x5f, 0x31,
  0x2f, 0x63, 0x6f, 0x6e, 0x76, 0x31, 0x64, 0x5f, 0x31, 0x2f, 0x63, 0x6f,
  0x6e, 0x76, 0x6f, 0x6c, 0x75, 0x74, 0x69, 0x6f, 0x6e, 0x00, 0x00, 0x00,
  0x04, 0x00, 0x00, 0x00, 0x01, 0x00, 0x00, 0x00, 0x01, 0x00, 0x00, 0x00,
  0xe8, 0x03, 0x00, 0x00, 0x08, 0x00, 0x00, 0x00, 0x3e, 0xf5, 0xff, 0xff,
  0x00, 0x00, 0x00, 0x01, 0x18, 0x00, 0x00, 0x00, 0x28, 0x00, 0x00, 0x00,
  0x48, 0x00, 0x00, 0x00, 0x12, 0x00, 0x00, 0x00, 0x00, 0x00, 0x00, 0x09,
  0x70, 0x00, 0x00, 0x00, 0x04, 0x00, 0x00, 0x00, 0xff, 0xff, 0xff, 0xff,
  0x01, 0x00, 0x00, 0x00, 0xe8, 0x03, 0x00, 0x00, 0x04, 0x00, 0x00, 0x00,
  0x2c, 0xf5, 0xff, 0xff, 0x08, 0x00, 0x00, 0x00, 0x14, 0x00, 0x00, 0x00,
  0x01, 0x00, 0x00, 0x00, 0x0b, 0x00, 0x00, 0x00, 0x00, 0x00, 0x00, 0x00,
  0x00, 0x00, 0x00, 0x00, 0x01, 0x00, 0x00, 0x00, 0x1c, 0x42, 0x00, 0x3e,
  0x2c, 0x00, 0x00, 0x00, 0x73, 0x65, 0x71, 0x75, 0x65, 0x6e, 0x74, 0x69,
  0x61, 0x6c, 0x5f, 0x31, 0x2f, 0x63, 0x6f, 0x6e, 0x76, 0x31, 0x64, 0x5f,
  0x31, 0x2f, 0x63, 0x6f, 0x6e, 0x76, 0x6f, 0x6c, 0x75, 0x74, 0x69, 0x6f,
  0x6e, 0x2f, 0x45, 0x78, 0x70, 0x61, 0x6e, 0x64, 0x44, 0x69, 0x6d, 0x73,
  0x00, 0x00, 0x00, 0x00, 0x04, 0x00, 0x00, 0x00, 0x01, 0x00, 0x00, 0x00,
  0x01, 0x00, 0x00, 0x00, 0xe8, 0x03, 0x00, 0x00, 0x04, 0x00, 0x00, 0x00,
  0x32, 0xf6, 0xff, 0xff, 0x00, 0x00, 0x00, 0x01, 0x14, 0x00, 0x00, 0x00,
  0x88, 0x00, 0x00, 0x00, 0x11, 0x00, 0x00, 0x00, 0x00, 0x00, 0x00, 0x09,
  0x94, 0x00, 0x00, 0x00, 0xb4, 0xf5, 0xff, 0xff, 0x08, 0x00, 0x00, 0x00,
  0x4c, 0x00, 0x00, 0x00, 0x08, 0x00, 0x00, 0x00, 0x00, 0x00, 0x00, 0x00,
  0x00, 0x00, 0x00, 0x00, 0x00, 0x00, 0x00, 0x00, 0x00, 0x00, 0x00, 0x00,
  0x00, 0x00, 0x00, 0x00, 0x00, 0x00, 0x00, 0x00, 0x00, 0x00, 0x00, 0x00,
  0x00, 0x00, 0x00, 0x00, 0x00, 0x00, 0x00, 0x00, 0x00, 0x00, 0x00, 0x00,
  0x00, 0x00, 0x00, 0x00, 0x00, 0x00, 0x00, 0x00, 0x00, 0x00, 0x00, 0x00,
  0x00, 0x00, 0x00, 0x00, 0x00, 0x00, 0x00, 0x00, 0x00, 0x00, 0x00, 0x00,
  0x00, 0x00, 0x00, 0x00, 0x08, 0x00, 0x00, 0x00, 0x0c, 0xef, 0x88, 0x3b,
  0x43, 0xd0, 0x32, 0x3b, 0x42, 0xfc, 0x8b, 0x3b, 0x72, 0xe4, 0x46, 0x3b,
  0x76, 0x10, 0x23, 0x3b, 0xa5, 0x08, 0xe7, 0x3a, 0x04, 0x7d, 0xf0, 0x3a,
  0x5b, 0x2b, 0xab, 0x3b, 0x12, 0x00, 0x00, 0x00, 0x74, 0x66, 0x6c, 0x2e,
  0x70, 0x73, 0x65, 0x75, 0x64, 0x6f, 0x5f, 0x71, 0x63, 0x6f, 0x6e, 0x73,
  0x74, 0x37, 0x00, 0x00, 0x04, 0x00, 0x00, 0x00, 0x08, 0x00, 0x00, 0x00,
  0x01, 0x00, 0x00, 0x00, 0x0a, 0x00, 0x00, 0x00, 0x04, 0x00, 0x00, 0x00,
  0xf2, 0xf6, 0xff, 0xff, 0x00, 0x00, 0x00, 0x01, 0x14, 0x00, 0x00, 0x00,
  0x84, 0x00, 0x00, 0x00, 0x10, 0x00, 0x00, 0x00, 0x00, 0x00, 0x00, 0x02,
  0x90, 0x00, 0x00, 0x00, 0x74, 0xf6, 0xff, 0xff, 0x08, 0x00, 0x00, 0x00,
  0x48, 0x00, 0x00, 0x00, 0x08, 0x00, 0x00, 0x00, 0x00, 0x00, 0x00, 0x00,
  0x00, 0x00, 0x00, 0x00, 0x00, 0x00, 0x00, 0x00, 0x00, 0x00, 0x00, 0x00,
  0x00, 0x00, 0x00, 0x00, 0x00, 0x00, 0x00, 0x00, 0x00, 0x00, 0x00, 0x00,
  0x00, 0x00, 0x00, 0x00, 0x00, 0x00, 0x00, 0x00, 0x00, 0x00, 0x00, 0x00,
  0x00, 0x00, 0x00, 0x00, 0x00, 0x00, 0x00, 0x00, 0x00, 0x00, 0x00, 0x00,
  0x00, 0x00, 0x00, 0x00, 0x00, 0x00, 0x00, 0x00, 0x00, 0x00, 0x00, 0x00,
  0x08, 0x00, 0x00, 0x00, 0xc5, 0x35, 0x09, 0x3a, 0x9e, 0x2c, 0xb3, 0x39,
  0x8f, 0x44, 0x0c, 0x3a, 0x2b, 0x4b, 0xc7, 0x39, 0xae, 0x64, 0xa3, 0x39,
  0xf8, 0x7f, 0x67, 0x39, 0x39, 0xf9, 0x70, 0x39, 0xc3, 0x83, 0x2b, 0x3a,
  0x12, 0x00, 0x00, 0x00, 0x74, 0x66, 0x6c, 0x2e, 0x70, 0x73, 0x65, 0x75,
  0x64, 0x6f, 0x5f, 0x71, 0x63, 0x6f, 0x6e, 0x73, 0x74, 0x36, 0x00, 0x00,
  0x01, 0x00, 0x00, 0x00, 0x08, 0x00, 0x00, 0x00, 0xa2, 0xf7, 0xff, 0xff,
  0x00, 0x00, 0x00, 0x01, 0x14, 0x00, 0x00, 0x00, 0xe8, 0x00, 0x00, 0x00,
  0x0f, 0x00, 0x00, 0x00, 0x00, 0x00, 0x00, 0x09, 0xf4, 0x00, 0x00, 0x00,
  0x24, 0xf7, 0xff, 0xff, 0x08, 0x00, 0x00, 0x00, 0x8c, 0x00, 0x00, 0x00,
  0x10, 0x00, 0x00, 0x00, 0x00, 0x00, 0x00, 0x00, 0x00, 0x00, 0x00, 0x00,
  0x00, 0x00, 0x00, 0x00, 0x00, 0x00, 0x00, 0x00, 0x00, 0x00, 0x00, 0x00,
  0x00, 0x00, 0x00, 0x00, 0x00, 0x00, 0x00, 0x00, 0x00, 0x00, 0x00, 0x00,
  0x00, 0x00, 0x00, 0x00, 0x00, 0x00, 0x00, 0x00, 0x00, 0x00, 0x00, 0x00,
  0x00, 0x00, 0x00, 0x00, 0x00, 0x00, 0x00, 0x00, 0x00, 0x00, 0x00, 0x00,
  0x00, 0x00, 0x00, 0x00, 0x00, 0x00, 0x00, 0x00, 0x00, 0x00, 0x00, 0x00,
  0x00, 0x00, 0x00, 0x00, 0x00, 0x00, 0x00, 0x00, 0x00, 0x00, 0x00, 0x00,
  0x00, 0x00, 0x00, 0x00, 0x00, 0x00, 0x00, 0x00, 0x00, 0x00, 0x00, 0x00,
  0x00, 0x00, 0x00, 0x00, 0x00, 0x00, 0x00, 0x00, 0x00, 0x00, 0x00, 0x00,
  0x00, 0x00, 0x00, 0x00, 0x00, 0x00, 0x00, 0x00, 0x00, 0x00, 0x00, 0x00,
  0x00, 0x00, 0x00, 0x00, 0x00, 0x00, 0x00, 0x00, 0x00, 0x00, 0x00, 0x00,
  0x00, 0x00, 0x00, 0x00, 0x10, 0x00, 0x00, 0x00, 0xac, 0x23, 0x90, 0x3b,
  0x0e, 0x37, 0x1f, 0x3b, 0x4f, 0xbb, 0x7f, 0x3b, 0xf2, 0x8c, 0xc1, 0x3b,
  0x5e, 0x16, 0x68, 0x3b, 0x01, 0x52, 0x07, 0x3b, 0xbd, 0x2d, 0x9a, 0x3b,
  0xae, 0xbf, 0x6d, 0x3b, 0x12, 0x19, 0x12, 0x3b, 0xb4, 0x54, 0xd6, 0x3b,
  0xeb, 0xeb, 0x13, 0x3b, 0x3e, 0xe4, 0x8f, 0x3b, 0xc6, 0x3e, 0x49, 0x3b,
  0xde, 0xbe, 0x41, 0x3b, 0xb9, 0xac, 0x6f, 0x3b, 0x3d, 0x50, 0x84, 0x3b,
  0x12, 0x00, 0x00, 0x00, 0x74, 0x66, 0x6c, 0x2e, 0x70, 0x73, 0x65, 0x75,
  0x64, 0x6f, 0x5f, 0x71, 0x63, 0x6f, 0x6e, 0x73, 0x74, 0x35, 0x00, 0x00,
  0x04, 0x00, 0x00, 0x00, 0x10, 0x00, 0x00, 0x00, 0x01, 0x00, 0x00, 0x00,
  0x05, 0x00, 0x00, 0x00, 0x08, 0x00, 0x00, 0x00, 0xc2, 0xf8, 0xff, 0xff,
  0x00, 0x00, 0x00, 0x01, 0x14, 0x00, 0x00, 0x00, 0xe4, 0x00, 0x00, 0x00,
  0x0e, 0x00, 0x00, 0x00, 0x00, 0x00, 0x00, 0x02, 0xf0, 0x00, 0x00, 0x00,
  0x44, 0xf8, 0xff, 0xff, 0x08, 0x00, 0x00, 0x00, 0x88, 0x00, 0x00, 0x00,
  0x10, 0x00, 0x00, 0x00, 0x00, 0x00, 0x00, 0x00, 0x00, 0x00, 0x00, 0x00,
  0x00, 0x00, 0x00, 0x00, 0x00, 0x00, 0x00, 0x00, 0x00, 0x00, 0x00, 0x00,
  0x00, 0x00, 0x00, 0x00, 0x00, 0x00, 0x00, 0x00, 0x00, 0x00, 0x00, 0x00,
  0x00, 0x00, 0x00, 0x00, 0x00, 0x00, 0x00, 0x00, 0x00, 0x00, 0x00, 0x00,
  0x00, 0x00, 0x00, 0x00, 0x00, 0x00, 0x00, 0x00, 0x00, 0x00, 0x00, 0x00,
  0x00, 0x00, 0x00, 0x00, 0x00, 0x00, 0x00, 0x00, 0x00, 0x00, 0x00, 0x00,
  0x00, 0x00, 0x00, 0x00, 0x00, 0x00, 0x00, 0x00, 0x00, 0x00, 0x00, 0x00,
  0x00, 0x00, 0x00, 0x00, 0x00, 0x00, 0x00, 0x00, 0x00, 0x00, 0x00, 0x00,
  0x00, 0x00, 0x00, 0x00, 0x00, 0x00, 0x00, 0x00, 0x00, 0x00, 0x00, 0x00,
  0x00, 0x00, 0x00, 0x00, 0x00, 0x00, 0x00, 0x00, 0x00, 0x00, 0x00, 0x00,
  0x00, 0x00, 0x00, 0x00, 0x00, 0x00, 0x00, 0x00, 0x00, 0x00, 0x00, 0x00,
  0x10, 0x00, 0x00, 0x00, 0x8b, 0xee, 0x51, 0x39, 0x8b, 0xe3, 0xe7, 0x38,
  0xf2, 0x3a, 0x3a, 0x39, 0xcb, 0xf2, 0x8c, 0x39, 0x0b, 0x03, 0x29, 0x39,
  0x5d, 0x16, 0xc5, 0x38, 0xb8, 0x8d, 0x60, 0x39, 0x78, 0x22, 0x2d, 0x39,
  0xce, 0xc8, 0xd4, 0x38, 0xc6, 0x14, 0x9c, 0x39, 0xbf, 0x70, 0xd7, 0x38,
  0x29, 0x92, 0x51, 0x39, 0x45, 0x8d, 0x12, 0x39, 0x26, 0x17, 0x0d, 0x39,
  0x83, 0x89, 0x2e, 0x39, 0x3d, 0xb5, 0x40, 0x39, 0x12, 0x00, 0x00, 0x00,
  0x74, 0x66, 0x6c, 0x2e, 0x70, 0x73, 0x65, 0x75, 0x64, 0x6f, 0x5f, 0x71,
  0x63, 0x6f, 0x6e, 0x73, 0x74, 0x34, 0x00, 0x00, 0x01, 0x00, 0x00, 0x00,
  0x10, 0x00, 0x00, 0x00, 0xd2, 0xf9, 0xff, 0xff, 0x00, 0x00, 0x00, 0x01,
  0x14, 0x00, 0x00, 0x00, 0xa8, 0x01, 0x00, 0x00, 0x0d, 0x00, 0x00, 0x00,
  0x00, 0x00, 0x00, 0x09, 0xb4, 0x01, 0x00, 0x00, 0x54, 0xf9, 0xff, 0xff,
  0x08, 0x00, 0x00, 0x00, 0x0c, 0x01, 0x00, 0x00, 0x20, 0x00, 0x00, 0x00,
  0x00, 0x00, 0x00, 0x00, 0x00, 0x00, 0x00, 0x00, 0x00, 0x00, 0x00, 0x00,
  0x00, 0x00, 0x00, 0x00, 0x00, 0x00, 0x00, 0x00, 0x00, 0x00, 0x00, 0x00,
  0x00, 0x00, 0x00, 0x00, 0x00, 0x00, 0x00, 0x00, 0x00, 0x00, 0x00, 0x00,
  0x00, 0x00, 0x00, 0x00, 0x00, 0x00, 0x00, 0x00, 0x00, 0x00, 0x00, 0x00,
  0x00, 0x00, 0x00, 0x00, 0x00, 0x00, 0x00, 0x00, 0x00, 0x00, 0x00, 0x00,
  0x00, 0x00, 0x00, 0x00, 0x00, 0x00, 0x00, 0x00, 0x00, 0x00, 0x00, 0x00,
  0x00, 0x00, 0x00, 0x00, 0x00, 0x00, 0x00, 0x00, 0x00, 0x00, 0x00, 0x00,
  0x00, 0x00, 0x00, 0x00, 0x00, 0x00, 0x00, 0x00, 0x00, 0x00, 0x00, 0x00,
  0x00, 0x00, 0x00, 0x00, 0x00, 0x00, 0x00, 0x00, 0x00, 0x00, 0x00, 0x00,
  0x00, 0x00, 0x00, 0x00, 0x00, 0x00, 0x00, 0x00, 0x00, 0x00, 0x00, 0x00,
  0x00, 0x00, 0x00, 0x00, 0x00, 0x00, 0x00, 0x00, 0x00, 0x00, 0x00, 0x00,
  0x00, 0x00, 0x00, 0x00, 0x00, 0x00, 0x00, 0x00, 0x00, 0x00, 0x00, 0x00,
  0x00, 0x00, 0x00, 0x00, 0x00, 0x00, 0x00, 0x00, 0x00, 0x00, 0x00, 0x00,
  0x00, 0x00, 0x00, 0x00, 0x00, 0x00, 0x00, 0x00, 0x00, 0x00, 0x00, 0x00,
  0x00, 0x00, 0x00, 0x00, 0x00, 0x00, 0x00, 0x00, 0x00, 0x00, 0x00, 0x00,
  0x00, 0x00, 0x00, 0x00, 0x00, 0x00, 0x00, 0x00, 0x00, 0x00, 0x00, 0x00,
  0x00, 0x00, 0x00, 0x00, 0x00, 0x00, 0x00, 0x00, 0x00, 0x00, 0x00, 0x00,
  0x00, 0x00, 0x00, 0x00, 0x00, 0x00, 0x00, 0x00, 0x00, 0x00, 0x00, 0x00,
  0x00, 0x00, 0x00, 0x00, 0x00, 0x00, 0x00, 0x00, 0x00, 0x00, 0x00, 0x00,
  0x00, 0x00, 0x00, 0x00, 0x00, 0x00, 0x00, 0x00, 0x00, 0x00, 0x00, 0x00,
  0x00, 0x00, 0x00, 0x00, 0x00, 0x00, 0x00, 0x00, 0x00, 0x00, 0x00, 0x00,
  0x00, 0x00, 0x00, 0x00, 0x00, 0x00, 0x00, 0x00, 0x20, 0x00, 0x00, 0x00,
  0x9b, 0xf2, 0x9b, 0x3b, 0x58, 0x70, 0x98, 0x3b, 0x83, 0xdc, 0x87, 0x3b,
  0x90, 0xf8, 0xac, 0x3b, 0xd5, 0xd7, 0x88, 0x3b, 0x16, 0xbc, 0xbb, 0x3b,
  0x61, 0x07, 0x9f, 0x3b, 0x67, 0xfe, 0xac, 0x3b, 0x9a, 0x56, 0xa9, 0x3b,
  0x95, 0x0b, 0xbf, 0x3b, 0xa0, 0x01, 0x90, 0x3b, 0xc6, 0x90, 0x9f, 0x3b,
  0xc4, 0x21, 0xd7, 0x3b, 0x7a, 0xec, 0xbf, 0x3b, 0xe4, 0x92, 0xac, 0x3b,
  0x8f, 0x20, 0xb7, 0x3b, 0xf1, 0xf5, 0xbc, 0x3b, 0xdd, 0x13, 0xb5, 0x3b,
  0x62, 0x40, 0x92, 0x3b, 0x9a, 0x6a, 0xb5, 0x3b, 0xff, 0xac, 0x8e, 0x3b,
  0x9d, 0x59, 0xae, 0x3b, 0x4a, 0xd4, 0xbf, 0x3b, 0x7b, 0x7d, 0x8d, 0x3b,
  0xe1, 0xa9, 0x80, 0x3b, 0xc3, 0x0a, 0x21, 0x3c, 0x8f, 0x3b, 0xc0, 0x3b,
  0x16, 0xde, 0x95, 0x3b, 0x5c, 0x6c, 0xaa, 0x3b, 0xce, 0x84, 0xdb, 0x3b,
  0xb0, 0x30, 0x0b, 0x3c, 0x55, 0x5d, 0x90, 0x3b, 0x12, 0x00, 0x00, 0x00,
  0x74, 0x66, 0x6c, 0x2e, 0x70, 0x73, 0x65, 0x75, 0x64, 0x6f, 0x5f, 0x71,
  0x63, 0x6f, 0x6e, 0x73, 0x74, 0x33, 0x00, 0x00, 0x04, 0x00, 0x00, 0x00,
  0x20, 0x00, 0x00, 0x00, 0x01, 0x00, 0x00, 0x00, 0x03, 0x00, 0x00, 0x00,
  0x10, 0x00, 0x00, 0x00, 0xb2, 0xfb, 0xff, 0xff, 0x00, 0x00, 0x00, 0x01,
  0x14, 0x00, 0x00, 0x00, 0xa4, 0x01, 0x00, 0x00, 0x0c, 0x00, 0x00, 0x00,
  0x00, 0x00, 0x00, 0x02, 0xb0, 0x01, 0x00, 0x00, 0x34, 0xfb, 0xff, 0xff,
  0x08, 0x00, 0x00, 0x00, 0x08, 0x01, 0x00, 0x00, 0x20, 0x00, 0x00, 0x00,
  0x00, 0x00, 0x00, 0x00, 0x00, 0x00, 0x00, 0x00, 0x00, 0x00, 0x00, 0x00,
  0x00, 0x00, 0x00, 0x00, 0x00, 0x00, 0x00, 0x00, 0x00, 0x00, 0x00, 0x00,
  0x00, 0x00, 0x00, 0x00, 0x00, 0x00, 0x00, 0x00, 0x00, 0x00, 0x00, 0x00,
  0x00, 0x00, 0x00, 0x00, 0x00, 0x00, 0x00, 0x00, 0x00, 0x00, 0x00, 0x00,
  0x00, 0x00, 0x00, 0x00, 0x00, 0x00, 0x00, 0x00, 0x00, 0x00, 0x00, 0x00,
  0x00, 0x00, 0x00, 0x00, 0x00, 0x00, 0x00, 0x00, 0x00, 0x00, 0x00, 0x00,
  0x00, 0x00, 0x00, 0x00, 0x00, 0x00, 0x00, 0x00, 0x00, 0x00, 0x00, 0x00,
  0x00, 0x00, 0x00, 0x00, 0x00, 0x00, 0x00, 0x00, 0x00, 0x00, 0x00, 0x00,
  0x00, 0x00, 0x00, 0x00, 0x00, 0x00, 0x00, 0x00, 0x00, 0x00, 0x00, 0x00,
  0x00, 0x00, 0x00, 0x00, 0x00, 0x00, 0x00, 0x00, 0x00, 0x00, 0x00, 0x00,
  0x00, 0x00, 0x00, 0x00, 0x00, 0x00, 0x00, 0x00, 0x00, 0x00, 0x00, 0x00,
  0x00, 0x00, 0x00, 0x00, 0x00, 0x00, 0x00, 0x00, 0x00, 0x00, 0x00, 0x00,
  0x00, 0x00, 0x00, 0x00, 0x00, 0x00, 0x00, 0x00, 0x00, 0x00, 0x00, 0x00,
  0x00, 0x00, 0x00, 0x00, 0x00, 0x00, 0x00, 0x00, 0x00, 0x00, 0x00, 0x00,
  0x00, 0x00, 0x00, 0x00, 0x00, 0x00, 0x00, 0x00, 0x00, 0x00, 0x00, 0x00,
  0x00, 0x00, 0x00, 0x00, 0x00, 0x00, 0x00, 0x00, 0x00, 0x00, 0x00, 0x00,
  0x00, 0x00, 0x00, 0x00, 0x00, 0x00, 0x00, 0x00, 0x00, 0x00, 0x00, 0x00,
  0x00, 0x00, 0x00, 0x00, 0x00, 0x00, 0x00, 0x00, 0x00, 0x00, 0x00, 0x00,
  0x00, 0x00, 0x00, 0x00, 0x00, 0x00, 0x00, 0x00, 0x00, 0x00, 0x00, 0x00,
  0x00, 0x00, 0x00, 0x00, 0x00, 0x00, 0x00, 0x00, 0x00, 0x00, 0x00, 0x00,
  0x00, 0x00, 0x00, 0x00, 0x00, 0x00, 0x00, 0x00, 0x00, 0x00, 0x00, 0x00,
  0x00, 0x00, 0x00, 0x00, 0x20, 0x00, 0x00, 0x00, 0xb8, 0x2e, 0x21, 0x39,
  0x4e, 0x8e, 0x1d, 0x39, 0x04, 0x6c, 0x0c, 0x39, 0xf7, 0xc6, 0x32, 0x39,
  0xc6, 0x6f, 0x0d, 0x39, 0x5b, 0x09, 0x42, 0x39, 0xf8, 0x5d, 0x24, 0x39,
  0x00, 0xcd, 0x32, 0x39, 0xc9, 0x05, 0x2f, 0x39, 0x4d, 0x75, 0x45, 0x39,
  0x1f, 0xd7, 0x14, 0x39, 0xfa, 0xeb, 0x24, 0x39, 0x78, 0x5a, 0x5e, 0x39,
  0xbf, 0x5d, 0x46, 0x39, 0xe1, 0x5d, 0x32, 0x39, 0x3c, 0x46, 0x3d, 0x39,
  0xbf, 0x4d, 0x43, 0x39, 0xed, 0x27, 0x3b, 0x39, 0x2c, 0x29, 0x17, 0x39,
  0x94, 0x81, 0x3b, 0x39, 0x0f, 0x77, 0x13, 0x39, 0xdd, 0x33, 0x34, 0x39,
  0xbf, 0x44, 0x46, 0x39, 0x5b, 0x3d, 0x12, 0x39, 0x88, 0xfb, 0x04, 0x39,
  0xa7, 0x72, 0xa6, 0x39, 0x7b, 0xaf, 0x46, 0x39, 0xf3, 0xe5, 0x1a, 0x39,
  0xde, 0x24, 0x30, 0x39, 0x35, 0xe3, 0x62, 0x39, 0xcc, 0xdc, 0x8f, 0x39,
  0xe8, 0x35, 0x15, 0x39, 0x12, 0x00, 0x00, 0x00, 0x74, 0x66, 0x6c, 0x2e,
  0x70, 0x73, 0x65, 0x75, 0x64, 0x6f, 0x5f, 0x71, 0x63, 0x6f, 0x6e, 0x73,
  0x74, 0x32, 0x00, 0x00, 0x01, 0x00, 0x00, 0x00, 0x20, 0x00, 0x00, 0x00,
  0x82, 0xfd, 0xff, 0xff, 0x00, 0x00, 0x00, 0x01, 0x14, 0x00, 0x00, 0x00,
  0x40, 0x00, 0x00, 0x00, 0x0b, 0x00, 0x00, 0x00, 0x00, 0x00, 0x00, 0x09,
  0x4c, 0x00, 0x00, 0x00, 0x04, 0xfd, 0xff, 0xff, 0x08, 0x00, 0x00, 0x00,
  0x1c, 0x00, 0x00, 0x00, 0x02, 0x00, 0x00, 0x00, 0x00, 0x00, 0x00, 0x00,
  0x00, 0x00, 0x00, 0x00, 0x00, 0x00, 0x00, 0x00, 0x00, 0x00, 0x00, 0x00,
  0x00, 0x00, 0x00, 0x00, 0x02, 0x00, 0x00, 0x00, 0xec, 0xec, 0x6d, 0x3b,
  0x69, 0x0f, 0x93, 0x3b, 0x12, 0x00, 0x00, 0x00, 0x74, 0x66, 0x6c, 0x2e,
  0x70, 0x73, 0x65, 0x75, 0x64, 0x6f, 0x5f, 0x71, 0x63, 0x6f, 0x6e, 0x73,
  0x74, 0x31, 0x00, 0x00, 0x02, 0x00, 0x00, 0x00, 0x02, 0x00, 0x00, 0x00,
  0x20, 0x00, 0x00, 0x00, 0xf2, 0xfd, 0xff, 0xff, 0x00, 0x00, 0x00, 0x01,
  0x14, 0x00, 0x00, 0x00, 0x40, 0x00, 0x00, 0x00, 0x0a, 0x00, 0x00, 0x00,
  0x00, 0x00, 0x00, 0x02, 0x4c, 0x00, 0x00, 0x00, 0x74, 0xfd, 0xff, 0xff,
  0x08, 0x00, 0x00, 0x00, 0x1c, 0x00, 0x00, 0x00, 0x02, 0x00, 0x00, 0x00,
  0x00, 0x00, 0x00, 0x00, 0x00, 0x00, 0x00, 0x00, 0x00, 0x00, 0x00, 0x00,
  0x00, 0x00, 0x00, 0x00, 0x00, 0x00, 0x00, 0x00, 0x02, 0x00, 0x00, 0x00,
  0x0a, 0x21, 0x02, 0x38, 0x25, 0xdd, 0x20, 0x38, 0x11, 0x00, 0x00, 0x00,
  0x74, 0x66, 0x6c, 0x2e, 0x70, 0x73, 0x65, 0x75, 0x64, 0x6f, 0x5f, 0x71,
  0x63, 0x6f, 0x6e, 0x73, 0x74, 0x00, 0x00, 0x00, 0x01, 0x00, 0x00, 0x00,
  0x02, 0x00, 0x00, 0x00, 0x5e, 0xfe, 0xff, 0xff, 0x00, 0x00, 0x00, 0x01,
  0x14, 0x00, 0x00, 0x00, 0x14, 0x00, 0x00, 0x00, 0x09, 0x00, 0x00, 0x00,
  0x00, 0x00, 0x00, 0x02, 0x1c, 0x00, 0x00, 0x00, 0x48, 0xfe, 0xff, 0xff,
  0x0f, 0x00, 0x00, 0x00, 0x61, 0x72, 0x69, 0x74, 0x68, 0x2e, 0x63, 0x6f,
  0x6e, 0x73, 0x74, 0x61, 0x6e, 0x74, 0x37, 0x00, 0x01, 0x00, 0x00, 0x00,
  0x03, 0x00, 0x00, 0x00, 0x9a, 0xfe, 0xff, 0xff, 0x00, 0x00, 0x00, 0x01,
  0x14, 0x00, 0x00, 0x00, 0x14, 0x00, 0x00, 0x00, 0x08, 0x00, 0x00, 0x00,
  0x00, 0x00, 0x00, 0x02, 0x1c, 0x00, 0x00, 0x00, 0x84, 0xfe, 0xff, 0xff,
  0x0f, 0x00, 0x00, 0x00, 0x61, 0x72, 0x69, 0x74, 0x68, 0x2e, 0x63, 0x6f,
  0x6e, 0x73, 0x74, 0x61, 0x6e, 0x74, 0x36, 0x00, 0x01, 0x00, 0x00, 0x00,
  0x03, 0x00, 0x00, 0x00, 0xd6, 0xfe, 0xff, 0xff, 0x00, 0x00, 0x00, 0x01,
  0x14, 0x00, 0x00, 0x00, 0x14, 0x00, 0x00, 0x00, 0x07, 0x00, 0x00, 0x00,
  0x00, 0x00, 0x00, 0x02, 0x1c, 0x00, 0x00, 0x00, 0xc0, 0xfe, 0xff, 0xff,
  0x0f, 0x00, 0x00, 0x00, 0x61, 0x72, 0x69, 0x74, 0x68, 0x2e, 0x63, 0x6f,
  0x6e, 0x73, 0x74, 0x61, 0x6e, 0x74, 0x35, 0x00, 0x01, 0x00, 0x00, 0x00,
  0x03, 0x00, 0x00, 0x00, 0x12, 0xff, 0xff, 0xff, 0x00, 0x00, 0x00, 0x01,
  0x14, 0x00, 0x00, 0x00, 0x14, 0x00, 0x00, 0x00, 0x06, 0x00, 0x00, 0x00,
  0x00, 0x00, 0x00, 0x02, 0x1c, 0x00, 0x00, 0x00, 0xfc, 0xfe, 0xff, 0xff,
  0x0f, 0x00, 0x00, 0x00, 0x61, 0x72, 0x69, 0x74, 0x68, 0x2e, 0x63, 0x6f,
  0x6e, 0x73, 0x74, 0x61, 0x6e, 0x74, 0x34, 0x00, 0x01, 0x00, 0x00, 0x00,
  0x03, 0x00, 0x00, 0x00, 0x4e, 0xff, 0xff, 0xff, 0x00, 0x00, 0x00, 0x01,
  0x14, 0x00, 0x00, 0x00, 0x14, 0x00, 0x00, 0x00, 0x05, 0x00, 0x00, 0x00,
  0x00, 0x00, 0x00, 0x02, 0x1c, 0x00, 0x00, 0x00, 0x38, 0xff, 0xff, 0xff,
  0x0f, 0x00, 0x00, 0x00, 0x61, 0x72, 0x69, 0x74, 0x68, 0x2e, 0x63, 0x6f,
  0x6e, 0x73, 0x74, 0x61, 0x6e, 0x74, 0x33, 0x00, 0x01, 0x00, 0x00, 0x00,
  0x03, 0x00, 0x00, 0x00, 0x8a, 0xff, 0xff, 0xff, 0x00, 0x00, 0x00, 0x01,
  0x14, 0x00, 0x00, 0x00, 0x14, 0x00, 0x00, 0x00, 0x04, 0x00, 0x00, 0x00,
  0x00, 0x00, 0x00, 0x02, 0x1c, 0x00, 0x00, 0x00, 0x74, 0xff, 0xff, 0xff,
  0x0f, 0x00, 0x00, 0x00, 0x61, 0x72, 0x69, 0x74, 0x68, 0x2e, 0x63, 0x6f,
  0x6e, 0x73, 0x74, 0x61, 0x6e, 0x74, 0x32, 0x00, 0x00, 0x00, 0x00, 0x00,
  0xc2, 0xff, 0xff, 0xff, 0x00, 0x00, 0x00, 0x01, 0x14, 0x00, 0x00, 0x00,
  0x14, 0x00, 0x00, 0x00, 0x03, 0x00, 0x00, 0x00, 0x00, 0x00, 0x00, 0x02,
  0x1c, 0x00, 0x00, 0x00, 0xac, 0xff, 0xff, 0xff, 0x0f, 0x00, 0x00, 0x00,
  0x61, 0x72, 0x69, 0x74, 0x68, 0x2e, 0x63, 0x6f, 0x6e, 0x73, 0x74, 0x61,
  0x6e, 0x74, 0x31, 0x00, 0x01, 0x00, 0x00, 0x00, 0x03, 0x00, 0x00, 0x00,
  0x00, 0x00, 0x16, 0x00, 0x1c, 0x00, 0x18, 0x00, 0x17, 0x00, 0x10, 0x00,
  0x0c, 0x00, 0x08, 0x00, 0x00, 0x00, 0x00, 0x00, 0x00, 0x00, 0x07, 0x00,
  0x16, 0x00, 0x00, 0x00, 0x00, 0x00, 0x00, 0x01, 0x18, 0x00, 0x00, 0x00,
  0x18, 0x00, 0x00, 0x00, 0x02, 0x00, 0x00, 0x00, 0x00, 0x00, 0x00, 0x02,
  0x20, 0x00, 0x00, 0x00, 0x04, 0x00, 0x04, 0x00, 0x04, 0x00, 0x00, 0x00,
  0x0e, 0x00, 0x00, 0x00, 0x61, 0x72, 0x69, 0x74, 0x68, 0x2e, 0x63, 0x6f,
  0x6e, 0x73, 0x74, 0x61, 0x6e, 0x74, 0x00, 0x00, 0x00, 0x00, 0x00, 0x00,
  0x00, 0x00, 0x16, 0x00, 0x20, 0x00, 0x1c, 0x00, 0x1b, 0x00, 0x14, 0x00,
  0x10, 0x00, 0x0c, 0x00, 0x00, 0x00, 0x00, 0x00, 0x08, 0x00, 0x07, 0x00,
  0x16, 0x00, 0x00, 0x00, 0x00, 0x00, 0x00, 0x01, 0x18, 0x00, 0x00, 0x00,
  0x30, 0x00, 0x00, 0x00, 0x50, 0x00, 0x00, 0x00, 0x01, 0x00, 0x00, 0x00,
  0x00, 0x00, 0x00, 0x09, 0x68, 0x00, 0x00, 0x00, 0x03, 0x00, 0x00, 0x00,
  0xff, 0xff, 0xff, 0xff, 0xe8, 0x03, 0x00, 0x00, 0x04, 0x00, 0x00, 0x00,
  0x0c, 0x00, 0x0c, 0x00, 0x00, 0x00, 0x00, 0x00, 0x08, 0x00, 0x04, 0x00,
  0x0c, 0x00, 0x00, 0x00, 0x08, 0x00, 0x00, 0x00, 0x14, 0x00, 0x00, 0x00,
  0x01, 0x00, 0x00, 0x00, 0x0b, 0x00, 0x00, 0x00, 0x00, 0x00, 0x00, 0x00,
  0x00, 0x00, 0x00, 0x00, 0x01, 0x00, 0x00, 0x00, 0x1c, 0x42, 0x00, 0x3e,
  0x1e, 0x00, 0x00, 0x00, 0x73, 0x65, 0x72, 0x76, 0x69, 0x6e, 0x67, 0x5f,
  0x64, 0x65, 0x66, 0x61, 0x75, 0x6c, 0x74, 0x5f, 0x6b, 0x65, 0x72, 0x61,
  0x73, 0x5f, 0x74, 0x65, 0x6e, 0x73, 0x6f, 0x72, 0x3a, 0x30, 0x00, 0x00,
  0x03, 0x00, 0x00, 0x00, 0x01, 0x00, 0x00, 0x00, 0xe8, 0x03, 0x00, 0x00,
  0x04, 0x00, 0x00, 0x00, 0x07, 0x00, 0x00, 0x00, 0x90, 0x00, 0x00, 0x00,
  0x70, 0x00, 0x00, 0x00, 0x54, 0x00, 0x00, 0x00, 0x40, 0x00, 0x00, 0x00,
  0x2c, 0x00, 0x00, 0x00, 0x18, 0x00, 0x00, 0x00, 0x04, 0x00, 0x00, 0x00,
  0xb4, 0xff, 0xff, 0xff, 0x19, 0x00, 0x00, 0x00, 0x02, 0x00, 0x00, 0x00,
  0x00, 0x00, 0x00, 0x19, 0xc4, 0xff, 0xff, 0xff, 0x09, 0x00, 0x00, 0x00,
  0x04, 0x00, 0x00, 0x00, 0x00, 0x00, 0x00, 0x09, 0xd4, 0xff, 0xff, 0xff,
  0x28, 0x00, 0x00, 0x00, 0x02, 0x00, 0x00, 0x00, 0x00, 0x00, 0x00, 0x28,
  0xe4, 0xff, 0xff, 0xff, 0x11, 0x00, 0x00, 0x00, 0x02, 0x00, 0x00, 0x00,
  0x00, 0x00, 0x00, 0x11, 0xd8, 0xff, 0xff, 0xff, 0x16, 0x00, 0x00, 0x00,
  0x00, 0x00, 0x00, 0x16, 0x0c, 0x00, 0x10, 0x00, 0x0f, 0x00, 0x00, 0x00,
  0x08, 0x00, 0x04, 0x00, 0x0c, 0x00, 0x00, 0x00, 0x03, 0x00, 0x00, 0x00,
  0x03, 0x00, 0x00, 0x00, 0x00, 0x00, 0x00, 0x03, 0x0c, 0x00, 0x0c, 0x00,
  0x0b, 0x00, 0x00, 0x00, 0x00, 0x00, 0x04, 0x00, 0x0c, 0x00, 0x00, 0x00,
  0x46, 0x00, 0x00, 0x00, 0x00, 0x00, 0x00, 0x46
};
unsigned int g_stress_model_data_len = 12272;
