#pragma once

// COPY THE CONTENT OF 'stress_model.h' GENERATED BY COLAB HERE
// Example structure:
const unsigned char g_stress_model_data[] __attribute__((aligned(16))) = {
0x20, 0x00, 0x00, 0x00, 0x54, 0x46, 0x4c, 0x33, 0x00, 0x00, 0x00, 0x00,
  0x14, 0x00, 0x20, 0x00, 0x1c, 0x00, 0x18, 0x00, 0x14, 0x00, 0x10, 0x00,
  0x0c, 0x00, 0x00, 0x00, 0x08, 0x00, 0x04, 0x00, 0x14, 0x00, 0x00, 0x00,
  0x1c, 0x00, 0x00, 0x00, 0x8c, 0x00, 0x00, 0x00, 0x0c, 0x01, 0x00, 0x00,
  0xac, 0x0e, 0x00, 0x00, 0xbc, 0x0e, 0x00, 0x00, 0x60, 0x2f, 0x00, 0x00,
  0x03, 0x00, 0x00, 0x00, 0x01, 0x00, 0x00, 0x00, 0x04, 0x00, 0x00, 0x00,
  0x46, 0xed, 0xff, 0xff, 0x0c, 0x00, 0x00, 0x00, 0x1c, 0x00, 0x00, 0x00,
  0x3c, 0x00, 0x00, 0x00, 0x0f, 0x00, 0x00, 0x00, 0x73, 0x65, 0x72, 0x76,
  0x69, 0x6e, 0x67, 0x5f, 0x64, 0x65, 0x66, 0x61, 0x75, 0x6c, 0x74, 0x00,
  0x01, 0x00, 0x00, 0x00, 0x04, 0x00, 0x00, 0x00, 0x68, 0xff, 0xff, 0xff,
  0x25, 0x00, 0x00, 0x00, 0x04, 0x00, 0x00, 0x00, 0x08, 0x00, 0x00, 0x00,
  0x6f, 0x75, 0x74, 0x70, 0x75, 0x74, 0x5f, 0x30, 0x00, 0x00, 0x00, 0x00,
  0x01, 0x00, 0x00, 0x00, 0x04, 0x00, 0x00, 0x00, 0xfa, 0xf0, 0xff, 0xff,
  0x04, 0x00, 0x00, 0x00, 0x0f, 0x00, 0x00, 0x00, 0x6b, 0x65, 0x72, 0x61,
  0x73, 0x5f, 0x74, 0x65, 0x6e, 0x73, 0x6f, 0x72, 0x5f, 0x33, 0x31, 0x00,
  0x03, 0x00, 0x00, 0x00, 0x5c, 0x00, 0x00, 0x00, 0x2c, 0x00, 0x00, 0x00,
  0x04, 0x00, 0x00, 0x00, 0xb8, 0xff, 0xff, 0xff, 0x29, 0x00, 0x00, 0x00,
  0x04, 0x00, 0x00, 0x00, 0x13, 0x00, 0x00, 0x00, 0x43, 0x4f, 0x4e, 0x56,
  0x45, 0x52, 0x53, 0x49, 0x4f, 0x4e, 0x5f, 0x4d, 0x45, 0x54, 0x41, 0x44,
  0x41, 0x54, 0x41, 0x00, 0xdc, 0xff, 0xff, 0xff, 0x28, 0x00, 0x00, 0x00,
  0x04, 0x00, 0x00, 0x00, 0x13, 0x00, 0x00, 0x00, 0x6d, 0x69, 0x6e, 0x5f,
  0x72, 0x75, 0x6e, 0x74, 0x69, 0x6d, 0x65, 0x5f, 0x76, 0x65, 0x72, 0x73,
  0x69, 0x6f, 0x6e, 0x00, 0x08, 0x00, 0x0c, 0x00, 0x08, 0x00, 0x04, 0x00,
  0x08, 0x00, 0x00, 0x00, 0x27, 0x00, 0x00, 0x00, 0x04, 0x00, 0x00, 0x00,
  0x13, 0x00, 0x00, 0x00, 0x6d, 0x69, 0x6e, 0x5f, 0x72, 0x75, 0x6e, 0x74,
  0x69, 0x6d, 0x65, 0x5f, 0x76, 0x65, 0x72, 0x73, 0x69, 0x6f, 0x6e, 0x00,
  0x2a, 0x00, 0x00, 0x00, 0x9c, 0x0d, 0x00, 0x00, 0x94, 0x0d, 0x00, 0x00,
  0x80, 0x0d, 0x00, 0x00, 0x64, 0x0d, 0x00, 0x00, 0x50, 0x0d, 0x00, 0x00,
  0x34, 0x0d, 0x00, 0x00, 0x18, 0x0d, 0x00, 0x00, 0xfc, 0x0c, 0x00, 0x00,
  0xe0, 0x0c, 0x00, 0x00, 0xc4, 0x0c, 0x00, 0x00, 0xac, 0x0c, 0x00, 0x00,
  0x5c, 0x0c, 0x00, 0x00, 0xcc, 0x0b, 0x00, 0x00, 0xbc, 0x05, 0x00, 0x00,
  0x6c, 0x05, 0x00, 0x00, 0xdc, 0x02, 0x00, 0x00, 0xac, 0x02, 0x00, 0x00,
  0x5c, 0x01, 0x00, 0x00, 0x54, 0x01, 0x00, 0x00, 0x4c, 0x01, 0x00, 0x00,
  0x44, 0x01, 0x00, 0x00, 0x3c, 0x01, 0x00, 0x00, 0x34, 0x01, 0x00, 0x00,
  0x2c, 0x01, 0x00, 0x00, 0x24, 0x01, 0x00, 0x00, 0x1c, 0x01, 0x00, 0x00,
  0x14, 0x01, 0x00, 0x00, 0x0c, 0x01, 0x00, 0x00, 0x04, 0x01, 0x00, 0x00,
  0xfc, 0x00, 0x00, 0x00, 0xf4, 0x00, 0x00, 0x00, 0xec, 0x00, 0x00, 0x00,
  0xe4, 0x00, 0x00, 0x00, 0xdc, 0x00, 0x00, 0x00, 0xd4, 0x00, 0x00, 0x00,
  0xcc, 0x00, 0x00, 0x00, 0xc4, 0x00, 0x00, 0x00, 0xbc, 0x00, 0x00, 0x00,
  0xb4, 0x00, 0x00, 0x00, 0x94, 0x00, 0x00, 0x00, 0x74, 0x00, 0x00, 0x00,
  0x04, 0x00, 0x00, 0x00, 0x46, 0xf2, 0xff, 0xff, 0x04, 0x00, 0x00, 0x00,
  0x60, 0x00, 0x00, 0x00, 0x0c, 0x00, 0x00, 0x00, 0x08, 0x00, 0x0e, 0x00,
  0x08, 0x00, 0x04, 0x00, 0x08, 0x00, 0x00, 0x00, 0x10, 0x00, 0x00, 0x00,
  0x28, 0x00, 0x00, 0x00, 0x00, 0x00, 0x06, 0x00, 0x08, 0x00, 0x04, 0x00,
  0x06, 0x00, 0x00, 0x00, 0x04, 0x00, 0x00, 0x00, 0x01, 0x00, 0x00, 0x00,
  0xeb, 0x03, 0x00, 0x00, 0x0c, 0x00, 0x18, 0x00, 0x14, 0x00, 0x10, 0x00,
  0x0c, 0x00, 0x04, 0x00, 0x0c, 0x00, 0x00, 0x00, 0xb2, 0x88, 0x28, 0xdc,
  0x47, 0xec, 0x25, 0x50, 0x02, 0x00, 0x00, 0x00, 0x02, 0x00, 0x00, 0x00,
  0x04, 0x00, 0x00, 0x00, 0x06, 0x00, 0x00, 0x00, 0x32, 0x2e, 0x31, 0x39,
  0x2e, 0x30, 0x00, 0x00, 0xb2, 0xf2, 0xff, 0xff, 0x04, 0x00, 0x00, 0x00,
  0x10, 0x00, 0x00, 0x00, 0x00, 0x00, 0x00, 0x00, 0x00, 0x00, 0x00, 0x00,
  0x00, 0x00, 0x00, 0x00, 0x00, 0x00, 0x00, 0x00, 0xce, 0xf2, 0xff, 0xff,
  0x04, 0x00, 0x00, 0x00, 0x10, 0x00, 0x00, 0x00, 0x31, 0x2e, 0x31, 0x34,
  0x2e, 0x30, 0x00, 0x00, 0x00, 0x00, 0x00, 0x00, 0x00, 0x00, 0x00, 0x00,
  0xbc, 0xd3, 0xff, 0xff, 0xc0, 0xd3, 0xff, 0xff, 0xc4, 0xd3, 0xff, 0xff,
  0xc8, 0xd3, 0xff, 0xff, 0xcc, 0xd3, 0xff, 0xff, 0xd0, 0xd3, 0xff, 0xff,
  0xd4, 0xd3, 0xff, 0xff, 0xd8, 0xd3, 0xff, 0xff, 0xdc, 0xd3, 0xff, 0xff,
  0xe0, 0xd3, 0xff, 0xff, 0xe4, 0xd3, 0xff, 0xff, 0xe8, 0xd3, 0xff, 0xff,
  0xec, 0xd3, 0xff, 0xff, 0xf0, 0xd3, 0xff, 0xff, 0xf4, 0xd3, 0xff, 0xff,
  0xf8, 0xd3, 0xff, 0xff, 0xfc, 0xd3, 0xff, 0xff, 0x00, 0xd4, 0xff, 0xff,
  0x04, 0xd4, 0xff, 0xff, 0x08, 0xd4, 0xff, 0xff, 0x0c, 0xd4, 0xff, 0xff,
  0x3e, 0xf3, 0xff, 0xff, 0x04, 0x00, 0x00, 0x00, 0x40, 0x01, 0x00, 0x00,
  0x51, 0x81, 0x1a, 0x2b, 0x70, 0x60, 0x5f, 0x15, 0x67, 0xda, 0x17, 0x0c,
  0xcb, 0xf8, 0x93, 0xae, 0x03, 0x26, 0x3b, 0x4e, 0x90, 0xcf, 0x0d, 0xda,
  0xa9, 0xf7, 0xc8, 0x0f, 0xb7, 0x5f, 0xf5, 0x05, 0x0d, 0x31, 0xc5, 0xc0,
  0x94, 0xd8, 0xe7, 0x17, 0x0d, 0xe1, 0x13, 0x0b, 0xbb, 0xfe, 0xde, 0xf2,
  0x94, 0xf3, 0x21, 0xe6, 0xd1, 0x45, 0xcc, 0x0a, 0x10, 0x11, 0x34, 0xd5,
  0x81, 0xb6, 0x00, 0x43, 0x92, 0xf8, 0xd8, 0x0e, 0xba, 0x23, 0x35, 0x0d,
  0xe1, 0x16, 0x0d, 0x07, 0x22, 0xff, 0xfb, 0xd3, 0x37, 0x35, 0xcd, 0x4e,
  0x7f, 0x19, 0xcf, 0x00, 0xf7, 0x10, 0x39, 0xb9, 0xfe, 0xfc, 0xdb, 0x48,
  0x5f, 0xdd, 0x09, 0xb1, 0xb8, 0x10, 0xba, 0x06, 0x2f, 0xf2, 0x30, 0xf8,
  0x3c, 0xe1, 0x47, 0xdb, 0xb3, 0xe1, 0xd0, 0xa1, 0x4c, 0xbf, 0x39, 0x0a,
  0xe0, 0x0c, 0xf7, 0xda, 0x5a, 0x24, 0xfe, 0xf0, 0x1e, 0xd4, 0xd7, 0xde,
  0x10, 0x45, 0x41, 0x4e, 0x68, 0x0c, 0x58, 0xbc, 0x6d, 0x09, 0x1a, 0x2c,
  0x4b, 0xdf, 0xd7, 0x01, 0x7f, 0x25, 0x09, 0x3b, 0x32, 0xfc, 0xb3, 0xce,
  0x19, 0x2c, 0x17, 0x32, 0xdd, 0xab, 0x47, 0x24, 0xcf, 0x6a, 0xbf, 0x51,
  0x3f, 0x60, 0x66, 0x5c, 0x4f, 0x2b, 0xd8, 0x43, 0x65, 0xc9, 0xf4, 0x1c,
  0xcc, 0x36, 0x67, 0x7f, 0xa3, 0x0f, 0x9d, 0x67, 0x35, 0xe9, 0x4a, 0x2f,
  0xf1, 0x26, 0x25, 0xf1, 0xd1, 0xf5, 0xe5, 0x09, 0xf7, 0x5d, 0xb3, 0x29,
  0x1a, 0x3d, 0xc4, 0x16, 0xc1, 0x51, 0x19, 0x32, 0xe9, 0xcd, 0xaa, 0x81,
  0xe1, 0xde, 0xe1, 0xca, 0x4c, 0xd5, 0xaa, 0x10, 0x3f, 0x3b, 0xe0, 0xe5,
  0x0e, 0x3b, 0x52, 0x5a, 0xce, 0x33, 0xaa, 0xaf, 0x21, 0x37, 0x10, 0x2e,
  0x37, 0xd9, 0x28, 0xd0, 0x52, 0x05, 0x2f, 0x15, 0xba, 0xb2, 0xeb, 0x25,
  0x33, 0x81, 0xb1, 0x1e, 0xe8, 0x18, 0xae, 0x32, 0xde, 0xb9, 0xcc, 0x33,
  0xcb, 0xbe, 0x47, 0xa1, 0x3c, 0xf6, 0x20, 0xbc, 0x9f, 0x16, 0x09, 0x1e,
  0x2a, 0xc7, 0x1d, 0xb9, 0x16, 0xea, 0x03, 0x2d, 0x4e, 0x09, 0x04, 0xed,
  0x2f, 0xfc, 0xe3, 0xe4, 0x02, 0x14, 0xda, 0x27, 0x36, 0x2b, 0xfb, 0xc9,
  0x01, 0xd1, 0x2b, 0xfc, 0x20, 0xf4, 0xcf, 0xd8, 0x4e, 0xda, 0xcf, 0x0b,
  0x7f, 0x00, 0x18, 0x24, 0x69, 0x1f, 0x2b, 0xf8, 0x8a, 0xf4, 0xff, 0xff,
  0x04, 0x00, 0x00, 0x00, 0x20, 0x00, 0x00, 0x00, 0x95, 0x02, 0x00, 0x00,
  0xf8, 0x00, 0x00, 0x00, 0x64, 0x00, 0x00, 0x00, 0xbd, 0x02, 0x00, 0x00,
  0xb8, 0xfd, 0xff, 0xff, 0x87, 0xfd, 0xff, 0xff, 0xa9, 0x00, 0x00, 0x00,
  0xc8, 0x01, 0x00, 0x00, 0xb6, 0xf4, 0xff, 0xff, 0x04, 0x00, 0x00, 0x00,
  0x80, 0x02, 0x00, 0x00, 0xe2, 0x41, 0xb5, 0xef, 0xfe, 0x1b, 0x0f, 0x98,
  0xc0, 0xe1, 0xa5, 0xce, 0xf6, 0x28, 0x0c, 0x39, 0xea, 0x06, 0xd1, 0xc3,
  0xc0, 0x00, 0xf9, 0x02, 0x26, 0x27, 0x09, 0xf4, 0xc2, 0x39, 0x0b, 0x27,
  0x02, 0x7f, 0xc8, 0x04, 0x30, 0xfd, 0x24, 0x20, 0xa4, 0xb5, 0xf0, 0x23,
  0xd2, 0xb8, 0x59, 0x35, 0x8c, 0x3f, 0x51, 0x40, 0x1f, 0x45, 0x0e, 0x25,
  0x13, 0x3e, 0x34, 0xe5, 0x19, 0x90, 0x9f, 0x24, 0xc5, 0xf8, 0x45, 0xd6,
  0xc5, 0x08, 0xb2, 0x67, 0x1a, 0x81, 0xd7, 0x72, 0x29, 0x72, 0x08, 0xc0,
  0x53, 0x25, 0x21, 0x7b, 0xde, 0x0f, 0xdf, 0x7f, 0x04, 0x5a, 0x17, 0xe2,
  0x0f, 0xd8, 0x3d, 0xf6, 0x04, 0x20, 0xb9, 0x10, 0x1c, 0x0b, 0x03, 0xed,
  0xd6, 0xb3, 0xc1, 0xc8, 0x04, 0xdf, 0x1e, 0x32, 0x8e, 0xb8, 0xf8, 0x63,
  0xcc, 0x29, 0xe5, 0xdb, 0x2a, 0xcd, 0x2e, 0x2e, 0x32, 0x22, 0x13, 0x0c,
  0xc0, 0xf7, 0xf5, 0xac, 0x04, 0x09, 0xac, 0x48, 0x27, 0xe3, 0xb5, 0xf7,
  0x24, 0xe0, 0xde, 0x81, 0x06, 0x98, 0x10, 0xc4, 0x94, 0x01, 0x3b, 0xbf,
  0x20, 0x43, 0x09, 0xcb, 0x24, 0xfb, 0xfb, 0xa1, 0x24, 0xdb, 0xfa, 0xfb,
  0x35, 0x07, 0x0b, 0x3c, 0xb1, 0x81, 0xf5, 0xa9, 0xf2, 0xff, 0xfd, 0xf4,
  0x20, 0xb3, 0x2d, 0xd8, 0x25, 0xff, 0x2b, 0x12, 0x04, 0x0b, 0x41, 0xb4,
  0xfb, 0xc1, 0xeb, 0x54, 0xf5, 0xc2, 0x3a, 0x69, 0xea, 0x0c, 0xec, 0x3d,
  0xdf, 0x12, 0x7f, 0xb1, 0x0b, 0xf2, 0x0d, 0xfb, 0x29, 0x50, 0x2b, 0xec,
  0x3b, 0xdc, 0xe7, 0x01, 0xe2, 0x0a, 0xef, 0x25, 0xc8, 0xb2, 0xd8, 0xe4,
  0x21, 0xdd, 0xe2, 0x1e, 0xf9, 0xbd, 0x15, 0x22, 0x3f, 0x0e, 0x03, 0xf6,
  0xbe, 0x24, 0xbf, 0x15, 0x30, 0x1e, 0x62, 0x7f, 0x0f, 0x09, 0xcf, 0x44,
  0x2a, 0x04, 0xe4, 0xe2, 0x12, 0xd3, 0xd2, 0x4b, 0x08, 0xd5, 0xe1, 0x4d,
  0xed, 0x05, 0x3b, 0x1d, 0x07, 0x9c, 0x0c, 0x3b, 0x2c, 0xd0, 0xe7, 0xe4,
  0x4f, 0x58, 0xe2, 0xbb, 0x05, 0xf3, 0xe3, 0xa8, 0xe4, 0x1c, 0xdd, 0xea,
  0x11, 0xe2, 0xf2, 0xc8, 0xec, 0x4f, 0xf3, 0xda, 0x74, 0x48, 0x0e, 0x94,
  0x13, 0x67, 0xfb, 0x16, 0x22, 0x04, 0xea, 0xa5, 0xd2, 0xf0, 0xd5, 0xa3,
  0xe1, 0x3a, 0xe5, 0xb9, 0xc0, 0x7f, 0xb1, 0x32, 0x47, 0x37, 0x24, 0x39,
  0x04, 0xac, 0xd4, 0x06, 0x9f, 0xe7, 0xde, 0x41, 0xdc, 0xd0, 0x3c, 0xed,
  0x45, 0x42, 0x9c, 0xc2, 0x26, 0xd9, 0xdb, 0xf9, 0x67, 0x39, 0x1f, 0xd8,
  0x4d, 0xac, 0xe9, 0x4b, 0x1f, 0xad, 0x1c, 0xdb, 0xcf, 0xa1, 0x23, 0x04,
  0x7f, 0xf9, 0xc9, 0x03, 0xaf, 0x4a, 0xf9, 0x08, 0x76, 0x24, 0x0f, 0x37,
  0xff, 0xcb, 0xb8, 0x38, 0x09, 0x26, 0xe3, 0xe8, 0x1f, 0x2b, 0xc7, 0x2d,
  0xda, 0x11, 0x18, 0x93, 0x14, 0x23, 0x81, 0xfc, 0x57, 0x0b, 0x33, 0x1b,
  0x18, 0x1e, 0xee, 0xfb, 0x5a, 0x30, 0x28, 0xc6, 0xb5, 0x7f, 0x0c, 0xd7,
  0x2c, 0xfd, 0x15, 0xa4, 0xa0, 0x20, 0xb6, 0xb0, 0x59, 0x23, 0x26, 0x1e,
  0x90, 0x9e, 0x3e, 0xad, 0x46, 0xfb, 0x06, 0xd7, 0xcb, 0xba, 0x15, 0x67,
  0x12, 0x13, 0xb9, 0x5f, 0xdf, 0xd2, 0xff, 0xd6, 0x13, 0xd6, 0xde, 0x50,
  0x09, 0xf7, 0xf4, 0xd2, 0x21, 0x32, 0x33, 0x94, 0xd4, 0xaf, 0xe6, 0xc7,
  0xdf, 0x02, 0x10, 0xef, 0x09, 0x43, 0xd7, 0x81, 0xf0, 0x2f, 0xe4, 0x99,
  0x17, 0x1a, 0x2e, 0xf9, 0x2c, 0x29, 0xe3, 0xa0, 0x16, 0x15, 0xcf, 0x2f,
  0x3d, 0xf4, 0x16, 0x12, 0xac, 0x16, 0xdd, 0xfe, 0xf2, 0x09, 0x09, 0xe8,
  0x81, 0xcf, 0x2e, 0x35, 0xdf, 0xe7, 0x15, 0xe9, 0x06, 0x0a, 0x25, 0xf8,
  0x42, 0x0c, 0xcf, 0x10, 0xf8, 0x07, 0xd0, 0xea, 0xf1, 0x2e, 0xea, 0xe9,
  0x06, 0xbc, 0xae, 0xe9, 0xf7, 0xd3, 0x17, 0x52, 0x00, 0x25, 0xd9, 0xfe,
  0xcd, 0x5b, 0x1a, 0x8f, 0x04, 0x49, 0x0b, 0xb8, 0x1c, 0xf5, 0xde, 0xf3,
  0xfb, 0x0a, 0x0d, 0xc3, 0x02, 0xb5, 0xae, 0x02, 0xfb, 0xcc, 0x04, 0x38,
  0xfc, 0xdc, 0x23, 0x50, 0xe9, 0xa8, 0x7f, 0x2f, 0x39, 0x0e, 0xd7, 0x67,
  0xe9, 0x7f, 0x35, 0x42, 0xb0, 0x1d, 0xb0, 0x19, 0xf4, 0xd7, 0xf3, 0xf5,
  0x38, 0xf3, 0x0f, 0xe6, 0x25, 0xee, 0xd0, 0xb9, 0x2a, 0x20, 0x2a, 0x10,
  0xcb, 0x98, 0xcc, 0xff, 0x42, 0x1f, 0xdc, 0xa6, 0x3c, 0xf7, 0x1b, 0x9a,
  0x59, 0xd0, 0xed, 0x8b, 0x4c, 0x63, 0x24, 0x2b, 0x36, 0xc2, 0xf2, 0xe9,
  0xe0, 0x45, 0x29, 0x19, 0xc5, 0xe1, 0xf4, 0x1d, 0x0f, 0xba, 0x23, 0x1d,
  0x27, 0x35, 0xe7, 0xa9, 0x44, 0xae, 0xe2, 0x81, 0xde, 0xf1, 0xfe, 0xf0,
  0x0a, 0x23, 0x03, 0x94, 0x22, 0xe3, 0x10, 0xd6, 0x42, 0xf7, 0xff, 0xff,
  0x04, 0x00, 0x00, 0x00, 0x40, 0x00, 0x00, 0x00, 0x96, 0x09, 0x00, 0x00,
  0x84, 0xfd, 0xff, 0xff, 0x0a, 0xf6, 0xff, 0xff, 0x67, 0x1b, 0x00, 0x00,
  0x86, 0x01, 0x00, 0x00, 0xec, 0xfa, 0xff, 0xff, 0x52, 0xeb, 0xff, 0xff,
  0x77, 0x0b, 0x00, 0x00, 0x3f, 0x0f, 0x00, 0x00, 0xa7, 0xf1, 0xff, 0xff,
  0x81, 0x17, 0x00, 0x00, 0x7d, 0x18, 0x00, 0x00, 0xe7, 0x12, 0x00, 0x00,
  0xc2, 0x01, 0x00, 0x00, 0x3f, 0x0e, 0x00, 0x00, 0xcc, 0xff, 0xff, 0xff,
  0x8e, 0xf7, 0xff, 0xff, 0x04, 0x00, 0x00, 0x00, 0x00, 0x06, 0x00, 0x00,
  0x33, 0x1b, 0x38, 0xc9, 0xfe, 0xdd, 0x47, 0x03, 0xc6, 0x52, 0x7f, 0xb9,
  0xd9, 0x3c, 0xdb, 0xe0, 0x40, 0xec, 0x34, 0xd8, 0xdb, 0xca, 0x83, 0x14,
  0xf1, 0x59, 0xdc, 0xc1, 0xd4, 0xfb, 0xe7, 0xc5, 0x0f, 0xc5, 0xfe, 0xa7,
  0x0c, 0xf0, 0xdb, 0xde, 0x03, 0x3a, 0x0b, 0xf0, 0x1d, 0xb7, 0xcc, 0xb1,
  0xe1, 0xa1, 0x5f, 0xde, 0x2b, 0xfa, 0x83, 0x07, 0x20, 0x42, 0x16, 0x36,
  0xdc, 0xb4, 0xf1, 0xa8, 0x46, 0x03, 0x33, 0x19, 0xd5, 0xf1, 0x28, 0x19,
  0xc9, 0xc9, 0xfd, 0xff, 0x0a, 0x18, 0x05, 0x81, 0x1c, 0xf3, 0x43, 0xf1,
  0x0d, 0xc4, 0xe7, 0x58, 0xdc, 0xcb, 0x3e, 0x3f, 0x0e, 0xfa, 0xba, 0xeb,
  0x08, 0x60, 0x94, 0xfa, 0xee, 0x55, 0x2b, 0xc8, 0x36, 0x2d, 0xcc, 0x2e,
  0x07, 0xf6, 0x77, 0x6f, 0x90, 0x0f, 0xcb, 0x76, 0x26, 0x51, 0xcd, 0xc2,
  0x05, 0xa8, 0x81, 0xbf, 0x60, 0x2e, 0xf7, 0x64, 0xc9, 0x35, 0xc2, 0xe3,
  0x60, 0x41, 0x09, 0xfa, 0x49, 0xca, 0x2f, 0xfe, 0x4c, 0x05, 0x11, 0xd0,
  0xfc, 0xbe, 0x58, 0xe7, 0x29, 0xf1, 0xb1, 0xcf, 0x46, 0x1f, 0x81, 0xf9,
  0xe9, 0x11, 0xe7, 0x8f, 0x36, 0xda, 0x51, 0xf9, 0x16, 0xcd, 0xdc, 0x2c,
  0xf0, 0x2a, 0xcd, 0x0d, 0xe5, 0x20, 0xc7, 0xca, 0xff, 0xbd, 0x32, 0x1f,
  0xd2, 0xe3, 0xf6, 0x31, 0xf5, 0xe0, 0x06, 0x32, 0xed, 0xe8, 0xe6, 0xcc,
  0x15, 0x1a, 0xc3, 0xec, 0xde, 0xfc, 0xdb, 0x11, 0xeb, 0x0b, 0x15, 0x52,
  0xcb, 0x39, 0xe7, 0x7f, 0xdf, 0x23, 0xcb, 0xe7, 0x14, 0x42, 0xd5, 0x19,
  0x0e, 0xcf, 0xda, 0xf5, 0x37, 0x05, 0x25, 0x2e, 0xe6, 0xc1, 0xcd, 0x4a,
  0x23, 0xff, 0x17, 0x24, 0x05, 0xec, 0xbe, 0x12, 0xf0, 0x27, 0x48, 0x16,
  0xe8, 0x12, 0xad, 0x58, 0x6c, 0x32, 0x55, 0xbe, 0x71, 0x34, 0x8b, 0xd5,
  0xf4, 0x2b, 0x1e, 0x50, 0xea, 0x1a, 0xa2, 0xea, 0xc5, 0x53, 0xaa, 0x81,
  0x3f, 0xe7, 0x00, 0xb0, 0x6d, 0xea, 0xd7, 0x54, 0xd4, 0x48, 0xe2, 0xc1,
  0xf4, 0x65, 0xe4, 0xa1, 0x3e, 0x13, 0x23, 0x32, 0x63, 0x38, 0xb9, 0xdc,
  0x20, 0x17, 0x79, 0x0d, 0xe9, 0xa1, 0xe4, 0x16, 0xd6, 0x1c, 0x6a, 0x59,
  0xca, 0x24, 0xab, 0xbd, 0x17, 0xe8, 0x5c, 0xd9, 0xb0, 0xc6, 0xf8, 0x1a,
  0xdb, 0x3a, 0x12, 0x21, 0xd7, 0xbc, 0xc8, 0xd8, 0x06, 0xe3, 0x4a, 0x86,
  0xdd, 0xf6, 0x81, 0xc1, 0xfe, 0x5b, 0x2f, 0xd6, 0x0e, 0xa5, 0xa6, 0xe9,
  0x62, 0x5c, 0x25, 0xef, 0xda, 0xb6, 0x19, 0x50, 0xcc, 0x48, 0x1f, 0xf4,
  0xe0, 0x74, 0xcd, 0x83, 0x3f, 0xa8, 0x24, 0xf0, 0xd1, 0xf3, 0xe7, 0xd9,
  0xb9, 0x3e, 0x46, 0xff, 0xfc, 0xa8, 0xde, 0x81, 0x14, 0x10, 0x28, 0xa2,
  0xb7, 0xfb, 0x9a, 0xe8, 0xd7, 0x63, 0x39, 0x88, 0x18, 0xd0, 0xf0, 0xb9,
  0x9e, 0x73, 0xbb, 0x7f, 0xf7, 0x52, 0x32, 0x2e, 0x4c, 0x29, 0xc3, 0xca,
  0x15, 0xfd, 0x0f, 0x19, 0xd5, 0xf3, 0x92, 0x62, 0x31, 0x06, 0x0c, 0xbb,
  0x09, 0xc6, 0xd2, 0xaa, 0x3b, 0x33, 0xd4, 0x47, 0xc6, 0x5b, 0xd9, 0xa9,
  0x1f, 0x24, 0xc8, 0xc7, 0x3d, 0x04, 0x27, 0x02, 0x73, 0x35, 0xe7, 0x21,
  0x00, 0xf8, 0xe4, 0x1b, 0xfd, 0x2c, 0xdb, 0x40, 0xb6, 0x14, 0xfc, 0x35,
  0xf0, 0x1f, 0x2b, 0x49, 0x22, 0x22, 0xbd, 0xe7, 0xea, 0x14, 0x0d, 0xe1,
  0xcb, 0xd7, 0x0d, 0xbb, 0xfa, 0xfc, 0xfb, 0x1a, 0xe8, 0x0d, 0xbd, 0x7f,
  0xdc, 0x2b, 0xfd, 0xee, 0x38, 0xf6, 0xe3, 0x34, 0xf2, 0x22, 0x66, 0x1c,
  0x32, 0xe7, 0xba, 0x31, 0x0d, 0x12, 0xeb, 0x13, 0xb0, 0x0c, 0x17, 0x7f,
  0xf6, 0x34, 0xfe, 0x74, 0x11, 0x47, 0x90, 0xb9, 0x21, 0x32, 0x18, 0x03,
  0x05, 0x92, 0xde, 0xd8, 0x23, 0x12, 0x2c, 0x37, 0xcf, 0xf3, 0x97, 0x55,
  0x0d, 0x2b, 0xdc, 0xee, 0x38, 0xff, 0xe5, 0x7d, 0xfc, 0x1e, 0x5c, 0x65,
  0xa9, 0xf4, 0xae, 0x60, 0x17, 0x4d, 0x10, 0xf4, 0x15, 0x17, 0xb0, 0x18,
  0xea, 0x5c, 0x14, 0x5c, 0xb6, 0x4a, 0x81, 0xb0, 0xd9, 0x6f, 0xda, 0xfe,
  0xea, 0xfa, 0xce, 0x13, 0x26, 0xff, 0xf1, 0x47, 0x32, 0x3c, 0xa8, 0x14,
  0x4b, 0xd9, 0xff, 0xd9, 0x63, 0xb7, 0xbf, 0xe4, 0x12, 0x49, 0x5d, 0x21,
  0x3b, 0xa8, 0x66, 0xcf, 0x58, 0xd1, 0xe5, 0xdd, 0x4a, 0x44, 0xad, 0x29,
  0x35, 0x81, 0xa9, 0xd5, 0xe3, 0xc7, 0x35, 0xd1, 0xee, 0xd1, 0xf3, 0x20,
  0x1f, 0xf9, 0x15, 0x29, 0xa0, 0xc8, 0x9c, 0xd0, 0x25, 0x37, 0x26, 0x67,
  0xb4, 0xcd, 0x15, 0x2c, 0xcc, 0xe4, 0xb3, 0x56, 0xb8, 0x2f, 0xbf, 0xa9,
  0xd7, 0x31, 0x7f, 0xa6, 0x03, 0xd0, 0x36, 0x34, 0xc5, 0x14, 0x51, 0xfc,
  0xc0, 0xc4, 0x07, 0xb5, 0x5b, 0x8c, 0x5e, 0xaf, 0xea, 0xdd, 0xa1, 0xc5,
  0x25, 0x16, 0xe5, 0xdc, 0x0e, 0xdd, 0xed, 0xb5, 0x23, 0xdf, 0x41, 0xcc,
  0xd3, 0x22, 0xbe, 0x17, 0x00, 0xe1, 0xe0, 0xe5, 0x03, 0xb4, 0x0f, 0x8c,
  0x3c, 0xe4, 0x5b, 0x12, 0x39, 0xc4, 0x81, 0xf0, 0x5d, 0x09, 0x92, 0xd5,
  0xf0, 0xbb, 0xfc, 0xd4, 0xfd, 0xe3, 0x52, 0x07, 0xe7, 0xe4, 0xb0, 0x11,
  0x10, 0x1b, 0xbc, 0xf3, 0xf8, 0xf9, 0xd8, 0xcb, 0x14, 0x05, 0x48, 0x44,
  0x9d, 0xe4, 0x45, 0x11, 0xb2, 0xfc, 0xed, 0x36, 0xac, 0x30, 0xeb, 0xc0,
  0x4f, 0x1f, 0x35, 0xf3, 0xe4, 0xf8, 0x50, 0x2b, 0xdb, 0x24, 0x4c, 0x0d,
  0xe4, 0x18, 0xe2, 0xa7, 0x33, 0xf6, 0x00, 0x06, 0xba, 0x02, 0xbf, 0xe9,
  0xf5, 0x15, 0xec, 0x14, 0xd1, 0xe5, 0xf9, 0x81, 0x39, 0xe8, 0x40, 0xa7,
  0x08, 0xdd, 0xde, 0xb9, 0x21, 0x12, 0xf6, 0x05, 0x06, 0xb9, 0xc8, 0xe1,
  0x4f, 0x4d, 0x6f, 0xb8, 0xe7, 0xa4, 0x0e, 0x61, 0xa3, 0x7f, 0x46, 0x5b,
  0x3c, 0x5f, 0xb1, 0xa4, 0x5f, 0x99, 0x03, 0xb8, 0xbe, 0xc0, 0xbe, 0x1b,
  0xa6, 0x05, 0xf8, 0xd4, 0x07, 0xa5, 0xf4, 0xbe, 0xd7, 0xff, 0x37, 0x98,
  0xeb, 0xf1, 0xd3, 0x2b, 0x2d, 0xfe, 0x03, 0x93, 0xff, 0xdc, 0x85, 0x8f,
  0xc7, 0xac, 0x36, 0xe2, 0xd3, 0xc2, 0xbd, 0xfb, 0x29, 0xf8, 0x9e, 0x35,
  0xf2, 0x9e, 0xd9, 0xe0, 0x03, 0x06, 0x7f, 0xbc, 0x2f, 0xc3, 0x18, 0x26,
  0x05, 0xfc, 0xf5, 0xc3, 0xf3, 0xc9, 0xdb, 0xec, 0x13, 0xb8, 0x6d, 0x20,
  0xd3, 0xdc, 0xf2, 0x21, 0xe8, 0x1e, 0x28, 0x3f, 0xc1, 0xdb, 0xac, 0xe3,
  0x25, 0x5a, 0xa8, 0x1b, 0x1a, 0x2e, 0x0c, 0xa7, 0xf9, 0x0e, 0xa6, 0x21,
  0x6f, 0xf3, 0x56, 0x7f, 0xba, 0x4e, 0xb7, 0x60, 0x3e, 0x02, 0x02, 0xc2,
  0x70, 0xce, 0xfd, 0xdc, 0x26, 0xea, 0x11, 0x20, 0x0b, 0x01, 0x06, 0xd3,
  0x5d, 0x49, 0xc0, 0xb6, 0x39, 0xd3, 0x26, 0xd8, 0x33, 0x40, 0x04, 0xf6,
  0xfd, 0xb5, 0xdc, 0x2d, 0xe6, 0x24, 0x13, 0x47, 0xdf, 0xd9, 0x26, 0x3e,
  0xc1, 0x2d, 0xda, 0x28, 0x1d, 0x46, 0xba, 0xe1, 0x23, 0x0a, 0xf2, 0x15,
  0xed, 0xea, 0xf1, 0x05, 0xe7, 0x24, 0xec, 0x2d, 0xff, 0xf3, 0xb5, 0x7f,
  0xee, 0x3b, 0xdb, 0xbb, 0x48, 0xf0, 0xeb, 0x4d, 0x00, 0x07, 0x69, 0x54,
  0x31, 0xd5, 0x53, 0xbf, 0x29, 0x8d, 0xc1, 0xe5, 0xb4, 0x5e, 0x12, 0x68,
  0xbd, 0x61, 0xdb, 0xdb, 0x4c, 0xda, 0x3c, 0x3e, 0xaf, 0xe4, 0xff, 0x50,
  0xf2, 0x00, 0x46, 0xce, 0x14, 0x9a, 0x81, 0x9c, 0xd5, 0xad, 0x67, 0xaa,
  0x2b, 0xb4, 0xbf, 0x33, 0xcc, 0x10, 0x09, 0xc7, 0x40, 0x02, 0xc0, 0xe3,
  0x56, 0xdb, 0x6b, 0x13, 0xed, 0xc4, 0xf2, 0x29, 0xe1, 0x2d, 0x11, 0xfe,
  0xef, 0x28, 0xe2, 0x8e, 0xde, 0x0e, 0x4a, 0x10, 0xb7, 0xe9, 0x2b, 0x41,
  0xda, 0xdf, 0xfa, 0x3a, 0x01, 0xfe, 0xbe, 0xaa, 0xd6, 0xa1, 0x40, 0xce,
  0x2c, 0x16, 0x81, 0x48, 0x0b, 0x49, 0x03, 0xc1, 0x33, 0xaa, 0xbd, 0xa3,
  0x22, 0xce, 0x4f, 0xd4, 0x46, 0xc6, 0xd4, 0xfe, 0x66, 0x18, 0x81, 0xd6,
  0xe7, 0xb6, 0xf8, 0xca, 0x1c, 0xc5, 0x27, 0xe7, 0xd5, 0xc6, 0xce, 0x46,
  0xf5, 0xd2, 0xa9, 0x15, 0xe7, 0xe5, 0xf9, 0x8a, 0x1d, 0xe6, 0x64, 0x54,
  0x04, 0xeb, 0x54, 0x10, 0xc0, 0x02, 0xc3, 0x24, 0xab, 0xc4, 0xd0, 0x9c,
  0x61, 0x0e, 0x40, 0x24, 0x10, 0xd6, 0x9d, 0x2c, 0x0c, 0x54, 0x36, 0x47,
  0x1b, 0xd0, 0xa0, 0x81, 0x49, 0x35, 0x33, 0x1b, 0x9d, 0xac, 0x20, 0x49,
  0xd2, 0xdb, 0x57, 0x0c, 0x22, 0x04, 0xd2, 0xab, 0x4a, 0x94, 0x44, 0xb5,
  0xe9, 0x1a, 0xee, 0xe1, 0xcd, 0xf3, 0x2b, 0x18, 0xe9, 0x07, 0x98, 0x90,
  0xc7, 0xde, 0xdc, 0x73, 0x05, 0x0d, 0x2f, 0xc6, 0x3b, 0xe1, 0xcf, 0x1d,
  0xe7, 0x1a, 0x4e, 0x2f, 0xb8, 0x3b, 0xce, 0xeb, 0x52, 0x20, 0xef, 0xfd,
  0x3e, 0xf7, 0xee, 0xd0, 0x11, 0xe3, 0xd9, 0x70, 0x19, 0x47, 0xd5, 0x14,
  0x15, 0x43, 0xbd, 0xc0, 0x1c, 0xf6, 0x09, 0xc1, 0x7f, 0x24, 0xed, 0x3a,
  0x96, 0xfe, 0xd8, 0x5d, 0x53, 0x21, 0xce, 0xe3, 0x38, 0x0f, 0xbb, 0x39,
  0xe0, 0x1d, 0x79, 0x56, 0xde, 0x2f, 0xc0, 0xcc, 0x48, 0x6c, 0xbd, 0xc8,
  0x10, 0x06, 0x93, 0x93, 0x42, 0x2f, 0x30, 0x54, 0x1d, 0x4e, 0x9f, 0xab,
  0xf1, 0x6a, 0x91, 0x9d, 0xfe, 0x01, 0xe0, 0xd9, 0x7f, 0x37, 0x63, 0x30,
  0xfa, 0xcc, 0x5f, 0x08, 0xe0, 0xd3, 0x2a, 0x74, 0xc0, 0xfd, 0x0b, 0x37,
  0xce, 0x36, 0xe0, 0xa3, 0xf3, 0xf6, 0x16, 0x1d, 0xc6, 0xd4, 0x24, 0xfb,
  0xd0, 0x4a, 0xf0, 0xde, 0xc7, 0xd9, 0xbd, 0xae, 0xf3, 0xbf, 0x53, 0x84,
  0xf9, 0xeb, 0xbf, 0x3e, 0xee, 0x3f, 0x2e, 0x81, 0x24, 0xa3, 0xd9, 0xbb,
  0x4b, 0xf8, 0x73, 0xf1, 0xd5, 0xad, 0xf7, 0x4e, 0x08, 0xfa, 0x23, 0x19,
  0x28, 0x44, 0xcd, 0xb8, 0x42, 0x03, 0x14, 0xfe, 0xa7, 0x02, 0x14, 0x44,
  0xec, 0xda, 0xd4, 0x07, 0xcc, 0x36, 0xd4, 0x88, 0xf8, 0x9f, 0x4a, 0x98,
  0x1a, 0xe1, 0x81, 0xf3, 0x15, 0x5a, 0x05, 0xf7, 0x45, 0xaa, 0xa2, 0xaa,
  0xaa, 0x23, 0xcb, 0x4e, 0x26, 0x28, 0x24, 0xe1, 0x13, 0xe2, 0xdd, 0x3b,
  0x4d, 0xd7, 0x2a, 0x38, 0xb0, 0x4f, 0xba, 0x12, 0x24, 0x28, 0xe6, 0xd2,
  0x0e, 0xf6, 0xc6, 0x2c, 0x3b, 0x18, 0x0a, 0x51, 0xf8, 0x41, 0xde, 0xf2,
  0x7f, 0x70, 0xb1, 0xe1, 0x42, 0xe5, 0x24, 0xb3, 0x27, 0x03, 0x1f, 0xda,
  0x4e, 0xd1, 0x7f, 0xce, 0x00, 0xa2, 0x38, 0x3c, 0xc4, 0x10, 0x2a, 0x35,
  0x1d, 0xf5, 0xa8, 0xc8, 0xe9, 0xef, 0x1e, 0xed, 0x0e, 0xdd, 0xd9, 0xf0,
  0x09, 0x49, 0xe1, 0x22, 0x08, 0x0f, 0xb4, 0xf1, 0x24, 0xee, 0x3f, 0xda,
  0xdc, 0xe2, 0xb6, 0x31, 0xf0, 0x04, 0x48, 0xae, 0xfb, 0xb2, 0xda, 0x86,
  0x04, 0x26, 0x6f, 0x0c, 0xf9, 0xea, 0xe1, 0x29, 0xbd, 0xfd, 0x32, 0x39,
  0xe2, 0x41, 0xe6, 0x81, 0x01, 0xbe, 0x35, 0x09, 0xf3, 0xcd, 0xdf, 0x54,
  0xcc, 0x43, 0xfc, 0xfd, 0x0d, 0x17, 0x96, 0xd9, 0xce, 0xc9, 0x3e, 0xb5,
  0xfc, 0xe4, 0xa8, 0x30, 0xce, 0x51, 0x36, 0xc9, 0xea, 0xae, 0xd6, 0x95,
  0x4f, 0xbd, 0x5e, 0x0e, 0x1a, 0xb5, 0xd7, 0x05, 0xdd, 0xef, 0xfa, 0x51,
  0xec, 0x4b, 0xdc, 0xa2, 0x15, 0xf2, 0x66, 0xde, 0xf0, 0xdc, 0x34, 0xf3,
  0xeb, 0x21, 0xe4, 0x41, 0xd9, 0x21, 0xc6, 0xb8, 0x09, 0x8f, 0x3c, 0xa4,
  0xb8, 0xf6, 0x95, 0xe1, 0xd1, 0x7f, 0x43, 0xec, 0x44, 0xd4, 0xa7, 0xb6,
  0x9a, 0xfd, 0xff, 0xff, 0x04, 0x00, 0x00, 0x00, 0x80, 0x00, 0x00, 0x00,
  0x70, 0x1c, 0x00, 0x00, 0x53, 0x01, 0x00, 0x00, 0xdf, 0xe8, 0xff, 0xff,
  0x68, 0x18, 0x00, 0x00, 0xe8, 0xf0, 0xff, 0xff, 0x4d, 0xf7, 0xff, 0xff,
  0x57, 0x19, 0x00, 0x00, 0x15, 0x19, 0x00, 0x00, 0x2c, 0xec, 0xff, 0xff,
  0xcf, 0xec, 0xff, 0xff, 0xac, 0xdf, 0xff, 0xff, 0x8a, 0xf4, 0xff, 0xff,
  0xa8, 0x18, 0x00, 0x00, 0xa9, 0x28, 0x00, 0x00, 0x08, 0x13, 0x00, 0x00,
  0x3c, 0x12, 0x00, 0x00, 0xf8, 0x22, 0x00, 0x00, 0x96, 0x22, 0x00, 0x00,
  0xea, 0xe2, 0xff, 0xff, 0x8b, 0xe5, 0xff, 0xff, 0x91, 0x13, 0x00, 0x00,
  0x70, 0x0c, 0x00, 0x00, 0x7c, 0x28, 0x00, 0x00, 0xbd, 0xfe, 0xff, 0xff,
  0x66, 0xec, 0xff, 0xff, 0xba, 0xf5, 0xff, 0xff, 0x51, 0x22, 0x00, 0x00,
  0xe7, 0x0c, 0x00, 0x00, 0x6e, 0xe6, 0xff, 0xff, 0xaf, 0x0f, 0x00, 0x00,
  0xf6, 0x14, 0x00, 0x00, 0x4b, 0x13, 0x00, 0x00, 0x26, 0xfe, 0xff, 0xff,
  0x04, 0x00, 0x00, 0x00, 0x40, 0x00, 0x00, 0x00, 0x6a, 0x4e, 0x17, 0x0b,
  0x16, 0xd5, 0x7f, 0x5b, 0x8c, 0x8c, 0x30, 0xdc, 0x21, 0x0b, 0x63, 0x01,
  0x03, 0x47, 0x8d, 0x88, 0x18, 0x6e, 0x17, 0x6c, 0xda, 0xb0, 0xd4, 0x54,
  0xe5, 0x2b, 0x37, 0x53, 0xf6, 0xc5, 0x6b, 0xc0, 0x6f, 0x66, 0x10, 0xbf,
  0x09, 0x14, 0x7f, 0x53, 0xa8, 0xac, 0xfd, 0xa7, 0xc9, 0xfb, 0xfe, 0xfe,
  0xb6, 0xee, 0xc0, 0xfb, 0x27, 0x49, 0x92, 0xaf, 0x57, 0xd2, 0xe4, 0xef,
  0x72, 0xfe, 0xff, 0xff, 0x04, 0x00, 0x00, 0x00, 0x08, 0x00, 0x00, 0x00,
  0x5b, 0xfc, 0xff, 0xff, 0x08, 0x03, 0x00, 0x00, 0x86, 0xfe, 0xff, 0xff,
  0x04, 0x00, 0x00, 0x00, 0x0c, 0x00, 0x00, 0x00, 0xff, 0xff, 0xff, 0xff,
  0x1f, 0x00, 0x00, 0x00, 0x20, 0x00, 0x00, 0x00, 0x9e, 0xfe, 0xff, 0xff,
  0x04, 0x00, 0x00, 0x00, 0x0c, 0x00, 0x00, 0x00, 0xff, 0xff, 0xff, 0xff,
  0x3e, 0x00, 0x00, 0x00, 0x20, 0x00, 0x00, 0x00, 0xb6, 0xfe, 0xff, 0xff,
  0x04, 0x00, 0x00, 0x00, 0x0c, 0x00, 0x00, 0x00, 0xff, 0xff, 0xff, 0xff,
  0x3e, 0x00, 0x00, 0x00, 0x10, 0x00, 0x00, 0x00, 0xce, 0xfe, 0xff, 0xff,
  0x04, 0x00, 0x00, 0x00, 0x0c, 0x00, 0x00, 0x00, 0xff, 0xff, 0xff, 0xff,
  0xfa, 0x00, 0x00, 0x00, 0x10, 0x00, 0x00, 0x00, 0xe6, 0xfe, 0xff, 0xff,
  0x04, 0x00, 0x00, 0x00, 0x0c, 0x00, 0x00, 0x00, 0xff, 0xff, 0xff, 0xff,
  0xfa, 0x00, 0x00, 0x00, 0x08, 0x00, 0x00, 0x00, 0xfe, 0xfe, 0xff, 0xff,
  0x04, 0x00, 0x00, 0x00, 0x04, 0x00, 0x00, 0x00, 0x01, 0x00, 0x00, 0x00,
  0x0e, 0xff, 0xff, 0xff, 0x04, 0x00, 0x00, 0x00, 0x0c, 0x00, 0x00, 0x00,
  0xff, 0xff, 0xff, 0xff, 0xe8, 0x03, 0x00, 0x00, 0x08, 0x00, 0x00, 0x00,
  0x26, 0xff, 0xff, 0xff, 0x04, 0x00, 0x00, 0x00, 0x04, 0x00, 0x00, 0x00,
  0xfd, 0xff, 0xff, 0xff, 0x08, 0xe0, 0xff, 0xff, 0x0c, 0xe0, 0xff, 0xff,
  0x0f, 0x00, 0x00, 0x00, 0x4d, 0x4c, 0x49, 0x52, 0x20, 0x43, 0x6f, 0x6e,
  0x76, 0x65, 0x72, 0x74, 0x65, 0x64, 0x2e, 0x00, 0x01, 0x00, 0x00, 0x00,
  0x14, 0x00, 0x00, 0x00, 0x00, 0x00, 0x0e, 0x00, 0x18, 0x00, 0x14, 0x00,
  0x10, 0x00, 0x0c, 0x00, 0x08, 0x00, 0x04, 0x00, 0x0e, 0x00, 0x00, 0x00,
  0x14, 0x00, 0x00, 0x00, 0x1c, 0x00, 0x00, 0x00, 0xb4, 0x04, 0x00, 0x00,
  0xb8, 0x04, 0x00, 0x00, 0xbc, 0x04, 0x00, 0x00, 0x04, 0x00, 0x00, 0x00,
  0x6d, 0x61, 0x69, 0x6e, 0x00, 0x00, 0x00, 0x00, 0x15, 0x00, 0x00, 0x00,
  0x6c, 0x04, 0x00, 0x00, 0x0c, 0x04, 0x00, 0x00, 0xd4, 0x03, 0x00, 0x00,
  0x98, 0x03, 0x00, 0x00, 0x44, 0x03, 0x00, 0x00, 0x1c, 0x03, 0x00, 0x00,
  0xec, 0x02, 0x00, 0x00, 0xa8, 0x02, 0x00, 0x00, 0x80, 0x02, 0x00, 0x00,
  0x50, 0x02, 0x00, 0x00, 0x0c, 0x02, 0x00, 0x00, 0xe4, 0x01, 0x00, 0x00,
  0xb4, 0x01, 0x00, 0x00, 0x70, 0x01, 0x00, 0x00, 0x48, 0x01, 0x00, 0x00,
  0x18, 0x01, 0x00, 0x00, 0xd4, 0x00, 0x00, 0x00, 0xac, 0x00, 0x00, 0x00,
  0x78, 0x00, 0x00, 0x00, 0x40, 0x00, 0x00, 0x00, 0x04, 0x00, 0x00, 0x00,
  0x52, 0xfc, 0xff, 0xff, 0x1c, 0x00, 0x00, 0x00, 0x00, 0x00, 0x00, 0x09,
  0x1c, 0x00, 0x00, 0x00, 0x20, 0x00, 0x00, 0x00, 0x06, 0x00, 0x00, 0x00,
  0x00, 0x00, 0x06, 0x00, 0x08, 0x00, 0x04, 0x00, 0x06, 0x00, 0x00, 0x00,
  0x00, 0x00, 0x80, 0x3f, 0x01, 0x00, 0x00, 0x00, 0x25, 0x00, 0x00, 0x00,
  0x01, 0x00, 0x00, 0x00, 0x24, 0x00, 0x00, 0x00, 0x8a, 0xfc, 0xff, 0xff,
  0x14, 0x00, 0x00, 0x00, 0x00, 0x00, 0x00, 0x08, 0x10, 0x00, 0x00, 0x00,
  0x14, 0x00, 0x00, 0x00, 0x05, 0x00, 0x00, 0x00, 0x08, 0xe1, 0xff, 0xff,
  0x01, 0x00, 0x00, 0x00, 0x24, 0x00, 0x00, 0x00, 0x03, 0x00, 0x00, 0x00,
  0x23, 0x00, 0x00, 0x00, 0x0a, 0x00, 0x00, 0x00, 0x09, 0x00, 0x00, 0x00,
  0xbe, 0xfc, 0xff, 0xff, 0x14, 0x00, 0x00, 0x00, 0x00, 0x00, 0x00, 0x1b,
  0x10, 0x00, 0x00, 0x00, 0x14, 0x00, 0x00, 0x00, 0x04, 0x00, 0x00, 0x00,
  0x3c, 0xe1, 0xff, 0xff, 0x01, 0x00, 0x00, 0x00, 0x23, 0x00, 0x00, 0x00,
  0x02, 0x00, 0x00, 0x00, 0x22, 0x00, 0x00, 0x00, 0x03, 0x00, 0x00, 0x00,
  0x1e, 0xfd, 0xff, 0xff, 0x0c, 0x00, 0x00, 0x00, 0x10, 0x00, 0x00, 0x00,
  0x02, 0x00, 0x00, 0x00, 0x01, 0x00, 0x00, 0x00, 0x22, 0x00, 0x00, 0x00,
  0x02, 0x00, 0x00, 0x00, 0x21, 0x00, 0x00, 0x00, 0x08, 0x00, 0x00, 0x00,
  0x12, 0xfd, 0xff, 0xff, 0x14, 0x00, 0x00, 0x00, 0x00, 0x00, 0x00, 0x05,
  0x24, 0x00, 0x00, 0x00, 0x28, 0x00, 0x00, 0x00, 0x03, 0x00, 0x00, 0x00,
  0xbe, 0xfd, 0xff, 0xff, 0x01, 0x00, 0x00, 0x00, 0x02, 0x00, 0x00, 0x00,
  0x01, 0x00, 0x00, 0x00, 0x02, 0x00, 0x00, 0x00, 0x00, 0x00, 0x00, 0x01,
  0x01, 0x00, 0x00, 0x00, 0x21, 0x00, 0x00, 0x00, 0x01, 0x00, 0x00, 0x00,
  0x20, 0x00, 0x00, 0x00, 0xf6, 0xfc, 0xff, 0xff, 0x10, 0x00, 0x00, 0x00,
  0x00, 0x00, 0x00, 0x34, 0x0c, 0x00, 0x00, 0x00, 0x10, 0x00, 0x00, 0x00,
  0xcc, 0xe1, 0xff, 0xff, 0x01, 0x00, 0x00, 0x00, 0x20, 0x00, 0x00, 0x00,
  0x02, 0x00, 0x00, 0x00, 0x1f, 0x00, 0x00, 0x00, 0x03, 0x00, 0x00, 0x00,
  0xae, 0xfd, 0xff, 0xff, 0x0c, 0x00, 0x00, 0x00, 0x10, 0x00, 0x00, 0x00,
  0x02, 0x00, 0x00, 0x00, 0x01, 0x00, 0x00, 0x00, 0x1f, 0x00, 0x00, 0x00,
  0x02, 0x00, 0x00, 0x00, 0x1e, 0x00, 0x00, 0x00, 0x07, 0x00, 0x00, 0x00,
  0xa2, 0xfd, 0xff, 0xff, 0x14, 0x00, 0x00, 0x00, 0x00, 0x00, 0x00, 0x01,
  0x1c, 0x00, 0x00, 0x00, 0x20, 0x00, 0x00, 0x00, 0x01, 0x00, 0x00, 0x00,
  0x94, 0xfd, 0xff, 0xff, 0x00, 0x00, 0x00, 0x01, 0x01, 0x00, 0x00, 0x00,
  0x01, 0x00, 0x00, 0x00, 0x01, 0x00, 0x00, 0x00, 0x1e, 0x00, 0x00, 0x00,
  0x03, 0x00, 0x00, 0x00, 0x1d, 0x00, 0x00, 0x00, 0x0c, 0x00, 0x00, 0x00,
  0x0b, 0x00, 0x00, 0x00, 0x86, 0xfd, 0xff, 0xff, 0x10, 0x00, 0x00, 0x00,
  0x00, 0x00, 0x00, 0x34, 0x0c, 0x00, 0x00, 0x00, 0x10, 0x00, 0x00, 0x00,
  0x5c, 0xe2, 0xff, 0xff, 0x01, 0x00, 0x00, 0x00, 0x1d, 0x00, 0x00, 0x00,
  0x02, 0x00, 0x00, 0x00, 0x1c, 0x00, 0x00, 0x00, 0x01, 0x00, 0x00, 0x00,
  0x3e, 0xfe, 0xff, 0xff, 0x0c, 0x00, 0x00, 0x00, 0x10, 0x00, 0x00, 0x00,
  0x02, 0x00, 0x00, 0x00, 0x01, 0x00, 0x00, 0x00, 0x1c, 0x00, 0x00, 0x00,
  0x02, 0x00, 0x00, 0x00, 0x1b, 0x00, 0x00, 0x00, 0x06, 0x00, 0x00, 0x00,
  0x32, 0xfe, 0xff, 0xff, 0x14, 0x00, 0x00, 0x00, 0x00, 0x00, 0x00, 0x05,
  0x24, 0x00, 0x00, 0x00, 0x28, 0x00, 0x00, 0x00, 0x03, 0x00, 0x00, 0x00,
  0xde, 0xfe, 0xff, 0xff, 0x01, 0x00, 0x00, 0x00, 0x04, 0x00, 0x00, 0x00,
  0x01, 0x00, 0x00, 0x00, 0x04, 0x00, 0x00, 0x00, 0x00, 0x00, 0x00, 0x01,
  0x01, 0x00, 0x00, 0x00, 0x1b, 0x00, 0x00, 0x00, 0x01, 0x00, 0x00, 0x00,
  0x1a, 0x00, 0x00, 0x00, 0x16, 0xfe, 0xff, 0xff, 0x10, 0x00, 0x00, 0x00,
  0x00, 0x00, 0x00, 0x34, 0x0c, 0x00, 0x00, 0x00, 0x10, 0x00, 0x00, 0x00,
  0xec, 0xe2, 0xff, 0xff, 0x01, 0x00, 0x00, 0x00, 0x1a, 0x00, 0x00, 0x00,
  0x02, 0x00, 0x00, 0x00, 0x19, 0x00, 0x00, 0x00, 0x03, 0x00, 0x00, 0x00,
  0xce, 0xfe, 0xff, 0xff, 0x0c, 0x00, 0x00, 0x00, 0x10, 0x00, 0x00, 0x00,
  0x02, 0x00, 0x00, 0x00, 0x01, 0x00, 0x00, 0x00, 0x19, 0x00, 0x00, 0x00,
  0x02, 0x00, 0x00, 0x00, 0x18, 0x00, 0x00, 0x00, 0x05, 0x00, 0x00, 0x00,
  0xc2, 0xfe, 0xff, 0xff, 0x14, 0x00, 0x00, 0x00, 0x00, 0x00, 0x00, 0x01,
  0x1c, 0x00, 0x00, 0x00, 0x20, 0x00, 0x00, 0x00, 0x01, 0x00, 0x00, 0x00,
  0xb4, 0xfe, 0xff, 0xff, 0x00, 0x00, 0x00, 0x01, 0x01, 0x00, 0x00, 0x00,
  0x01, 0x00, 0x00, 0x00, 0x01, 0x00, 0x00, 0x00, 0x18, 0x00, 0x00, 0x00,
  0x03, 0x00, 0x00, 0x00, 0x17, 0x00, 0x00, 0x00, 0x0e, 0x00, 0x00, 0x00,
  0x0d, 0x00, 0x00, 0x00, 0xa6, 0xfe, 0xff, 0xff, 0x10, 0x00, 0x00, 0x00,
  0x00, 0x00, 0x00, 0x34, 0x0c, 0x00, 0x00, 0x00, 0x10, 0x00, 0x00, 0x00,
  0x7c, 0xe3, 0xff, 0xff, 0x01, 0x00, 0x00, 0x00, 0x17, 0x00, 0x00, 0x00,
  0x02, 0x00, 0x00, 0x00, 0x16, 0x00, 0x00, 0x00, 0x01, 0x00, 0x00, 0x00,
  0x5e, 0xff, 0xff, 0xff, 0x0c, 0x00, 0x00, 0x00, 0x10, 0x00, 0x00, 0x00,
  0x02, 0x00, 0x00, 0x00, 0x01, 0x00, 0x00, 0x00, 0x16, 0x00, 0x00, 0x00,
  0x02, 0x00, 0x00, 0x00, 0x15, 0x00, 0x00, 0x00, 0x04, 0x00, 0x00, 0x00,
  0x52, 0xff, 0xff, 0xff, 0x24, 0x00, 0x00, 0x00, 0x00, 0x00, 0x00, 0x05,
  0x34, 0x00, 0x00, 0x00, 0x38, 0x00, 0x00, 0x00, 0x03, 0x00, 0x00, 0x00,
  0x00, 0x00, 0x0e, 0x00, 0x18, 0x00, 0x17, 0x00, 0x10, 0x00, 0x0c, 0x00,
  0x08, 0x00, 0x04, 0x00, 0x0e, 0x00, 0x00, 0x00, 0x01, 0x00, 0x00, 0x00,
  0x04, 0x00, 0x00, 0x00, 0x01, 0x00, 0x00, 0x00, 0x04, 0x00, 0x00, 0x00,
  0x00, 0x00, 0x00, 0x01, 0x01, 0x00, 0x00, 0x00, 0x15, 0x00, 0x00, 0x00,
  0x01, 0x00, 0x00, 0x00, 0x14, 0x00, 0x00, 0x00, 0x46, 0xff, 0xff, 0xff,
  0x10, 0x00, 0x00, 0x00, 0x00, 0x00, 0x00, 0x34, 0x0c, 0x00, 0x00, 0x00,
  0x10, 0x00, 0x00, 0x00, 0x1c, 0xe4, 0xff, 0xff, 0x01, 0x00, 0x00, 0x00,
  0x14, 0x00, 0x00, 0x00, 0x02, 0x00, 0x00, 0x00, 0x13, 0x00, 0x00, 0x00,
  0x03, 0x00, 0x00, 0x00, 0x00, 0x00, 0x0a, 0x00, 0x10, 0x00, 0x0c, 0x00,
  0x08, 0x00, 0x04, 0x00, 0x0a, 0x00, 0x00, 0x00, 0x0c, 0x00, 0x00, 0x00,
  0x10, 0x00, 0x00, 0x00, 0x02, 0x00, 0x00, 0x00, 0x01, 0x00, 0x00, 0x00,
  0x13, 0x00, 0x00, 0x00, 0x02, 0x00, 0x00, 0x00, 0x12, 0x00, 0x00, 0x00,
  0x02, 0x00, 0x00, 0x00, 0x00, 0x00, 0x0e, 0x00, 0x18, 0x00, 0x14, 0x00,
  0x10, 0x00, 0x0c, 0x00, 0x0b, 0x00, 0x04, 0x00, 0x0e, 0x00, 0x00, 0x00,
  0x20, 0x00, 0x00, 0x00, 0x00, 0x00, 0x00, 0x01, 0x28, 0x00, 0x00, 0x00,
  0x2c, 0x00, 0x00, 0x00, 0x01, 0x00, 0x00, 0x00, 0x0c, 0x00, 0x10, 0x00,
  0x00, 0x00, 0x0c, 0x00, 0x08, 0x00, 0x07, 0x00, 0x0c, 0x00, 0x00, 0x00,
  0x00, 0x00, 0x00, 0x01, 0x01, 0x00, 0x00, 0x00, 0x01, 0x00, 0x00, 0x00,
  0x01, 0x00, 0x00, 0x00, 0x12, 0x00, 0x00, 0x00, 0x03, 0x00, 0x00, 0x00,
  0x11, 0x00, 0x00, 0x00, 0x10, 0x00, 0x00, 0x00, 0x0f, 0x00, 0x00, 0x00,
  0x00, 0x00, 0x0e, 0x00, 0x14, 0x00, 0x00, 0x00, 0x10, 0x00, 0x0c, 0x00,
  0x0b, 0x00, 0x04, 0x00, 0x0e, 0x00, 0x00, 0x00, 0x10, 0x00, 0x00, 0x00,
  0x00, 0x00, 0x00, 0x34, 0x0c, 0x00, 0x00, 0x00, 0x10, 0x00, 0x00, 0x00,
  0xe4, 0xe4, 0xff, 0xff, 0x01, 0x00, 0x00, 0x00, 0x11, 0x00, 0x00, 0x00,
  0x02, 0x00, 0x00, 0x00, 0x00, 0x00, 0x00, 0x00, 0x01, 0x00, 0x00, 0x00,
  0x01, 0x00, 0x00, 0x00, 0x25, 0x00, 0x00, 0x00, 0x01, 0x00, 0x00, 0x00,
  0x00, 0x00, 0x00, 0x00, 0x26, 0x00, 0x00, 0x00, 0x28, 0x1b, 0x00, 0x00,
  0xd0, 0x1a, 0x00, 0x00, 0x78, 0x1a, 0x00, 0x00, 0x3c, 0x1a, 0x00, 0x00,
  0xfc, 0x19, 0x00, 0x00, 0xbc, 0x19, 0x00, 0x00, 0x7c, 0x19, 0x00, 0x00,
  0x3c, 0x19, 0x00, 0x00, 0xfc, 0x18, 0x00, 0x00, 0x8c, 0x18, 0x00, 0x00,
  0x18, 0x18, 0x00, 0x00, 0x44, 0x16, 0x00, 0x00, 0x60, 0x14, 0x00, 0x00,
  0x4c, 0x13, 0x00, 0x00, 0x28, 0x12, 0x00, 0x00, 0x74, 0x11, 0x00, 0x00,
  0xb0, 0x10, 0x00, 0x00, 0x0c, 0x10, 0x00, 0x00, 0xb8, 0x0e, 0x00, 0x00,
  0x90, 0x0d, 0x00, 0x00, 0xe8, 0x0c, 0x00, 0x00, 0x4c, 0x0c, 0x00, 0x00,
  0xac, 0x0b, 0x00, 0x00, 0x0c, 0x0b, 0x00, 0x00, 0xb8, 0x09, 0x00, 0x00,
  0x90, 0x08, 0x00, 0x00, 0xe8, 0x07, 0x00, 0x00, 0x4c, 0x07, 0x00, 0x00,
  0xac, 0x06, 0x00, 0x00, 0x0c, 0x06, 0x00, 0x00, 0xb8, 0x04, 0x00, 0x00,
  0x90, 0x03, 0x00, 0x00, 0xe8, 0x02, 0x00, 0x00, 0x4c, 0x02, 0x00, 0x00,
  0xac, 0x01, 0x00, 0x00, 0x1c, 0x01, 0x00, 0x00, 0x80, 0x00, 0x00, 0x00,
  0x04, 0x00, 0x00, 0x00, 0x86, 0xe5, 0xff, 0xff, 0x00, 0x00, 0x00, 0x01,
  0x18, 0x00, 0x00, 0x00, 0x20, 0x00, 0x00, 0x00, 0x3c, 0x00, 0x00, 0x00,
  0x26, 0x00, 0x00, 0x00, 0x00, 0x00, 0x00, 0x09, 0x50, 0x00, 0x00, 0x00,
  0x02, 0x00, 0x00, 0x00, 0xff, 0xff, 0xff, 0xff, 0x02, 0x00, 0x00, 0x00,
  0x6c, 0xe5, 0xff, 0xff, 0x08, 0x00, 0x00, 0x00, 0x10, 0x00, 0x00, 0x00,
  0x01, 0x00, 0x00, 0x00, 0x80, 0xff, 0xff, 0xff, 0xff, 0xff, 0xff, 0xff,
  0x01, 0x00, 0x00, 0x00, 0x00, 0x00, 0x80, 0x3b, 0x1b, 0x00, 0x00, 0x00,
  0x53, 0x74, 0x61, 0x74, 0x65, 0x66, 0x75, 0x6c, 0x50, 0x61, 0x72, 0x74,
  0x69, 0x74, 0x69, 0x6f, 0x6e, 0x65, 0x64, 0x43, 0x61, 0x6c, 0x6c, 0x5f,
  0x31, 0x3a, 0x30, 0x00, 0x02, 0x00, 0x00, 0x00, 0x01, 0x00, 0x00, 0x00,
  0x02, 0x00, 0x00, 0x00, 0xfe, 0xe5, 0xff, 0xff, 0x00, 0x00, 0x00, 0x01,
  0x18, 0x00, 0x00, 0x00, 0x20, 0x00, 0x00, 0x00, 0x3c, 0x00, 0x00, 0x00,
  0x25, 0x00, 0x00, 0x00, 0x00, 0x00, 0x00, 0x09, 0x70, 0x00, 0x00, 0x00,
  0x02, 0x00, 0x00, 0x00, 0xff, 0xff, 0xff, 0xff, 0x02, 0x00, 0x00, 0x00,
  0xe4, 0xe5, 0xff, 0xff, 0x08, 0x00, 0x00, 0x00, 0x10, 0x00, 0x00, 0x00,
  0x01, 0x00, 0x00, 0x00, 0xff, 0xff, 0xff, 0xff, 0xff, 0xff, 0xff, 0xff,
  0x01, 0x00, 0x00, 0x00, 0x48, 0xc4, 0x12, 0x3d, 0x38, 0x00, 0x00, 0x00,
  0x73, 0x65, 0x71, 0x75, 0x65, 0x6e, 0x74, 0x69, 0x61, 0x6c, 0x5f, 0x31,
  0x2f, 0x64, 0x65, 0x6e, 0x73, 0x65, 0x5f, 0x31, 0x2f, 0x4d, 0x61, 0x74,
  0x4d, 0x75, 0x6c, 0x3b, 0x73, 0x65, 0x71, 0x75, 0x65, 0x6e, 0x74, 0x69,
  0x61, 0x6c, 0x5f, 0x31, 0x2f, 0x64, 0x65, 0x6e, 0x73, 0x65, 0x5f, 0x31,
  0x2f, 0x42, 0x69, 0x61, 0x73, 0x41, 0x64, 0x64, 0x00, 0x00, 0x00, 0x00,
  0x02, 0x00, 0x00, 0x00, 0x01, 0x00, 0x00, 0x00, 0x02, 0x00, 0x00, 0x00,
  0x96, 0xe6, 0xff, 0xff, 0x00, 0x00, 0x00, 0x01, 0x18, 0x00, 0x00, 0x00,
  0x20, 0x00, 0x00, 0x00, 0x3c, 0x00, 0x00, 0x00, 0x24, 0x00, 0x00, 0x00,
  0x00, 0x00, 0x00, 0x09, 0x64, 0x00, 0x00, 0x00, 0x02, 0x00, 0x00, 0x00,
  0xff, 0xff, 0xff, 0xff, 0x20, 0x00, 0x00, 0x00, 0x7c, 0xe6, 0xff, 0xff,
  0x08, 0x00, 0x00, 0x00, 0x10, 0x00, 0x00, 0x00, 0x01, 0x00, 0x00, 0x00,
  0x80, 0xff, 0xff, 0xff, 0xff, 0xff, 0xff, 0xff, 0x01, 0x00, 0x00, 0x00,
  0x5f, 0x07, 0xe8, 0x3b, 0x2c, 0x00, 0x00, 0x00, 0x73, 0x65, 0x71, 0x75,
  0x65, 0x6e, 0x74, 0x69, 0x61, 0x6c, 0x5f, 0x31, 0x2f, 0x67, 0x6c, 0x6f,
  0x62, 0x61, 0x6c, 0x5f, 0x61, 0x76, 0x65, 0x72, 0x61, 0x67, 0x65, 0x5f,
  0x70, 0x6f, 0x6f, 0x6c, 0x69, 0x6e, 0x67, 0x31, 0x64, 0x5f, 0x31, 0x2f,
  0x4d, 0x65, 0x61, 0x6e, 0x00, 0x00, 0x00, 0x00, 0x02, 0x00, 0x00, 0x00,
  0x01, 0x00, 0x00, 0x00, 0x20, 0x00, 0x00, 0x00, 0x22, 0xe7, 0xff, 0xff,
  0x00, 0x00, 0x00, 0x01, 0x18, 0x00, 0x00, 0x00, 0x24, 0x00, 0x00, 0x00,
  0x44, 0x00, 0x00, 0x00, 0x23, 0x00, 0x00, 0x00, 0x00, 0x00, 0x00, 0x09,
  0x70, 0x00, 0x00, 0x00, 0x03, 0x00, 0x00, 0x00, 0xff, 0xff, 0xff, 0xff,
  0x1f, 0x00, 0x00, 0x00, 0x20, 0x00, 0x00, 0x00, 0x0c, 0xe7, 0xff, 0xff,
  0x08, 0x00, 0x00, 0x00, 0x14, 0x00, 0x00, 0x00, 0x01, 0x00, 0x00, 0x00,
  0x80, 0xff, 0xff, 0xff, 0xff, 0xff, 0xff, 0xff, 0x00, 0x00, 0x00, 0x00,
  0x01, 0x00, 0x00, 0x00, 0x29, 0x4a, 0x2e, 0x3d, 0x30, 0x00, 0x00, 0x00,
  0x73, 0x65, 0x71, 0x75, 0x65, 0x6e, 0x74, 0x69, 0x61, 0x6c, 0x5f, 0x31,
  0x2f, 0x6d, 0x61, 0x78, 0x5f, 0x70, 0x6f, 0x6f, 0x6c, 0x69, 0x6e, 0x67,
  0x31, 0x64, 0x5f, 0x34, 0x5f, 0x31, 0x2f, 0x4d, 0x61, 0x78, 0x50, 0x6f,
  0x6f, 0x6c, 0x31, 0x64, 0x2f, 0x53, 0x71, 0x75, 0x65, 0x65, 0x7a, 0x65,
  0x00, 0x00, 0x00, 0x00, 0x03, 0x00, 0x00, 0x00, 0x01, 0x00, 0x00, 0x00,
  0x1f, 0x00, 0x00, 0x00, 0x20, 0x00, 0x00, 0x00, 0xbe, 0xe7, 0xff, 0xff,
  0x00, 0x00, 0x00, 0x01, 0x18, 0x00, 0x00, 0x00, 0x28, 0x00, 0x00, 0x00,
  0x44, 0x00, 0x00, 0x00, 0x22, 0x00, 0x00, 0x00, 0x00, 0x00, 0x00, 0x09,
  0x68, 0x00, 0x00, 0x00, 0x04, 0x00, 0x00, 0x00, 0xff, 0xff, 0xff, 0xff,
  0x01, 0x00, 0x00, 0x00, 0x1f, 0x00, 0x00, 0x00, 0x20, 0x00, 0x00, 0x00,
  0xac, 0xe7, 0xff, 0xff, 0x08, 0x00, 0x00, 0x00, 0x10, 0x00, 0x00, 0x00,
  0x01, 0x00, 0x00, 0x00, 0x80, 0xff, 0xff, 0xff, 0xff, 0xff, 0xff, 0xff,
  0x01, 0x00, 0x00, 0x00, 0x29, 0x4a, 0x2e, 0x3d, 0x28, 0x00, 0x00, 0x00,
  0x73, 0x65, 0x71, 0x75, 0x65, 0x6e, 0x74, 0x69, 0x61, 0x6c, 0x5f, 0x31,
  0x2f, 0x6d, 0x61, 0x78, 0x5f, 0x70, 0x6f, 0x6f, 0x6c, 0x69, 0x6e, 0x67,
  0x31, 0x64, 0x5f, 0x34, 0x5f, 0x31, 0x2f, 0x4d, 0x61, 0x78, 0x50, 0x6f,
  0x6f, 0x6c, 0x31, 0x64, 0x00, 0x00, 0x00, 0x00, 0x04, 0x00, 0x00, 0x00,
  0x01, 0x00, 0x00, 0x00, 0x01, 0x00, 0x00, 0x00, 0x1f, 0x00, 0x00, 0x00,
  0x20, 0x00, 0x00, 0x00, 0x56, 0xe8, 0xff, 0xff, 0x00, 0x00, 0x00, 0x01,
  0x18, 0x00, 0x00, 0x00, 0x28, 0x00, 0x00, 0x00, 0x48, 0x00, 0x00, 0x00,
  0x21, 0x00, 0x00, 0x00, 0x00, 0x00, 0x00, 0x09, 0x74, 0x00, 0x00, 0x00,
  0x04, 0x00, 0x00, 0x00, 0xff, 0xff, 0xff, 0xff, 0x01, 0x00, 0x00, 0x00,
  0x3e, 0x00, 0x00, 0x00, 0x20, 0x00, 0x00, 0x00, 0x44, 0xe8, 0xff, 0xff,
  0x08, 0x00, 0x00, 0x00, 0x14, 0x00, 0x00, 0x00, 0x01, 0x00, 0x00, 0x00,
  0x80, 0xff, 0xff, 0xff, 0xff, 0xff, 0xff, 0xff, 0x00, 0x00, 0x00, 0x00,
  0x01, 0x00, 0x00, 0x00, 0x29, 0x4a, 0x2e, 0x3d, 0x33, 0x00, 0x00, 0x00,
  0x73, 0x65, 0x71, 0x75, 0x65, 0x6e, 0x74, 0x69, 0x61, 0x6c, 0x5f, 0x31,
  0x2f, 0x6d, 0x61, 0x78, 0x5f, 0x70, 0x6f, 0x6f, 0x6c, 0x69, 0x6e, 0x67,
  0x31, 0x64, 0x5f, 0x34, 0x5f, 0x31, 0x2f, 0x4d, 0x61, 0x78, 0x50, 0x6f,
  0x6f, 0x6c, 0x31, 0x64, 0x2f, 0x45, 0x78, 0x70, 0x61, 0x6e, 0x64, 0x44,
  0x69, 0x6d, 0x73, 0x00, 0x04, 0x00, 0x00, 0x00, 0x01, 0x00, 0x00, 0x00,
  0x01, 0x00, 0x00, 0x00, 0x3e, 0x00, 0x00, 0x00, 0x20, 0x00, 0x00, 0x00,
  0xfa, 0xe8, 0xff, 0xff, 0x00, 0x00, 0x00, 0x01, 0x18, 0x00, 0x00, 0x00,
  0x24, 0x00, 0x00, 0x00, 0x44, 0x00, 0x00, 0x00, 0x20, 0x00, 0x00, 0x00,
  0x00, 0x00, 0x00, 0x09, 0xf8, 0x00, 0x00, 0x00, 0x03, 0x00, 0x00, 0x00,
  0xff, 0xff, 0xff, 0xff, 0x3e, 0x00, 0x00, 0x00, 0x20, 0x00, 0x00, 0x00,
  0xe4, 0xe8, 0xff, 0xff, 0x08, 0x00, 0x00, 0x00, 0x14, 0x00, 0x00, 0x00,
  0x01, 0x00, 0x00, 0x00, 0x80, 0xff, 0xff, 0xff, 0xff, 0xff, 0xff, 0xff,
  0x00, 0x00, 0x00, 0x00, 0x01, 0x00, 0x00, 0x00, 0x29, 0x4a, 0x2e, 0x3d,
  0xba, 0x00, 0x00, 0x00, 0x73, 0x65, 0x71, 0x75, 0x65, 0x6e, 0x74, 0x69,
  0x61, 0x6c, 0x5f, 0x31, 0x2f, 0x61, 0x63, 0x74, 0x69, 0x76, 0x61, 0x74,
  0x69, 0x6f, 0x6e, 0x5f, 0x32, 0x5f, 0x31, 0x2f, 0x52, 0x65, 0x6c, 0x75,
  0x3b, 0x73, 0x65, 0x71, 0x75, 0x65, 0x6e, 0x74, 0x69, 0x61, 0x6c, 0x5f,
  0x31, 0x2f, 0x62, 0x61, 0x74, 0x63, 0x68, 0x5f, 0x6e, 0x6f, 0x72, 0x6d,
  0x61, 0x6c, 0x69, 0x7a, 0x61, 0x74, 0x69, 0x6f, 0x6e, 0x5f, 0x31, 0x32,
  0x5f, 0x31, 0x2f, 0x62, 0x61, 0x74, 0x63, 0x68, 0x6e, 0x6f, 0x72, 0x6d,
  0x2f, 0x61, 0x64, 0x64, 0x5f, 0x31, 0x3b, 0x73, 0x65, 0x71, 0x75, 0x65,
  0x6e, 0x74, 0x69, 0x61, 0x6c, 0x5f, 0x31, 0x2f, 0x63, 0x6f, 0x6e, 0x76,
  0x31, 0x64, 0x5f, 0x31, 0x35, 0x5f, 0x31, 0x2f, 0x63, 0x6f, 0x6e, 0x76,
  0x6f, 0x6c, 0x75, 0x74, 0x69, 0x6f, 0x6e, 0x2f, 0x53, 0x71, 0x75, 0x65,
  0x65, 0x7a, 0x65, 0x3b, 0x73, 0x65, 0x71, 0x75, 0x65, 0x6e, 0x74, 0x69,
  0x61, 0x6c, 0x5f, 0x31, 0x2f, 0x62, 0x61, 0x74, 0x63, 0x68, 0x5f, 0x6e,
  0x6f, 0x72, 0x6d, 0x61, 0x6c, 0x69, 0x7a, 0x61, 0x74, 0x69, 0x6f, 0x6e,
  0x5f, 0x31, 0x32, 0x5f, 0x31, 0x2f, 0x62, 0x61, 0x74, 0x63, 0x68, 0x6e,
  0x6f, 0x72, 0x6d, 0x2f, 0x6d, 0x75, 0x6c, 0x5f, 0x31, 0x3b, 0x00, 0x00,
  0x03, 0x00, 0x00, 0x00, 0x01, 0x00, 0x00, 0x00, 0x3e, 0x00, 0x00, 0x00,
  0x20, 0x00, 0x00, 0x00, 0x1e, 0xea, 0xff, 0xff, 0x00, 0x00, 0x00, 0x01,
  0x18, 0x00, 0x00, 0x00, 0x28, 0x00, 0x00, 0x00, 0x48, 0x00, 0x00, 0x00,
  0x1f, 0x00, 0x00, 0x00, 0x00, 0x00, 0x00, 0x09, 0x20, 0x01, 0x00, 0x00,
  0x04, 0x00, 0x00, 0x00, 0xff, 0xff, 0xff, 0xff, 0x01, 0x00, 0x00, 0x00,
  0x3e, 0x00, 0x00, 0x00, 0x20, 0x00, 0x00, 0x00, 0x0c, 0xea, 0xff, 0xff,
  0x08, 0x00, 0x00, 0x00, 0x14, 0x00, 0x00, 0x00, 0x01, 0x00, 0x00, 0x00,
  0x80, 0xff, 0xff, 0xff, 0xff, 0xff, 0xff, 0xff, 0x00, 0x00, 0x00, 0x00,
  0x01, 0x00, 0x00, 0x00, 0x29, 0x4a, 0x2e, 0x3d, 0xdf, 0x00, 0x00, 0x00,
  0x73, 0x65, 0x71, 0x75, 0x65, 0x6e, 0x74, 0x69, 0x61, 0x6c, 0x5f, 0x31,
  0x2f, 0x61, 0x63, 0x74, 0x69, 0x76, 0x61, 0x74, 0x69, 0x6f, 0x6e, 0x5f,
  0x32, 0x5f, 0x31, 0x2f, 0x52, 0x65, 0x6c, 0x75, 0x3b, 0x73, 0x65, 0x71,
  0x75, 0x65, 0x6e, 0x74, 0x69, 0x61, 0x6c, 0x5f, 0x31, 0x2f, 0x62, 0x61,
  0x74, 0x63, 0x68, 0x5f, 0x6e, 0x6f, 0x72, 0x6d, 0x61, 0x6c, 0x69, 0x7a,
  0x61, 0x74, 0x69, 0x6f, 0x6e, 0x5f, 0x31, 0x32, 0x5f, 0x31, 0x2f, 0x62,
  0x61, 0x74, 0x63, 0x68, 0x6e, 0x6f, 0x72, 0x6d, 0x2f, 0x61, 0x64, 0x64,
  0x5f, 0x31, 0x3b, 0x73, 0x65, 0x71, 0x75, 0x65, 0x6e, 0x74, 0x69, 0x61,
  0x6c, 0x5f, 0x31, 0x2f, 0x63, 0x6f, 0x6e, 0x76, 0x31, 0x64, 0x5f, 0x31,
  0x35, 0x5f, 0x31, 0x2f, 0x63, 0x6f, 0x6e, 0x76, 0x6f, 0x6c, 0x75, 0x74,
  0x69, 0x6f, 0x6e, 0x2f, 0x53, 0x71, 0x75, 0x65, 0x65, 0x7a, 0x65, 0x3b,
  0x73, 0x65, 0x71, 0x75, 0x65, 0x6e, 0x74, 0x69, 0x61, 0x6c, 0x5f, 0x31,
  0x2f, 0x62, 0x61, 0x74, 0x63, 0x68, 0x5f, 0x6e, 0x6f, 0x72, 0x6d, 0x61,
  0x6c, 0x69, 0x7a, 0x61, 0x74, 0x69, 0x6f, 0x6e, 0x5f, 0x31, 0x32, 0x5f,
  0x31, 0x2f, 0x62, 0x61, 0x74, 0x63, 0x68, 0x6e, 0x6f, 0x72, 0x6d, 0x2f,
  0x6d, 0x75, 0x6c, 0x5f, 0x31, 0x3b, 0x3b, 0x73, 0x65, 0x71, 0x75, 0x65,
  0x6e, 0x74, 0x69, 0x61, 0x6c, 0x5f, 0x31, 0x2f, 0x63, 0x6f, 0x6e, 0x76,
  0x31, 0x64, 0x5f, 0x31, 0x35, 0x5f, 0x31, 0x2f, 0x63, 0x6f, 0x6e, 0x76,
  0x6f, 0x6c, 0x75, 0x74, 0x69, 0x6f, 0x6e, 0x00, 0x04, 0x00, 0x00, 0x00,
  0x01, 0x00, 0x00, 0x00, 0x01, 0x00, 0x00, 0x00, 0x3e, 0x00, 0x00, 0x00,
  0x20, 0x00, 0x00, 0x00, 0x6e, 0xeb, 0xff, 0xff, 0x00, 0x00, 0x00, 0x01,
  0x18, 0x00, 0x00, 0x00, 0x28, 0x00, 0x00, 0x00, 0x44, 0x00, 0x00, 0x00,
  0x1e, 0x00, 0x00, 0x00, 0x00, 0x00, 0x00, 0x09, 0x6c, 0x00, 0x00, 0x00,
  0x04, 0x00, 0x00, 0x00, 0xff, 0xff, 0xff, 0xff, 0x01, 0x00, 0x00, 0x00,
  0x3e, 0x00, 0x00, 0x00, 0x10, 0x00, 0x00, 0x00, 0x5c, 0xeb, 0xff, 0xff,
  0x08, 0x00, 0x00, 0x00, 0x10, 0x00, 0x00, 0x00, 0x01, 0x00, 0x00, 0x00,
  0x80, 0xff, 0xff, 0xff, 0xff, 0xff, 0xff, 0xff, 0x01, 0x00, 0x00, 0x00,
  0xa8, 0xf1, 0x0f, 0x3d, 0x2f, 0x00, 0x00, 0x00, 0x73, 0x65, 0x71, 0x75,
  0x65, 0x6e, 0x74, 0x69, 0x61, 0x6c, 0x5f, 0x31, 0x2f, 0x63, 0x6f, 0x6e,
  0x76, 0x31, 0x64, 0x5f, 0x31, 0x35, 0x5f, 0x31, 0x2f, 0x63, 0x6f, 0x6e,
  0x76, 0x6f, 0x6c, 0x75, 0x74, 0x69, 0x6f, 0x6e, 0x2f, 0x45, 0x78, 0x70,
  0x61, 0x6e, 0x64, 0x44, 0x69, 0x6d, 0x73, 0x00, 0x04, 0x00, 0x00, 0x00,
  0x01, 0x00, 0x00, 0x00, 0x01, 0x00, 0x00, 0x00, 0x3e, 0x00, 0x00, 0x00,
  0x10, 0x00, 0x00, 0x00, 0x0a, 0xec, 0xff, 0xff, 0x00, 0x00, 0x00, 0x01,
  0x18, 0x00, 0x00, 0x00, 0x24, 0x00, 0x00, 0x00, 0x44, 0x00, 0x00, 0x00,
  0x1d, 0x00, 0x00, 0x00, 0x00, 0x00, 0x00, 0x09, 0x70, 0x00, 0x00, 0x00,
  0x03, 0x00, 0x00, 0x00, 0xff, 0xff, 0xff, 0xff, 0x3e, 0x00, 0x00, 0x00,
  0x10, 0x00, 0x00, 0x00, 0xf4, 0xeb, 0xff, 0xff, 0x08, 0x00, 0x00, 0x00,
  0x14, 0x00, 0x00, 0x00, 0x01, 0x00, 0x00, 0x00, 0x80, 0xff, 0xff, 0xff,
  0xff, 0xff, 0xff, 0xff, 0x00, 0x00, 0x00, 0x00, 0x01, 0x00, 0x00, 0x00,
  0xa8, 0xf1, 0x0f, 0x3d, 0x30, 0x00, 0x00, 0x00, 0x73, 0x65, 0x71, 0x75,
  0x65, 0x6e, 0x74, 0x69, 0x61, 0x6c, 0x5f, 0x31, 0x2f, 0x6d, 0x61, 0x78,
  0x5f, 0x70, 0x6f, 0x6f, 0x6c, 0x69, 0x6e, 0x67, 0x31, 0x64, 0x5f, 0x33,
  0x5f, 0x31, 0x2f, 0x4d, 0x61, 0x78, 0x50, 0x6f, 0x6f, 0x6c, 0x31, 0x64,
  0x2f, 0x53, 0x71, 0x75, 0x65, 0x65, 0x7a, 0x65, 0x00, 0x00, 0x00, 0x00,
  0x03, 0x00, 0x00, 0x00, 0x01, 0x00, 0x00, 0x00, 0x3e, 0x00, 0x00, 0x00,
  0x10, 0x00, 0x00, 0x00, 0xa6, 0xec, 0xff, 0xff, 0x00, 0x00, 0x00, 0x01,
  0x18, 0x00, 0x00, 0x00, 0x28, 0x00, 0x00, 0x00, 0x44, 0x00, 0x00, 0x00,
  0x1c, 0x00, 0x00, 0x00, 0x00, 0x00, 0x00, 0x09, 0x68, 0x00, 0x00, 0x00,
  0x04, 0x00, 0x00, 0x00, 0xff, 0xff, 0xff, 0xff, 0x01, 0x00, 0x00, 0x00,
  0x3e, 0x00, 0x00, 0x00, 0x10, 0x00, 0x00, 0x00, 0x94, 0xec, 0xff, 0xff,
  0x08, 0x00, 0x00, 0x00, 0x10, 0x00, 0x00, 0x00, 0x01, 0x00, 0x00, 0x00,
  0x80, 0xff, 0xff, 0xff, 0xff, 0xff, 0xff, 0xff, 0x01, 0x00, 0x00, 0x00,
  0xa8, 0xf1, 0x0f, 0x3d, 0x28, 0x00, 0x00, 0x00, 0x73, 0x65, 0x71, 0x75,
  0x65, 0x6e, 0x74, 0x69, 0x61, 0x6c, 0x5f, 0x31, 0x2f, 0x6d, 0x61, 0x78,
  0x5f, 0x70, 0x6f, 0x6f, 0x6c, 0x69, 0x6e, 0x67, 0x31, 0x64, 0x5f, 0x33,
  0x5f, 0x31, 0x2f, 0x4d, 0x61, 0x78, 0x50, 0x6f, 0x6f, 0x6c, 0x31, 0x64,
  0x00, 0x00, 0x00, 0x00, 0x04, 0x00, 0x00, 0x00, 0x01, 0x00, 0x00, 0x00,
  0x01, 0x00, 0x00, 0x00, 0x3e, 0x00, 0x00, 0x00, 0x10, 0x00, 0x00, 0x00,
  0x3e, 0xed, 0xff, 0xff, 0x00, 0x00, 0x00, 0x01, 0x18, 0x00, 0x00, 0x00,
  0x28, 0x00, 0x00, 0x00, 0x48, 0x00, 0x00, 0x00, 0x1b, 0x00, 0x00, 0x00,
  0x00, 0x00, 0x00, 0x09, 0x74, 0x00, 0x00, 0x00, 0x04, 0x00, 0x00, 0x00,
  0xff, 0xff, 0xff, 0xff, 0x01, 0x00, 0x00, 0x00, 0xfa, 0x00, 0x00, 0x00,
  0x10, 0x00, 0x00, 0x00, 0x2c, 0xed, 0xff, 0xff, 0x08, 0x00, 0x00, 0x00,
  0x14, 0x00, 0x00, 0x00, 0x01, 0x00, 0x00, 0x00, 0x80, 0xff, 0xff, 0xff,
  0xff, 0xff, 0xff, 0xff, 0x00, 0x00, 0x00, 0x00, 0x01, 0x00, 0x00, 0x00,
  0xa8, 0xf1, 0x0f, 0x3d, 0x33, 0x00, 0x00, 0x00, 0x73, 0x65, 0x71, 0x75,
  0x65, 0x6e, 0x74, 0x69, 0x61, 0x6c, 0x5f, 0x31, 0x2f, 0x6d, 0x61, 0x78,
  0x5f, 0x70, 0x6f, 0x6f, 0x6c, 0x69, 0x6e, 0x67, 0x31, 0x64, 0x5f, 0x33,
  0x5f, 0x31, 0x2f, 0x4d, 0x61, 0x78, 0x50, 0x6f, 0x6f, 0x6c, 0x31, 0x64,
  0x2f, 0x45, 0x78, 0x70, 0x61, 0x6e, 0x64, 0x44, 0x69, 0x6d, 0x73, 0x00,
  0x04, 0x00, 0x00, 0x00, 0x01, 0x00, 0x00, 0x00, 0x01, 0x00, 0x00, 0x00,
  0xfa, 0x00, 0x00, 0x00, 0x10, 0x00, 0x00, 0x00, 0xe2, 0xed, 0xff, 0xff,
  0x00, 0x00, 0x00, 0x01, 0x18, 0x00, 0x00, 0x00, 0x24, 0x00, 0x00, 0x00,
  0x44, 0x00, 0x00, 0x00, 0x1a, 0x00, 0x00, 0x00, 0x00, 0x00, 0x00, 0x09,
  0xf8, 0x00, 0x00, 0x00, 0x03, 0x00, 0x00, 0x00, 0xff, 0xff, 0xff, 0xff,
  0xfa, 0x00, 0x00, 0x00, 0x10, 0x00, 0x00, 0x00, 0xcc, 0xed, 0xff, 0xff,
  0x08, 0x00, 0x00, 0x00, 0x14, 0x00, 0x00, 0x00, 0x01, 0x00, 0x00, 0x00,
  0x80, 0xff, 0xff, 0xff, 0xff, 0xff, 0xff, 0xff, 0x00, 0x00, 0x00, 0x00,
  0x01, 0x00, 0x00, 0x00, 0xa8, 0xf1, 0x0f, 0x3d, 0xba, 0x00, 0x00, 0x00,
  0x73, 0x65, 0x71, 0x75, 0x65, 0x6e, 0x74, 0x69, 0x61, 0x6c, 0x5f, 0x31,
  0x2f, 0x61, 0x63, 0x74, 0x69, 0x76, 0x61, 0x74, 0x69, 0x6f, 0x6e, 0x5f,
  0x31, 0x5f, 0x32, 0x2f, 0x52, 0x65, 0x6c, 0x75, 0x3b, 0x73, 0x65, 0x71,
  0x75, 0x65, 0x6e, 0x74, 0x69, 0x61, 0x6c, 0x5f, 0x31, 0x2f, 0x62, 0x61,
  0x74, 0x63, 0x68, 0x5f, 0x6e, 0x6f, 0x72, 0x6d, 0x61, 0x6c, 0x69, 0x7a,
  0x61, 0x74, 0x69, 0x6f, 0x6e, 0x5f, 0x31, 0x31, 0x5f, 0x31, 0x2f, 0x62,
  0x61, 0x74, 0x63, 0x68, 0x6e, 0x6f, 0x72, 0x6d, 0x2f, 0x61, 0x64, 0x64,
  0x5f, 0x31, 0x3b, 0x73, 0x65, 0x71, 0x75, 0x65, 0x6e, 0x74, 0x69, 0x61,
  0x6c, 0x5f, 0x31, 0x2f, 0x63, 0x6f, 0x6e, 0x76, 0x31, 0x64, 0x5f, 0x31,
  0x34, 0x5f, 0x31, 0x2f, 0x63, 0x6f, 0x6e, 0x76, 0x6f, 0x6c, 0x75, 0x74,
  0x69, 0x6f, 0x6e, 0x2f, 0x53, 0x71, 0x75, 0x65, 0x65, 0x7a, 0x65, 0x3b,
  0x73, 0x65, 0x71, 0x75, 0x65, 0x6e, 0x74, 0x69, 0x61, 0x6c, 0x5f, 0x31,
  0x2f, 0x62, 0x61, 0x74, 0x63, 0x68, 0x5f, 0x6e, 0x6f, 0x72, 0x6d, 0x61,
  0x6c, 0x69, 0x7a, 0x61, 0x74, 0x69, 0x6f, 0x6e, 0x5f, 0x31, 0x31, 0x5f,
  0x31, 0x2f, 0x62, 0x61, 0x74, 0x63, 0x68, 0x6e, 0x6f, 0x72, 0x6d, 0x2f,
  0x6d, 0x75, 0x6c, 0x5f, 0x31, 0x3b, 0x00, 0x00, 0x03, 0x00, 0x00, 0x00,
  0x01, 0x00, 0x00, 0x00, 0xfa, 0x00, 0x00, 0x00, 0x10, 0x00, 0x00, 0x00,
  0x06, 0xef, 0xff, 0xff, 0x00, 0x00, 0x00, 0x01, 0x18, 0x00, 0x00, 0x00,
  0x28, 0x00, 0x00, 0x00, 0x48, 0x00, 0x00, 0x00, 0x19, 0x00, 0x00, 0x00,
  0x00, 0x00, 0x00, 0x09, 0x20, 0x01, 0x00, 0x00, 0x04, 0x00, 0x00, 0x00,
  0xff, 0xff, 0xff, 0xff, 0x01, 0x00, 0x00, 0x00, 0xfa, 0x00, 0x00, 0x00,
  0x10, 0x00, 0x00, 0x00, 0xf4, 0xee, 0xff, 0xff, 0x08, 0x00, 0x00, 0x00,
  0x14, 0x00, 0x00, 0x00, 0x01, 0x00, 0x00, 0x00, 0x80, 0xff, 0xff, 0xff,
  0xff, 0xff, 0xff, 0xff, 0x00, 0x00, 0x00, 0x00, 0x01, 0x00, 0x00, 0x00,
  0xa8, 0xf1, 0x0f, 0x3d, 0xdf, 0x00, 0x00, 0x00, 0x73, 0x65, 0x71, 0x75,
  0x65, 0x6e, 0x74, 0x69, 0x61, 0x6c, 0x5f, 0x31, 0x2f, 0x61, 0x63, 0x74,
  0x69, 0x76, 0x61, 0x74, 0x69, 0x6f, 0x6e, 0x5f, 0x31, 0x5f, 0x32, 0x2f,
  0x52, 0x65, 0x6c, 0x75, 0x3b, 0x73, 0x65, 0x71, 0x75, 0x65, 0x6e, 0x74,
  0x69, 0x61, 0x6c, 0x5f, 0x31, 0x2f, 0x62, 0x61, 0x74, 0x63, 0x68, 0x5f,
  0x6e, 0x6f, 0x72, 0x6d, 0x61, 0x6c, 0x69, 0x7a, 0x61, 0x74, 0x69, 0x6f,
  0x6e, 0x5f, 0x31, 0x31, 0x5f, 0x31, 0x2f, 0x62, 0x61, 0x74, 0x63, 0x68,
  0x6e, 0x6f, 0x72, 0x6d, 0x2f, 0x61, 0x64, 0x64, 0x5f, 0x31, 0x3b, 0x73,
  0x65, 0x71, 0x75, 0x65, 0x6e, 0x74, 0x69, 0x61, 0x6c, 0x5f, 0x31, 0x2f,
  0x63, 0x6f, 0x6e, 0x76, 0x31, 0x64, 0x5f, 0x31, 0x34, 0x5f, 0x31, 0x2f,
  0x63, 0x6f, 0x6e, 0x76, 0x6f, 0x6c, 0x75, 0x74, 0x69, 0x6f, 0x6e, 0x2f,
  0x53, 0x71, 0x75, 0x65, 0x65, 0x7a, 0x65, 0x3b, 0x73, 0x65, 0x71, 0x75,
  0x65, 0x6e, 0x74, 0x69, 0x61, 0x6c, 0x5f, 0x31, 0x2f, 0x62, 0x61, 0x74,
  0x63, 0x68, 0x5f, 0x6e, 0x6f, 0x72, 0x6d, 0x61, 0x6c, 0x69, 0x7a, 0x61,
  0x74, 0x69, 0x6f, 0x6e, 0x5f, 0x31, 0x31, 0x5f, 0x31, 0x2f, 0x62, 0x61,
  0x74, 0x63, 0x68, 0x6e, 0x6f, 0x72, 0x6d, 0x2f, 0x6d, 0x75, 0x6c, 0x5f,
  0x31, 0x3b, 0x3b, 0x73, 0x65, 0x71, 0x75, 0x65, 0x6e, 0x74, 0x69, 0x61,
  0x6c, 0x5f, 0x31, 0x2f, 0x63, 0x6f, 0x6e, 0x76, 0x31, 0x64, 0x5f, 0x31,
  0x34, 0x5f, 0x31, 0x2f, 0x63, 0x6f, 0x6e, 0x76, 0x6f, 0x6c, 0x75, 0x74,
  0x69, 0x6f, 0x6e, 0x00, 0x04, 0x00, 0x00, 0x00, 0x01, 0x00, 0x00, 0x00,
  0x01, 0x00, 0x00, 0x00, 0xfa, 0x00, 0x00, 0x00, 0x10, 0x00, 0x00, 0x00,
  0x56, 0xf0, 0xff, 0xff, 0x00, 0x00, 0x00, 0x01, 0x18, 0x00, 0x00, 0x00,
  0x28, 0x00, 0x00, 0x00, 0x44, 0x00, 0x00, 0x00, 0x18, 0x00, 0x00, 0x00,
  0x00, 0x00, 0x00, 0x09, 0x6c, 0x00, 0x00, 0x00, 0x04, 0x00, 0x00, 0x00,
  0xff, 0xff, 0xff, 0xff, 0x01, 0x00, 0x00, 0x00, 0xfa, 0x00, 0x00, 0x00,
  0x08, 0x00, 0x00, 0x00, 0x44, 0xf0, 0xff, 0xff, 0x08, 0x00, 0x00, 0x00,
  0x10, 0x00, 0x00, 0x00, 0x01, 0x00, 0x00, 0x00, 0x80, 0xff, 0xff, 0xff,
  0xff, 0xff, 0xff, 0xff, 0x01, 0x00, 0x00, 0x00, 0x3d, 0xfb, 0x29, 0x3d,
  0x2f, 0x00, 0x00, 0x00, 0x73, 0x65, 0x71, 0x75, 0x65, 0x6e, 0x74, 0x69,
  0x61, 0x6c, 0x5f, 0x31, 0x2f, 0x63, 0x6f, 0x6e, 0x76, 0x31, 0x64, 0x5f,
  0x31, 0x34, 0x5f, 0x31, 0x2f, 0x63, 0x6f, 0x6e, 0x76, 0x6f, 0x6c, 0x75,
  0x74, 0x69, 0x6f, 0x6e, 0x2f, 0x45, 0x78, 0x70, 0x61, 0x6e, 0x64, 0x44,
  0x69, 0x6d, 0x73, 0x00, 0x04, 0x00, 0x00, 0x00, 0x01, 0x00, 0x00, 0x00,
  0x01, 0x00, 0x00, 0x00, 0xfa, 0x00, 0x00, 0x00, 0x08, 0x00, 0x00, 0x00,
  0xf2, 0xf0, 0xff, 0xff, 0x00, 0x00, 0x00, 0x01, 0x18, 0x00, 0x00, 0x00,
  0x24, 0x00, 0x00, 0x00, 0x44, 0x00, 0x00, 0x00, 0x17, 0x00, 0x00, 0x00,
  0x00, 0x00, 0x00, 0x09, 0x70, 0x00, 0x00, 0x00, 0x03, 0x00, 0x00, 0x00,
  0xff, 0xff, 0xff, 0xff, 0xfa, 0x00, 0x00, 0x00, 0x08, 0x00, 0x00, 0x00,
  0xdc, 0xf0, 0xff, 0xff, 0x08, 0x00, 0x00, 0x00, 0x14, 0x00, 0x00, 0x00,
  0x01, 0x00, 0x00, 0x00, 0x80, 0xff, 0xff, 0xff, 0xff, 0xff, 0xff, 0xff,
  0x00, 0x00, 0x00, 0x00, 0x01, 0x00, 0x00, 0x00, 0x3d, 0xfb, 0x29, 0x3d,
  0x30, 0x00, 0x00, 0x00, 0x73, 0x65, 0x71, 0x75, 0x65, 0x6e, 0x74, 0x69,
  0x61, 0x6c, 0x5f, 0x31, 0x2f, 0x6d, 0x61, 0x78, 0x5f, 0x70, 0x6f, 0x6f,
  0x6c, 0x69, 0x6e, 0x67, 0x31, 0x64, 0x5f, 0x32, 0x5f, 0x31, 0x2f, 0x4d,
  0x61, 0x78, 0x50, 0x6f, 0x6f, 0x6c, 0x31, 0x64, 0x2f, 0x53, 0x71, 0x75,
  0x65, 0x65, 0x7a, 0x65, 0x00, 0x00, 0x00, 0x00, 0x03, 0x00, 0x00, 0x00,
  0x01, 0x00, 0x00, 0x00, 0xfa, 0x00, 0x00, 0x00, 0x08, 0x00, 0x00, 0x00,
  0x8e, 0xf1, 0xff, 0xff, 0x00, 0x00, 0x00, 0x01, 0x18, 0x00, 0x00, 0x00,
  0x28, 0x00, 0x00, 0x00, 0x44, 0x00, 0x00, 0x00, 0x16, 0x00, 0x00, 0x00,
  0x00, 0x00, 0x00, 0x09, 0x68, 0x00, 0x00, 0x00, 0x04, 0x00, 0x00, 0x00,
  0xff, 0xff, 0xff, 0xff, 0x01, 0x00, 0x00, 0x00, 0xfa, 0x00, 0x00, 0x00,
  0x08, 0x00, 0x00, 0x00, 0x7c, 0xf1, 0xff, 0xff, 0x08, 0x00, 0x00, 0x00,
  0x10, 0x00, 0x00, 0x00, 0x01, 0x00, 0x00, 0x00, 0x80, 0xff, 0xff, 0xff,
  0xff, 0xff, 0xff, 0xff, 0x01, 0x00, 0x00, 0x00, 0x3d, 0xfb, 0x29, 0x3d,
  0x28, 0x00, 0x00, 0x00, 0x73, 0x65, 0x71, 0x75, 0x65, 0x6e, 0x74, 0x69,
  0x61, 0x6c, 0x5f, 0x31, 0x2f, 0x6d, 0x61, 0x78, 0x5f, 0x70, 0x6f, 0x6f,
  0x6c, 0x69, 0x6e, 0x67, 0x31, 0x64, 0x5f, 0x32, 0x5f, 0x31, 0x2f, 0x4d,
  0x61, 0x78, 0x50, 0x6f, 0x6f, 0x6c, 0x31, 0x64, 0x00, 0x00, 0x00, 0x00,
  0x04, 0x00, 0x00, 0x00, 0x01, 0x00, 0x00, 0x00, 0x01, 0x00, 0x00, 0x00,
  0xfa, 0x00, 0x00, 0x00, 0x08, 0x00, 0x00, 0x00, 0x26, 0xf2, 0xff, 0xff,
  0x00, 0x00, 0x00, 0x01, 0x18, 0x00, 0x00, 0x00, 0x28, 0x00, 0x00, 0x00,
  0x48, 0x00, 0x00, 0x00, 0x15, 0x00, 0x00, 0x00, 0x00, 0x00, 0x00, 0x09,
  0x74, 0x00, 0x00, 0x00, 0x04, 0x00, 0x00, 0x00, 0xff, 0xff, 0xff, 0xff,
  0x01, 0x00, 0x00, 0x00, 0xe8, 0x03, 0x00, 0x00, 0x08, 0x00, 0x00, 0x00,
  0x14, 0xf2, 0xff, 0xff, 0x08, 0x00, 0x00, 0x00, 0x14, 0x00, 0x00, 0x00,
  0x01, 0x00, 0x00, 0x00, 0x80, 0xff, 0xff, 0xff, 0xff, 0xff, 0xff, 0xff,
  0x00, 0x00, 0x00, 0x00, 0x01, 0x00, 0x00, 0x00, 0x3d, 0xfb, 0x29, 0x3d,
  0x33, 0x00, 0x00, 0x00, 0x73, 0x65, 0x71, 0x75, 0x65, 0x6e, 0x74, 0x69,
  0x61, 0x6c, 0x5f, 0x31, 0x2f, 0x6d, 0x61, 0x78, 0x5f, 0x70, 0x6f, 0x6f,
  0x6c, 0x69, 0x6e, 0x67, 0x31, 0x64, 0x5f, 0x32, 0x5f, 0x31, 0x2f, 0x4d,
  0x61, 0x78, 0x50, 0x6f, 0x6f, 0x6c, 0x31, 0x64, 0x2f, 0x45, 0x78, 0x70,
  0x61, 0x6e, 0x64, 0x44, 0x69, 0x6d, 0x73, 0x00, 0x04, 0x00, 0x00, 0x00,
  0x01, 0x00, 0x00, 0x00, 0x01, 0x00, 0x00, 0x00, 0xe8, 0x03, 0x00, 0x00,
  0x08, 0x00, 0x00, 0x00, 0xca, 0xf2, 0xff, 0xff, 0x00, 0x00, 0x00, 0x01,
  0x18, 0x00, 0x00, 0x00, 0x24, 0x00, 0x00, 0x00, 0x44, 0x00, 0x00, 0x00,
  0x14, 0x00, 0x00, 0x00, 0x00, 0x00, 0x00, 0x09, 0xf8, 0x00, 0x00, 0x00,
  0x03, 0x00, 0x00, 0x00, 0xff, 0xff, 0xff, 0xff, 0xe8, 0x03, 0x00, 0x00,
  0x08, 0x00, 0x00, 0x00, 0xb4, 0xf2, 0xff, 0xff, 0x08, 0x00, 0x00, 0x00,
  0x14, 0x00, 0x00, 0x00, 0x01, 0x00, 0x00, 0x00, 0x80, 0xff, 0xff, 0xff,
  0xff, 0xff, 0xff, 0xff, 0x00, 0x00, 0x00, 0x00, 0x01, 0x00, 0x00, 0x00,
  0x3d, 0xfb, 0x29, 0x3d, 0xb8, 0x00, 0x00, 0x00, 0x73, 0x65, 0x71, 0x75,
  0x65, 0x6e, 0x74, 0x69, 0x61, 0x6c, 0x5f, 0x31, 0x2f, 0x61, 0x63, 0x74,
  0x69, 0x76, 0x61, 0x74, 0x69, 0x6f, 0x6e, 0x5f, 0x31, 0x2f, 0x52, 0x65,
  0x6c, 0x75, 0x3b, 0x73, 0x65, 0x71, 0x75, 0x65, 0x6e, 0x74, 0x69, 0x61,
  0x6c, 0x5f, 0x31, 0x2f, 0x62, 0x61, 0x74, 0x63, 0x68, 0x5f, 0x6e, 0x6f,
  0x72, 0x6d, 0x61, 0x6c, 0x69, 0x7a, 0x61, 0x74, 0x69, 0x6f, 0x6e, 0x5f,
  0x31, 0x30, 0x5f, 0x31, 0x2f, 0x62, 0x61, 0x74, 0x63, 0x68, 0x6e, 0x6f,
  0x72, 0x6d, 0x2f, 0x61, 0x64, 0x64, 0x5f, 0x31, 0x3b, 0x73, 0x65, 0x71,
  0x75, 0x65, 0x6e, 0x74, 0x69, 0x61, 0x6c, 0x5f, 0x31, 0x2f, 0x63, 0x6f,
  0x6e, 0x76, 0x31, 0x64, 0x5f, 0x31, 0x33, 0x5f, 0x31, 0x2f, 0x63, 0x6f,
  0x6e, 0x76, 0x6f, 0x6c, 0x75, 0x74, 0x69, 0x6f, 0x6e, 0x2f, 0x53, 0x71,
  0x75, 0x65, 0x65, 0x7a, 0x65, 0x3b, 0x73, 0x65, 0x71, 0x75, 0x65, 0x6e,
  0x74, 0x69, 0x61, 0x6c, 0x5f, 0x31, 0x2f, 0x62, 0x61, 0x74, 0x63, 0x68,
  0x5f, 0x6e, 0x6f, 0x72, 0x6d, 0x61, 0x6c, 0x69, 0x7a, 0x61, 0x74, 0x69,
  0x6f, 0x6e, 0x5f, 0x31, 0x30, 0x5f, 0x31, 0x2f, 0x62, 0x61, 0x74, 0x63,
  0x68, 0x6e, 0x6f, 0x72, 0x6d, 0x2f, 0x6d, 0x75, 0x6c, 0x5f, 0x31, 0x3b,
  0x00, 0x00, 0x00, 0x00, 0x03, 0x00, 0x00, 0x00, 0x01, 0x00, 0x00, 0x00,
  0xe8, 0x03, 0x00, 0x00, 0x08, 0x00, 0x00, 0x00, 0xee, 0xf3, 0xff, 0xff,
  0x00, 0x00, 0x00, 0x01, 0x18, 0x00, 0x00, 0x00, 0x28, 0x00, 0x00, 0x00,
  0x48, 0x00, 0x00, 0x00, 0x13, 0x00, 0x00, 0x00, 0x00, 0x00, 0x00, 0x09,
  0x20, 0x01, 0x00, 0x00, 0x04, 0x00, 0x00, 0x00, 0xff, 0xff, 0xff, 0xff,
  0x01, 0x00, 0x00, 0x00, 0xe8, 0x03, 0x00, 0x00, 0x08, 0x00, 0x00, 0x00,
  0xdc, 0xf3, 0xff, 0xff, 0x08, 0x00, 0x00, 0x00, 0x14, 0x00, 0x00, 0x00,
  0x01, 0x00, 0x00, 0x00, 0x80, 0xff, 0xff, 0xff, 0xff, 0xff, 0xff, 0xff,
  0x00, 0x00, 0x00, 0x00, 0x01, 0x00, 0x00, 0x00, 0x3d, 0xfb, 0x29, 0x3d,
  0xdd, 0x00, 0x00, 0x00, 0x73, 0x65, 0x71, 0x75, 0x65, 0x6e, 0x74, 0x69,
  0x61, 0x6c, 0x5f, 0x31, 0x2f, 0x61, 0x63, 0x74, 0x69, 0x76, 0x61, 0x74,
  0x69, 0x6f, 0x6e, 0x5f, 0x31, 0x2f, 0x52, 0x65, 0x6c, 0x75, 0x3b, 0x73,
  0x65, 0x71, 0x75, 0x65, 0x6e, 0x74, 0x69, 0x61, 0x6c, 0x5f, 0x31, 0x2f,
  0x62, 0x61, 0x74, 0x63, 0x68, 0x5f, 0x6e, 0x6f, 0x72, 0x6d, 0x61, 0x6c,
  0x69, 0x7a, 0x61, 0x74, 0x69, 0x6f, 0x6e, 0x5f, 0x31, 0x30, 0x5f, 0x31,
  0x2f, 0x62, 0x61, 0x74, 0x63, 0x68, 0x6e, 0x6f, 0x72, 0x6d, 0x2f, 0x61,
  0x64, 0x64, 0x5f, 0x31, 0x3b, 0x73, 0x65, 0x71, 0x75, 0x65, 0x6e, 0x74,
  0x69, 0x61, 0x6c, 0x5f, 0x31, 0x2f, 0x63, 0x6f, 0x6e, 0x76, 0x31, 0x64,
  0x5f, 0x31, 0x33, 0x5f, 0x31, 0x2f, 0x63, 0x6f, 0x6e, 0x76, 0x6f, 0x6c,
  0x75, 0x74, 0x69, 0x6f, 0x6e, 0x2f, 0x53, 0x71, 0x75, 0x65, 0x65, 0x7a,
  0x65, 0x3b, 0x73, 0x65, 0x71, 0x75, 0x65, 0x6e, 0x74, 0x69, 0x61, 0x6c,
  0x5f, 0x31, 0x2f, 0x62, 0x61, 0x74, 0x63, 0x68, 0x5f, 0x6e, 0x6f, 0x72,
  0x6d, 0x61, 0x6c, 0x69, 0x7a, 0x61, 0x74, 0x69, 0x6f, 0x6e, 0x5f, 0x31,
  0x30, 0x5f, 0x31, 0x2f, 0x62, 0x61, 0x74, 0x63, 0x68, 0x6e, 0x6f, 0x72,
  0x6d, 0x2f, 0x6d, 0x75, 0x6c, 0x5f, 0x31, 0x3b, 0x3b, 0x73, 0x65, 0x71,
  0x75, 0x65, 0x6e, 0x74, 0x69, 0x61, 0x6c, 0x5f, 0x31, 0x2f, 0x63, 0x6f,
  0x6e, 0x76, 0x31, 0x64, 0x5f, 0x31, 0x33, 0x5f, 0x31, 0x2f, 0x63, 0x6f,
  0x6e, 0x76, 0x6f, 0x6c, 0x75, 0x74, 0x69, 0x6f, 0x6e, 0x00, 0x00, 0x00,
  0x04, 0x00, 0x00, 0x00, 0x01, 0x00, 0x00, 0x00, 0x01, 0x00, 0x00, 0x00,
  0xe8, 0x03, 0x00, 0x00, 0x08, 0x00, 0x00, 0x00, 0x3e, 0xf5, 0xff, 0xff,
  0x00, 0x00, 0x00, 0x01, 0x18, 0x00, 0x00, 0x00, 0x28, 0x00, 0x00, 0x00,
  0x48, 0x00, 0x00, 0x00, 0x12, 0x00, 0x00, 0x00, 0x00, 0x00, 0x00, 0x09,
  0x70, 0x00, 0x00, 0x00, 0x04, 0x00, 0x00, 0x00, 0xff, 0xff, 0xff, 0xff,
  0x01, 0x00, 0x00, 0x00, 0xe8, 0x03, 0x00, 0x00, 0x04, 0x00, 0x00, 0x00,
  0x2c, 0xf5, 0xff, 0xff, 0x08, 0x00, 0x00, 0x00, 0x14, 0x00, 0x00, 0x00,
  0x01, 0x00, 0x00, 0x00, 0x0b, 0x00, 0x00, 0x00, 0x00, 0x00, 0x00, 0x00,
  0x00, 0x00, 0x00, 0x00, 0x01, 0x00, 0x00, 0x00, 0x1c, 0x42, 0x00, 0x3e,
  0x2f, 0x00, 0x00, 0x00, 0x73, 0x65, 0x71, 0x75, 0x65, 0x6e, 0x74, 0x69,
  0x61, 0x6c, 0x5f, 0x31, 0x2f, 0x63, 0x6f, 0x6e, 0x76, 0x31, 0x64, 0x5f,
  0x31, 0x33, 0x5f, 0x31, 0x2f, 0x63, 0x6f, 0x6e, 0x76, 0x6f, 0x6c, 0x75,
  0x74, 0x69, 0x6f, 0x6e, 0x2f, 0x45, 0x78, 0x70, 0x61, 0x6e, 0x64, 0x44,
  0x69, 0x6d, 0x73, 0x00, 0x04, 0x00, 0x00, 0x00, 0x01, 0x00, 0x00, 0x00,
  0x01, 0x00, 0x00, 0x00, 0xe8, 0x03, 0x00, 0x00, 0x04, 0x00, 0x00, 0x00,
  0x32, 0xf6, 0xff, 0xff, 0x00, 0x00, 0x00, 0x01, 0x14, 0x00, 0x00, 0x00,
  0x88, 0x00, 0x00, 0x00, 0x11, 0x00, 0x00, 0x00, 0x00, 0x00, 0x00, 0x09,
  0x94, 0x00, 0x00, 0x00, 0xb4, 0xf5, 0xff, 0xff, 0x08, 0x00, 0x00, 0x00,
  0x4c, 0x00, 0x00, 0x00, 0x08, 0x00, 0x00, 0x00, 0x00, 0x00, 0x00, 0x00,
  0x00, 0x00, 0x00, 0x00, 0x00, 0x00, 0x00, 0x00, 0x00, 0x00, 0x00, 0x00,
  0x00, 0x00, 0x00, 0x00, 0x00, 0x00, 0x00, 0x00, 0x00, 0x00, 0x00, 0x00,
  0x00, 0x00, 0x00, 0x00, 0x00, 0x00, 0x00, 0x00, 0x00, 0x00, 0x00, 0x00,
  0x00, 0x00, 0x00, 0x00, 0x00, 0x00, 0x00, 0x00, 0x00, 0x00, 0x00, 0x00,
  0x00, 0x00, 0x00, 0x00, 0x00, 0x00, 0x00, 0x00, 0x00, 0x00, 0x00, 0x00,
  0x00, 0x00, 0x00, 0x00, 0x08, 0x00, 0x00, 0x00, 0x01, 0xa5, 0x80, 0x3b,
  0x99, 0xb8, 0x1e, 0x3b, 0x8c, 0x03, 0x3b, 0x3b, 0x6c, 0xeb, 0x07, 0x3b,
  0x78, 0xab, 0xef, 0x3a, 0x95, 0x38, 0x09, 0x3b, 0xec, 0x09, 0x15, 0x3b,
  0xc3, 0xf5, 0x09, 0x3b, 0x12, 0x00, 0x00, 0x00, 0x74, 0x66, 0x6c, 0x2e,
  0x70, 0x73, 0x65, 0x75, 0x64, 0x6f, 0x5f, 0x71, 0x63, 0x6f, 0x6e, 0x73,
  0x74, 0x37, 0x00, 0x00, 0x04, 0x00, 0x00, 0x00, 0x08, 0x00, 0x00, 0x00,
  0x01, 0x00, 0x00, 0x00, 0x0a, 0x00, 0x00, 0x00, 0x04, 0x00, 0x00, 0x00,
  0xf2, 0xf6, 0xff, 0xff, 0x00, 0x00, 0x00, 0x01, 0x14, 0x00, 0x00, 0x00,
  0x84, 0x00, 0x00, 0x00, 0x10, 0x00, 0x00, 0x00, 0x00, 0x00, 0x00, 0x02,
  0x90, 0x00, 0x00, 0x00, 0x74, 0xf6, 0xff, 0xff, 0x08, 0x00, 0x00, 0x00,
  0x48, 0x00, 0x00, 0x00, 0x08, 0x00, 0x00, 0x00, 0x00, 0x00, 0x00, 0x00,
  0x00, 0x00, 0x00, 0x00, 0x00, 0x00, 0x00, 0x00, 0x00, 0x00, 0x00, 0x00,
  0x00, 0x00, 0x00, 0x00, 0x00, 0x00, 0x00, 0x00, 0x00, 0x00, 0x00, 0x00,
  0x00, 0x00, 0x00, 0x00, 0x00, 0x00, 0x00, 0x00, 0x00, 0x00, 0x00, 0x00,
  0x00, 0x00, 0x00, 0x00, 0x00, 0x00, 0x00, 0x00, 0x00, 0x00, 0x00, 0x00,
  0x00, 0x00, 0x00, 0x00, 0x00, 0x00, 0x00, 0x00, 0x00, 0x00, 0x00, 0x00,
  0x08, 0x00, 0x00, 0x00, 0x72, 0xe7, 0x00, 0x3a, 0x93, 0x0a, 0x9f, 0x39,
  0x23, 0x64, 0xbb, 0x39, 0x9f, 0x31, 0x88, 0x39, 0x41, 0x27, 0x70, 0x39,
  0x74, 0x7f, 0x89, 0x39, 0xe6, 0x56, 0x95, 0x39, 0x04, 0x3d, 0x8a, 0x39,
  0x12, 0x00, 0x00, 0x00, 0x74, 0x66, 0x6c, 0x2e, 0x70, 0x73, 0x65, 0x75,
  0x64, 0x6f, 0x5f, 0x71, 0x63, 0x6f, 0x6e, 0x73, 0x74, 0x36, 0x00, 0x00,
  0x01, 0x00, 0x00, 0x00, 0x08, 0x00, 0x00, 0x00, 0xa2, 0xf7, 0xff, 0xff,
  0x00, 0x00, 0x00, 0x01, 0x14, 0x00, 0x00, 0x00, 0xe8, 0x00, 0x00, 0x00,
  0x0f, 0x00, 0x00, 0x00, 0x00, 0x00, 0x00, 0x09, 0xf4, 0x00, 0x00, 0x00,
  0x24, 0xf7, 0xff, 0xff, 0x08, 0x00, 0x00, 0x00, 0x8c, 0x00, 0x00, 0x00,
  0x10, 0x00, 0x00, 0x00, 0x00, 0x00, 0x00, 0x00, 0x00, 0x00, 0x00, 0x00,
  0x00, 0x00, 0x00, 0x00, 0x00, 0x00, 0x00, 0x00, 0x00, 0x00, 0x00, 0x00,
  0x00, 0x00, 0x00, 0x00, 0x00, 0x00, 0x00, 0x00, 0x00, 0x00, 0x00, 0x00,
  0x00, 0x00, 0x00, 0x00, 0x00, 0x00, 0x00, 0x00, 0x00, 0x00, 0x00, 0x00,
  0x00, 0x00, 0x00, 0x00, 0x00, 0x00, 0x00, 0x00, 0x00, 0x00, 0x00, 0x00,
  0x00, 0x00, 0x00, 0x00, 0x00, 0x00, 0x00, 0x00, 0x00, 0x00, 0x00, 0x00,
  0x00, 0x00, 0x00, 0x00, 0x00, 0x00, 0x00, 0x00, 0x00, 0x00, 0x00, 0x00,
  0x00, 0x00, 0x00, 0x00, 0x00, 0x00, 0x00, 0x00, 0x00, 0x00, 0x00, 0x00,
  0x00, 0x00, 0x00, 0x00, 0x00, 0x00, 0x00, 0x00, 0x00, 0x00, 0x00, 0x00,
  0x00, 0x00, 0x00, 0x00, 0x00, 0x00, 0x00, 0x00, 0x00, 0x00, 0x00, 0x00,
  0x00, 0x00, 0x00, 0x00, 0x00, 0x00, 0x00, 0x00, 0x00, 0x00, 0x00, 0x00,
  0x00, 0x00, 0x00, 0x00, 0x10, 0x00, 0x00, 0x00, 0xea, 0x5d, 0x5b, 0x3b,
  0xd1, 0x2e, 0x17, 0x3b, 0xfc, 0x94, 0x9f, 0x3b, 0xf3, 0xa5, 0x74, 0x3b,
  0x79, 0x90, 0x35, 0x3b, 0x2c, 0x31, 0xd0, 0x3b, 0xf1, 0x6a, 0x66, 0x3b,
  0x5f, 0x2c, 0x0e, 0x3b, 0xb5, 0x10, 0x4b, 0x3b, 0x1c, 0x34, 0x45, 0x3b,
  0xfe, 0x3d, 0x2b, 0x3b, 0x59, 0x96, 0x20, 0x3b, 0x57, 0x54, 0x9d, 0x3b,
  0xb5, 0x8a, 0x4e, 0x3b, 0xf6, 0xa6, 0x79, 0x3b, 0x1a, 0xe9, 0x95, 0x3b,
  0x12, 0x00, 0x00, 0x00, 0x74, 0x66, 0x6c, 0x2e, 0x70, 0x73, 0x65, 0x75,
  0x64, 0x6f, 0x5f, 0x71, 0x63, 0x6f, 0x6e, 0x73, 0x74, 0x35, 0x00, 0x00,
  0x04, 0x00, 0x00, 0x00, 0x10, 0x00, 0x00, 0x00, 0x01, 0x00, 0x00, 0x00,
  0x05, 0x00, 0x00, 0x00, 0x08, 0x00, 0x00, 0x00, 0xc2, 0xf8, 0xff, 0xff,
  0x00, 0x00, 0x00, 0x01, 0x14, 0x00, 0x00, 0x00, 0xe4, 0x00, 0x00, 0x00,
  0x0e, 0x00, 0x00, 0x00, 0x00, 0x00, 0x00, 0x02, 0xf0, 0x00, 0x00, 0x00,
  0x44, 0xf8, 0xff, 0xff, 0x08, 0x00, 0x00, 0x00, 0x88, 0x00, 0x00, 0x00,
  0x10, 0x00, 0x00, 0x00, 0x00, 0x00, 0x00, 0x00, 0x00, 0x00, 0x00, 0x00,
  0x00, 0x00, 0x00, 0x00, 0x00, 0x00, 0x00, 0x00, 0x00, 0x00, 0x00, 0x00,
  0x00, 0x00, 0x00, 0x00, 0x00, 0x00, 0x00, 0x00, 0x00, 0x00, 0x00, 0x00,
  0x00, 0x00, 0x00, 0x00, 0x00, 0x00, 0x00, 0x00, 0x00, 0x00, 0x00, 0x00,
  0x00, 0x00, 0x00, 0x00, 0x00, 0x00, 0x00, 0x00, 0x00, 0x00, 0x00, 0x00,
  0x00, 0x00, 0x00, 0x00, 0x00, 0x00, 0x00, 0x00, 0x00, 0x00, 0x00, 0x00,
  0x00, 0x00, 0x00, 0x00, 0x00, 0x00, 0x00, 0x00, 0x00, 0x00, 0x00, 0x00,
  0x00, 0x00, 0x00, 0x00, 0x00, 0x00, 0x00, 0x00, 0x00, 0x00, 0x00, 0x00,
  0x00, 0x00, 0x00, 0x00, 0x00, 0x00, 0x00, 0x00, 0x00, 0x00, 0x00, 0x00,
  0x00, 0x00, 0x00, 0x00, 0x00, 0x00, 0x00, 0x00, 0x00, 0x00, 0x00, 0x00,
  0x00, 0x00, 0x00, 0x00, 0x00, 0x00, 0x00, 0x00, 0x00, 0x00, 0x00, 0x00,
  0x10, 0x00, 0x00, 0x00, 0x49, 0xa8, 0x11, 0x39, 0x8e, 0xc4, 0xc8, 0x38,
  0xef, 0xeb, 0x53, 0x39, 0xa6, 0x71, 0x22, 0x39, 0x20, 0x1d, 0xf1, 0x38,
  0xc8, 0x3c, 0x8a, 0x39, 0xbb, 0xfe, 0x18, 0x39, 0xa4, 0xcd, 0xbc, 0x38,
  0x51, 0xd5, 0x06, 0x39, 0xf0, 0xf0, 0x02, 0x39, 0xf7, 0x67, 0xe3, 0x38,
  0xb5, 0x41, 0xd5, 0x38, 0x29, 0xee, 0x50, 0x39, 0x45, 0x24, 0x09, 0x39,
  0x3b, 0xc4, 0x25, 0x39, 0x03, 0x14, 0x47, 0x39, 0x12, 0x00, 0x00, 0x00,
  0x74, 0x66, 0x6c, 0x2e, 0x70, 0x73, 0x65, 0x75, 0x64, 0x6f, 0x5f, 0x71,
  0x63, 0x6f, 0x6e, 0x73, 0x74, 0x34, 0x00, 0x00, 0x01, 0x00, 0x00, 0x00,
  0x10, 0x00, 0x00, 0x00, 0xd2, 0xf9, 0xff, 0xff, 0x00, 0x00, 0x00, 0x01,
  0x14, 0x00, 0x00, 0x00, 0xa8, 0x01, 0x00, 0x00, 0x0d, 0x00, 0x00, 0x00,
  0x00, 0x00, 0x00, 0x09, 0xb4, 0x01, 0x00, 0x00, 0x54, 0xf9, 0xff, 0xff,
  0x08, 0x00, 0x00, 0x00, 0x0c, 0x01, 0x00, 0x00, 0x20, 0x00, 0x00, 0x00,
  0x00, 0x00, 0x00, 0x00, 0x00, 0x00, 0x00, 0x00, 0x00, 0x00, 0x00, 0x00,
  0x00, 0x00, 0x00, 0x00, 0x00, 0x00, 0x00, 0x00, 0x00, 0x00, 0x00, 0x00,
  0x00, 0x00, 0x00, 0x00, 0x00, 0x00, 0x00, 0x00, 0x00, 0x00, 0x00, 0x00,
  0x00, 0x00, 0x00, 0x00, 0x00, 0x00, 0x00, 0x00, 0x00, 0x00, 0x00, 0x00,
  0x00, 0x00, 0x00, 0x00, 0x00, 0x00, 0x00, 0x00, 0x00, 0x00, 0x00, 0x00,
  0x00, 0x00, 0x00, 0x00, 0x00, 0x00, 0x00, 0x00, 0x00, 0x00, 0x00, 0x00,
  0x00, 0x00, 0x00, 0x00, 0x00, 0x00, 0x00, 0x00, 0x00, 0x00, 0x00, 0x00,
  0x00, 0x00, 0x00, 0x00, 0x00, 0x00, 0x00, 0x00, 0x00, 0x00, 0x00, 0x00,
  0x00, 0x00, 0x00, 0x00, 0x00, 0x00, 0x00, 0x00, 0x00, 0x00, 0x00, 0x00,
  0x00, 0x00, 0x00, 0x00, 0x00, 0x00, 0x00, 0x00, 0x00, 0x00, 0x00, 0x00,
  0x00, 0x00, 0x00, 0x00, 0x00, 0x00, 0x00, 0x00, 0x00, 0x00, 0x00, 0x00,
  0x00, 0x00, 0x00, 0x00, 0x00, 0x00, 0x00, 0x00, 0x00, 0x00, 0x00, 0x00,
  0x00, 0x00, 0x00, 0x00, 0x00, 0x00, 0x00, 0x00, 0x00, 0x00, 0x00, 0x00,
  0x00, 0x00, 0x00, 0x00, 0x00, 0x00, 0x00, 0x00, 0x00, 0x00, 0x00, 0x00,
  0x00, 0x00, 0x00, 0x00, 0x00, 0x00, 0x00, 0x00, 0x00, 0x00, 0x00, 0x00,
  0x00, 0x00, 0x00, 0x00, 0x00, 0x00, 0x00, 0x00, 0x00, 0x00, 0x00, 0x00,
  0x00, 0x00, 0x00, 0x00, 0x00, 0x00, 0x00, 0x00, 0x00, 0x00, 0x00, 0x00,
  0x00, 0x00, 0x00, 0x00, 0x00, 0x00, 0x00, 0x00, 0x00, 0x00, 0x00, 0x00,
  0x00, 0x00, 0x00, 0x00, 0x00, 0x00, 0x00, 0x00, 0x00, 0x00, 0x00, 0x00,
  0x00, 0x00, 0x00, 0x00, 0x00, 0x00, 0x00, 0x00, 0x00, 0x00, 0x00, 0x00,
  0x00, 0x00, 0x00, 0x00, 0x00, 0x00, 0x00, 0x00, 0x00, 0x00, 0x00, 0x00,
  0x00, 0x00, 0x00, 0x00, 0x00, 0x00, 0x00, 0x00, 0x20, 0x00, 0x00, 0x00,
  0x60, 0x95, 0xa2, 0x3b, 0xf6, 0x5d, 0x8e, 0x3b, 0x32, 0xc5, 0xa1, 0x3b,
  0x06, 0x70, 0xe3, 0x3b, 0x14, 0x88, 0xe1, 0x3b, 0x8d, 0xc7, 0x8c, 0x3b,
  0xf7, 0x7c, 0x93, 0x3b, 0x18, 0x09, 0x86, 0x3b, 0xb1, 0x66, 0x96, 0x3b,
  0x8a, 0x49, 0xbb, 0x3b, 0xba, 0x47, 0xab, 0x3b, 0x23, 0x91, 0xbf, 0x3b,
  0xbf, 0x0d, 0xa6, 0x3b, 0x90, 0x36, 0x96, 0x3b, 0xe3, 0xcc, 0xb2, 0x3b,
  0x1f, 0x0b, 0xd1, 0x3b, 0x2f, 0xe6, 0x49, 0x3b, 0x39, 0x9f, 0xd2, 0x3b,
  0xe1, 0x62, 0xb1, 0x3b, 0x31, 0x34, 0xa5, 0x3b, 0x13, 0xd6, 0x5e, 0x3b,
  0xcc, 0x58, 0xa0, 0x3b, 0xb5, 0x0e, 0x9a, 0x3b, 0xe8, 0xd1, 0x72, 0x3b,
  0x32, 0x26, 0xe9, 0x3b, 0x0d, 0x8a, 0xa5, 0x3b, 0xb2, 0xd6, 0xb2, 0x3b,
  0xe5, 0x38, 0x74, 0x3b, 0x9e, 0x13, 0xaf, 0x3b, 0x36, 0x2e, 0xa3, 0x3b,
  0x9a, 0xe8, 0xa3, 0x3b, 0x03, 0x97, 0x9d, 0x3b, 0x12, 0x00, 0x00, 0x00,
  0x74, 0x66, 0x6c, 0x2e, 0x70, 0x73, 0x65, 0x75, 0x64, 0x6f, 0x5f, 0x71,
  0x63, 0x6f, 0x6e, 0x73, 0x74, 0x33, 0x00, 0x00, 0x04, 0x00, 0x00, 0x00,
  0x20, 0x00, 0x00, 0x00, 0x01, 0x00, 0x00, 0x00, 0x03, 0x00, 0x00, 0x00,
  0x10, 0x00, 0x00, 0x00, 0xb2, 0xfb, 0xff, 0xff, 0x00, 0x00, 0x00, 0x01,
  0x14, 0x00, 0x00, 0x00, 0xa4, 0x01, 0x00, 0x00, 0x0c, 0x00, 0x00, 0x00,
  0x00, 0x00, 0x00, 0x02, 0xb0, 0x01, 0x00, 0x00, 0x34, 0xfb, 0xff, 0xff,
  0x08, 0x00, 0x00, 0x00, 0x08, 0x01, 0x00, 0x00, 0x20, 0x00, 0x00, 0x00,
  0x00, 0x00, 0x00, 0x00, 0x00, 0x00, 0x00, 0x00, 0x00, 0x00, 0x00, 0x00,
  0x00, 0x00, 0x00, 0x00, 0x00, 0x00, 0x00, 0x00, 0x00, 0x00, 0x00, 0x00,
  0x00, 0x00, 0x00, 0x00, 0x00, 0x00, 0x00, 0x00, 0x00, 0x00, 0x00, 0x00,
  0x00, 0x00, 0x00, 0x00, 0x00, 0x00, 0x00, 0x00, 0x00, 0x00, 0x00, 0x00,
  0x00, 0x00, 0x00, 0x00, 0x00, 0x00, 0x00, 0x00, 0x00, 0x00, 0x00, 0x00,
  0x00, 0x00, 0x00, 0x00, 0x00, 0x00, 0x00, 0x00, 0x00, 0x00, 0x00, 0x00,
  0x00, 0x00, 0x00, 0x00, 0x00, 0x00, 0x00, 0x00, 0x00, 0x00, 0x00, 0x00,
  0x00, 0x00, 0x00, 0x00, 0x00, 0x00, 0x00, 0x00, 0x00, 0x00, 0x00, 0x00,
  0x00, 0x00, 0x00, 0x00, 0x00, 0x00, 0x00, 0x00, 0x00, 0x00, 0x00, 0x00,
  0x00, 0x00, 0x00, 0x00, 0x00, 0x00, 0x00, 0x00, 0x00, 0x00, 0x00, 0x00,
  0x00, 0x00, 0x00, 0x00, 0x00, 0x00, 0x00, 0x00, 0x00, 0x00, 0x00, 0x00,
  0x00, 0x00, 0x00, 0x00, 0x00, 0x00, 0x00, 0x00, 0x00, 0x00, 0x00, 0x00,
  0x00, 0x00, 0x00, 0x00, 0x00, 0x00, 0x00, 0x00, 0x00, 0x00, 0x00, 0x00,
  0x00, 0x00, 0x00, 0x00, 0x00, 0x00, 0x00, 0x00, 0x00, 0x00, 0x00, 0x00,
  0x00, 0x00, 0x00, 0x00, 0x00, 0x00, 0x00, 0x00, 0x00, 0x00, 0x00, 0x00,
  0x00, 0x00, 0x00, 0x00, 0x00, 0x00, 0x00, 0x00, 0x00, 0x00, 0x00, 0x00,
  0x00, 0x00, 0x00, 0x00, 0x00, 0x00, 0x00, 0x00, 0x00, 0x00, 0x00, 0x00,
  0x00, 0x00, 0x00, 0x00, 0x00, 0x00, 0x00, 0x00, 0x00, 0x00, 0x00, 0x00,
  0x00, 0x00, 0x00, 0x00, 0x00, 0x00, 0x00, 0x00, 0x00, 0x00, 0x00, 0x00,
  0x00, 0x00, 0x00, 0x00, 0x00, 0x00, 0x00, 0x00, 0x00, 0x00, 0x00, 0x00,
  0x00, 0x00, 0x00, 0x00, 0x00, 0x00, 0x00, 0x00, 0x00, 0x00, 0x00, 0x00,
  0x00, 0x00, 0x00, 0x00, 0x20, 0x00, 0x00, 0x00, 0xd4, 0xd5, 0x36, 0x39,
  0xc1, 0x19, 0x20, 0x39, 0xb7, 0xeb, 0x35, 0x39, 0x8a, 0xc4, 0x7f, 0x39,
  0xd1, 0x9f, 0x7d, 0x39, 0xb8, 0x50, 0x1e, 0x39, 0x0f, 0xdc, 0x25, 0x39,
  0x36, 0xbb, 0x16, 0x39, 0xac, 0x22, 0x29, 0x39, 0xbe, 0x9d, 0x52, 0x39,
  0x80, 0x9d, 0x40, 0x39, 0xd0, 0x6d, 0x57, 0x39, 0xdb, 0xbc, 0x3a, 0x39,
  0x8d, 0xec, 0x28, 0x39, 0x76, 0x12, 0x49, 0x39, 0x16, 0x15, 0x6b, 0x39,
  0x55, 0x0c, 0xe3, 0x38, 0x86, 0xdb, 0x6c, 0x39, 0x5c, 0x7b, 0x47, 0x39,
  0x34, 0xc8, 0x39, 0x39, 0xdd, 0x97, 0xfa, 0x38, 0xee, 0x51, 0x34, 0x39,
  0x48, 0x3f, 0x2d, 0x39, 0x78, 0x88, 0x08, 0x39, 0x6c, 0x18, 0x83, 0x39,
  0xc2, 0x28, 0x3a, 0x39, 0x7e, 0x1d, 0x49, 0x39, 0x52, 0x52, 0x09, 0x39,
  0x73, 0xe2, 0x44, 0x39, 0xb4, 0x81, 0x37, 0x39, 0x4f, 0x53, 0x38, 0x39,
  0x3b, 0x38, 0x31, 0x39, 0x12, 0x00, 0x00, 0x00, 0x74, 0x66, 0x6c, 0x2e,
  0x70, 0x73, 0x65, 0x75, 0x64, 0x6f, 0x5f, 0x71, 0x63, 0x6f, 0x6e, 0x73,
  0x74, 0x32, 0x00, 0x00, 0x01, 0x00, 0x00, 0x00, 0x20, 0x00, 0x00, 0x00,
  0x82, 0xfd, 0xff, 0xff, 0x00, 0x00, 0x00, 0x01, 0x14, 0x00, 0x00, 0x00,
  0x40, 0x00, 0x00, 0x00, 0x0b, 0x00, 0x00, 0x00, 0x00, 0x00, 0x00, 0x09,
  0x4c, 0x00, 0x00, 0x00, 0x04, 0xfd, 0xff, 0xff, 0x08, 0x00, 0x00, 0x00,
  0x1c, 0x00, 0x00, 0x00, 0x02, 0x00, 0x00, 0x00, 0x00, 0x00, 0x00, 0x00,
  0x00, 0x00, 0x00, 0x00, 0x00, 0x00, 0x00, 0x00, 0x00, 0x00, 0x00, 0x00,
  0x00, 0x00, 0x00, 0x00, 0x02, 0x00, 0x00, 0x00, 0xb0, 0x20, 0x7a, 0x3b,
  0x1c, 0x6a, 0x96, 0x3b, 0x12, 0x00, 0x00, 0x00, 0x74, 0x66, 0x6c, 0x2e,
  0x70, 0x73, 0x65, 0x75, 0x64, 0x6f, 0x5f, 0x71, 0x63, 0x6f, 0x6e, 0x73,
  0x74, 0x31, 0x00, 0x00, 0x02, 0x00, 0x00, 0x00, 0x02, 0x00, 0x00, 0x00,
  0x20, 0x00, 0x00, 0x00, 0xf2, 0xfd, 0xff, 0xff, 0x00, 0x00, 0x00, 0x01,
  0x14, 0x00, 0x00, 0x00, 0x40, 0x00, 0x00, 0x00, 0x0a, 0x00, 0x00, 0x00,
  0x00, 0x00, 0x00, 0x02, 0x4c, 0x00, 0x00, 0x00, 0x74, 0xfd, 0xff, 0xff,
  0x08, 0x00, 0x00, 0x00, 0x1c, 0x00, 0x00, 0x00, 0x02, 0x00, 0x00, 0x00,
  0x00, 0x00, 0x00, 0x00, 0x00, 0x00, 0x00, 0x00, 0x00, 0x00, 0x00, 0x00,
  0x00, 0x00, 0x00, 0x00, 0x00, 0x00, 0x00, 0x00, 0x02, 0x00, 0x00, 0x00,
  0xd3, 0xb4, 0xe2, 0x37, 0x7e, 0x54, 0x08, 0x38, 0x11, 0x00, 0x00, 0x00,
  0x74, 0x66, 0x6c, 0x2e, 0x70, 0x73, 0x65, 0x75, 0x64, 0x6f, 0x5f, 0x71,
  0x63, 0x6f, 0x6e, 0x73, 0x74, 0x00, 0x00, 0x00, 0x01, 0x00, 0x00, 0x00,
  0x02, 0x00, 0x00, 0x00, 0x5e, 0xfe, 0xff, 0xff, 0x00, 0x00, 0x00, 0x01,
  0x14, 0x00, 0x00, 0x00, 0x14, 0x00, 0x00, 0x00, 0x09, 0x00, 0x00, 0x00,
  0x00, 0x00, 0x00, 0x02, 0x1c, 0x00, 0x00, 0x00, 0x48, 0xfe, 0xff, 0xff,
  0x0f, 0x00, 0x00, 0x00, 0x61, 0x72, 0x69, 0x74, 0x68, 0x2e, 0x63, 0x6f,
  0x6e, 0x73, 0x74, 0x61, 0x6e, 0x74, 0x37, 0x00, 0x01, 0x00, 0x00, 0x00,
  0x03, 0x00, 0x00, 0x00, 0x9a, 0xfe, 0xff, 0xff, 0x00, 0x00, 0x00, 0x01,
  0x14, 0x00, 0x00, 0x00, 0x14, 0x00, 0x00, 0x00, 0x08, 0x00, 0x00, 0x00,
  0x00, 0x00, 0x00, 0x02, 0x1c, 0x00, 0x00, 0x00, 0x84, 0xfe, 0xff, 0xff,
  0x0f, 0x00, 0x00, 0x00, 0x61, 0x72, 0x69, 0x74, 0x68, 0x2e, 0x63, 0x6f,
  0x6e, 0x73, 0x74, 0x61, 0x6e, 0x74, 0x36, 0x00, 0x01, 0x00, 0x00, 0x00,
  0x03, 0x00, 0x00, 0x00, 0xd6, 0xfe, 0xff, 0xff, 0x00, 0x00, 0x00, 0x01,
  0x14, 0x00, 0x00, 0x00, 0x14, 0x00, 0x00, 0x00, 0x07, 0x00, 0x00, 0x00,
  0x00, 0x00, 0x00, 0x02, 0x1c, 0x00, 0x00, 0x00, 0xc0, 0xfe, 0xff, 0xff,
  0x0f, 0x00, 0x00, 0x00, 0x61, 0x72, 0x69, 0x74, 0x68, 0x2e, 0x63, 0x6f,
  0x6e, 0x73, 0x74, 0x61, 0x6e, 0x74, 0x35, 0x00, 0x01, 0x00, 0x00, 0x00,
  0x03, 0x00, 0x00, 0x00, 0x12, 0xff, 0xff, 0xff, 0x00, 0x00, 0x00, 0x01,
  0x14, 0x00, 0x00, 0x00, 0x14, 0x00, 0x00, 0x00, 0x06, 0x00, 0x00, 0x00,
  0x00, 0x00, 0x00, 0x02, 0x1c, 0x00, 0x00, 0x00, 0xfc, 0xfe, 0xff, 0xff,
  0x0f, 0x00, 0x00, 0x00, 0x61, 0x72, 0x69, 0x74, 0x68, 0x2e, 0x63, 0x6f,
  0x6e, 0x73, 0x74, 0x61, 0x6e, 0x74, 0x34, 0x00, 0x01, 0x00, 0x00, 0x00,
  0x03, 0x00, 0x00, 0x00, 0x4e, 0xff, 0xff, 0xff, 0x00, 0x00, 0x00, 0x01,
  0x14, 0x00, 0x00, 0x00, 0x14, 0x00, 0x00, 0x00, 0x05, 0x00, 0x00, 0x00,
  0x00, 0x00, 0x00, 0x02, 0x1c, 0x00, 0x00, 0x00, 0x38, 0xff, 0xff, 0xff,
  0x0f, 0x00, 0x00, 0x00, 0x61, 0x72, 0x69, 0x74, 0x68, 0x2e, 0x63, 0x6f,
  0x6e, 0x73, 0x74, 0x61, 0x6e, 0x74, 0x33, 0x00, 0x01, 0x00, 0x00, 0x00,
  0x03, 0x00, 0x00, 0x00, 0x8a, 0xff, 0xff, 0xff, 0x00, 0x00, 0x00, 0x01,
  0x14, 0x00, 0x00, 0x00, 0x14, 0x00, 0x00, 0x00, 0x04, 0x00, 0x00, 0x00,
  0x00, 0x00, 0x00, 0x02, 0x1c, 0x00, 0x00, 0x00, 0x74, 0xff, 0xff, 0xff,
  0x0f, 0x00, 0x00, 0x00, 0x61, 0x72, 0x69, 0x74, 0x68, 0x2e, 0x63, 0x6f,
  0x6e, 0x73, 0x74, 0x61, 0x6e, 0x74, 0x32, 0x00, 0x00, 0x00, 0x00, 0x00,
  0xc2, 0xff, 0xff, 0xff, 0x00, 0x00, 0x00, 0x01, 0x14, 0x00, 0x00, 0x00,
  0x14, 0x00, 0x00, 0x00, 0x03, 0x00, 0x00, 0x00, 0x00, 0x00, 0x00, 0x02,
  0x1c, 0x00, 0x00, 0x00, 0xac, 0xff, 0xff, 0xff, 0x0f, 0x00, 0x00, 0x00,
  0x61, 0x72, 0x69, 0x74, 0x68, 0x2e, 0x63, 0x6f, 0x6e, 0x73, 0x74, 0x61,
  0x6e, 0x74, 0x31, 0x00, 0x01, 0x00, 0x00, 0x00, 0x03, 0x00, 0x00, 0x00,
  0x00, 0x00, 0x16, 0x00, 0x1c, 0x00, 0x18, 0x00, 0x17, 0x00, 0x10, 0x00,
  0x0c, 0x00, 0x08, 0x00, 0x00, 0x00, 0x00, 0x00, 0x00, 0x00, 0x07, 0x00,
  0x16, 0x00, 0x00, 0x00, 0x00, 0x00, 0x00, 0x01, 0x18, 0x00, 0x00, 0x00,
  0x18, 0x00, 0x00, 0x00, 0x02, 0x00, 0x00, 0x00, 0x00, 0x00, 0x00, 0x02,
  0x20, 0x00, 0x00, 0x00, 0x04, 0x00, 0x04, 0x00, 0x04, 0x00, 0x00, 0x00,
  0x0e, 0x00, 0x00, 0x00, 0x61, 0x72, 0x69, 0x74, 0x68, 0x2e, 0x63, 0x6f,
  0x6e, 0x73, 0x74, 0x61, 0x6e, 0x74, 0x00, 0x00, 0x00, 0x00, 0x00, 0x00,
  0x00, 0x00, 0x16, 0x00, 0x20, 0x00, 0x1c, 0x00, 0x1b, 0x00, 0x14, 0x00,
  0x10, 0x00, 0x0c, 0x00, 0x00, 0x00, 0x00, 0x00, 0x08, 0x00, 0x07, 0x00,
  0x16, 0x00, 0x00, 0x00, 0x00, 0x00, 0x00, 0x01, 0x18, 0x00, 0x00, 0x00,
  0x30, 0x00, 0x00, 0x00, 0x4c, 0x00, 0x00, 0x00, 0x01, 0x00, 0x00, 0x00,
  0x00, 0x00, 0x00, 0x09, 0x68, 0x00, 0x00, 0x00, 0x03, 0x00, 0x00, 0x00,
  0xff, 0xff, 0xff, 0xff, 0xe8, 0x03, 0x00, 0x00, 0x04, 0x00, 0x00, 0x00,
  0x0c, 0x00, 0x0c, 0x00, 0x00, 0x00, 0x00, 0x00, 0x08, 0x00, 0x04, 0x00,
  0x0c, 0x00, 0x00, 0x00, 0x08, 0x00, 0x00, 0x00, 0x10, 0x00, 0x00, 0x00,
  0x01, 0x00, 0x00, 0x00, 0x0b, 0x00, 0x00, 0x00, 0x00, 0x00, 0x00, 0x00,
  0x01, 0x00, 0x00, 0x00, 0x1c, 0x42, 0x00, 0x3e, 0x21, 0x00, 0x00, 0x00,
  0x73, 0x65, 0x72, 0x76, 0x69, 0x6e, 0x67, 0x5f, 0x64, 0x65, 0x66, 0x61,
  0x75, 0x6c, 0x74, 0x5f, 0x6b, 0x65, 0x72, 0x61, 0x73, 0x5f, 0x74, 0x65,
  0x6e, 0x73, 0x6f, 0x72, 0x5f, 0x33, 0x31, 0x3a, 0x30, 0x00, 0x00, 0x00,
  0x03, 0x00, 0x00, 0x00, 0x01, 0x00, 0x00, 0x00, 0xe8, 0x03, 0x00, 0x00,
  0x04, 0x00, 0x00, 0x00, 0x07, 0x00, 0x00, 0x00, 0x90, 0x00, 0x00, 0x00,
  0x70, 0x00, 0x00, 0x00, 0x54, 0x00, 0x00, 0x00, 0x40, 0x00, 0x00, 0x00,
  0x2c, 0x00, 0x00, 0x00, 0x18, 0x00, 0x00, 0x00, 0x04, 0x00, 0x00, 0x00,
  0xb4, 0xff, 0xff, 0xff, 0x19, 0x00, 0x00, 0x00, 0x02, 0x00, 0x00, 0x00,
  0x00, 0x00, 0x00, 0x19, 0xc4, 0xff, 0xff, 0xff, 0x09, 0x00, 0x00, 0x00,
  0x04, 0x00, 0x00, 0x00, 0x00, 0x00, 0x00, 0x09, 0xd4, 0xff, 0xff, 0xff,
  0x28, 0x00, 0x00, 0x00, 0x02, 0x00, 0x00, 0x00, 0x00, 0x00, 0x00, 0x28,
  0xe4, 0xff, 0xff, 0xff, 0x11, 0x00, 0x00, 0x00, 0x02, 0x00, 0x00, 0x00,
  0x00, 0x00, 0x00, 0x11, 0xd8, 0xff, 0xff, 0xff, 0x16, 0x00, 0x00, 0x00,
  0x00, 0x00, 0x00, 0x16, 0x0c, 0x00, 0x10, 0x00, 0x0f, 0x00, 0x00, 0x00,
  0x08, 0x00, 0x04, 0x00, 0x0c, 0x00, 0x00, 0x00, 0x03, 0x00, 0x00, 0x00,
  0x03, 0x00, 0x00, 0x00, 0x00, 0x00, 0x00, 0x03, 0x0c, 0x00, 0x0c, 0x00,
  0x0b, 0x00, 0x00, 0x00, 0x00, 0x00, 0x04, 0x00, 0x0c, 0x00, 0x00, 0x00,
  0x46, 0x00, 0x00, 0x00, 0x00, 0x00, 0x00, 0x46
};
unsigned int g_stress_model_data_len = 12344;
